{"<pad>":0,"<s>":1,"</s>":2,"<unk>":3,"<METER_ANUSHTUBH>":4,"<METER_TRISHTUBH>":5,"<METER_UNKNOWN>":6,"!":7,"\"":8,"#":9,"$":10,"%":11,"&":12,"'":13,"(":14,")":15,"*":16,"+":17,",":18,"-":19,".":20,"/":21,"0":22,"1":23,"2":24,"3":25,"4":26,"5":27,"6":28,"7":29,"8":30,"9":31,":":32,";":33,"<":34,"=":35,">":36,"?":37,"@":38,"A":39,"B":40,"C":41,"D":42,"E":43,"F":44,"G":45,"H":46,"I":47,"J":48,"K":49,"L":50,"M":51,"N":52,"O":53,"P":54,"Q":55,"R":56,"S":57,"T":58,"U":59,"V":60,"W":61,"X":62,"Y":63,"Z":64,"[":65,"\\":66,"]":67,"^":68,"_":69,"`":70,"a":71,"b":72,"c":73,"d":74,"e":75,"f":76,"g":77,"h":78,"i":79,"j":80,"k":81,"l":82,"m":83,"n":84,"o":85,"p":86,"q":87,"r":88,"s":89,"t":90,"u":91,"v":92,"w":93,"x":94,"y":95,"z":96,"{":97,"|":98,"}":99,"~":100,"¡":101,"¢":102,"£":103,"¤":104,"¥":105,"¦":106,"§":107,"¨":108,"©":109,"ª":110,"«":111,"¬":112,"®":113,"¯":114,"°":115,"±":116,"²":117,"³":118,"´":119,"µ":120,"¶":121,"·":122,"¸":123,"¹":124,"º":125,"»":126,"¼":127,"½":128,"¾":129,"¿":130,"À":131,"Á":132,"Â":133,"Ã":134,"Ä":135,"Å":136,"Æ":137,"Ç":138,"È":139,"É":140,"Ê":141,"Ë":142,"Ì":143,"Í":144,"Î":145,"Ï":146,"Ð":147,"Ñ":148,"Ò":149,"Ó":150,"Ô":151,"Õ":152,"Ö":153,"×":154,"Ø":155,"Ù":156,"Ú":157,"Û":158,"Ü":159,"Ý":160,"Þ":161,"ß":162,"à":163,"á":164,"â":165,"ã":166,"ä":167,"å":168,"æ":169,"ç":170,"è":171,"é":172,"ê":173,"ë":174,"ì":175,"í":176,"î":177,"ï":178,"ð":179,"ñ":180,"ò":181,"ó":182,"ô":183,"õ":184,"ö":185,"÷":186,"ø":187,"ù":188,"ú":189,"û":190,"ü":191,"ý":192,"þ":193,"ÿ":194,"Ā":195,"ā":196,"Ă":197,"ă":198,"Ą":199,"ą":200,"Ć":201,"ć":202,"Ĉ":203,"ĉ":204,"Ċ":205,"ċ":206,"Č":207,"č":208,"Ď":209,"ď":210,"Đ":211,"đ":212,"Ē":213,"ē":214,"Ĕ":215,"ĕ":216,"Ė":217,"ė":218,"Ę":219,"ę":220,"Ě":221,"ě":222,"Ĝ":223,"ĝ":224,"Ğ":225,"ğ":226,"Ġ":227,"ġ":228,"Ģ":229,"ģ":230,"Ĥ":231,"ĥ":232,"Ħ":233,"ħ":234,"Ĩ":235,"ĩ":236,"Ī":237,"ī":238,"Ĭ":239,"ĭ":240,"Į":241,"į":242,"İ":243,"ı":244,"Ĳ":245,"ĳ":246,"Ĵ":247,"ĵ":248,"Ķ":249,"ķ":250,"ĸ":251,"Ĺ":252,"ĺ":253,"Ļ":254,"ļ":255,"Ľ":256,"ľ":257,"Ŀ":258,"ŀ":259,"Ł":260,"ł":261,"Ń":262,"Äģ":263,"á¹":264,"ya":265,"ta":266,"ra":267,"á¹ĥ":268,"va":269,"¥¤":270,"à¥¤":271,"ha":272,"á¸":273,"ÅĽ":274,"á¸¥":275,"Ġà¥¤":276,"á¹£":277,"na":278,"sa":279,"ma":280,"ti":281,"pa":282,"yÄģ":283,"á¹ĩ":284,"hÄģ":285,"Ä«":286,"vÄģ":287,"ka":288,"Ġa":289,"vi":290,"Ġp":291,"ca":292,"á¹Ľ":293,"rÄģ":294,"hi":295,"mÄģ":296,"da":297,"Ġsa":298,"nÄģ":299,"tÄģ":300,"Å«":301,"Ġb":302,"te":303,"Ġs":304,"ga":305,"Ġta":306,"ni":307,"Ġà¥¤à¥¤":308,"Ġk":309,"ÅĽa":310,"la":311,"á¹ĩa":312,"Ġd":313,"á¹£a":314,"Ġca":315,"á¹Ń":316,"ri":317,"kÄģ":318,"ja":319,"Ġpra":320,"dha":321,"sya":322,"tha":323,"tu":324,"Ġi":325,"Ġvi":326,"ye":327,"bh":328,"Ã±":329,"yo":330,"dh":331,"tra":332,"thÄģ":333,"ve":334,"Ġna":335,"Ġpa":336,"á¹£á¹Ń":337,"Ġma":338,"di":339,"mi":340,"Ġya":341,"eva":342,"pra":343,"ĠĊ":344,"dÄģ":345,"tya":346,"pi":347,"pÄģ":348,"ĠÅĽ":349,"Ġka":350,"ru":351,"re":352,"taá¸¥":353,"á¹ĩÄģ":354,"ká¹£":355,"Ġva":356,"tvÄģ":357,"bha":358,"á¹ħ":359,"to":360,"uk":361,"tva":362,"yaá¹ĥ":363,"ĠÄģ":364,"jÃ±":365,"taá¹ĥ":366,"nu":367,"Ġbha":368,"ro":369,"bhÄģ":370,"dhi":371,"Ġc":372,"bhi":373,"sÄģ":374,"dhÄģ":375,"rva":376,"ĠvÄģ":377,"ne":378,"he":379,"Ġni":380,"ká¹£a":381,"Ġu":382,"saá¹ĥ":383,"á¸į":384,"tÄ«":385,"nta":386,"Ġiti":387,"yu":388,"yate":389,"jÄģ":390,"Ġg":391,"rÄ«":392,"rtha":393,"tam":394,"lÄģ":395,"naá¹ĥ":396,"ci":397,"me":398,"Ġv":399,"jÃ±Äģ":400,"Ġpu":401,"mu":402,"Ġsaá¹ĥ":403,"de":404,"rÅ«":405,"ĠnÄģ":406,"Ġeva":407,"nya":408,"Ġe":409,"iva":410,"cc":411,"no":412,"á¹£Äģ":413,"ĠÅĽa":414,"tta":415,"lo":416,"si":417,"yaá¸¥":418,"ĠkÄģ":419,"yam":420,"Ġtu":421,"raá¹ĥ":422,"ba":423,"rma":424,"tyÄģ":425,"ĠsÄģ":426,"ká¹Ľ":427,"ho":428,"nti":429,"Ġte":430,"nÄģá¹ĥ":431,"var":432,"Ġda":433,"ÅĽÄģ":434,"gÄģ":435,"syÄģ":436,"nÄ«":437,"Ġga":438,"pu":439,"iá¸¥":440,"á¹£u":441,"hu":442,"thi":443,"Ġsarva":444,"á¹£á¹Ńa":445,"á¹ĩi":446,"ddha":447,"nd":448,"naá¸¥":449,"nam":450,"yati":451,"trÄģ":452,"Ġja":453,"bhÅ«":454,"li":455,"Ġapi":456,"Ġsu":457,"ena":458,"ĠprÄģ":459,"ĠmÄģ":460,"cÄģ":461,"Å«r":462,"á¹ĩá¸į":463,"ir":464,"Ġhi":465,"Ġku":466,"ÅĽca":467,"Ġra":468,"ty":469,"su":470,"vá¹Ľ":471,"ÅĽe":472,"ĠpÄģ":473,"ĠrÄģ":474,"Ġsva":475,"ĠmahÄģ":476,"ĠcÄģ":477,"sta":478,"raá¹ĩa":479,"yÄģá¹ĥ":480,"Ġm":481,"Ġbhava":482,"vo":483,"ĠtathÄģ":484,"ram":485,"Ġbh":486,"tma":487,"ĠtÄģ":488,"raá¸¥":489,"rya":490,"Ġká¹Ľ":491,"dya":492,"Ġki":493,"Ġtat":494,"ku":495,"vya":496,"ÅĽi":497,"haá¹ĥ":498,"á¹ħga":499,"kaá¹ĥ":500,"le":501,"yi":502,"Ġdha":503,"Ġba":504,"tri":505,"vÄ«":506,"ke":507,"hma":508,"gu":509,"tas":510,"Ġprati":511,"Ġtad":512,"hÄ«":513,"rÅ«pa":514,"hyÄģ":515,"laá¹ĥ":516,"ĠbhÄģ":517,"Ġha":518,"tvaá¹ĥ":519,"rama":520,"pe":521,"ÅĽva":522,"du":523,"yan":524,"Ġde":525,"prÄģ":526,"sva":527,"ĠyÄģ":528,"vyÄģ":529,"bhÄģva":530,"ká¹£i":531,"ĠyathÄģ":532,"Ġj":533,"tti":534,"mo":535,"dá¹Ľ":536,"sat":537,"tÄģá¸¥":538,"á¹Ńa":539,"Ġpari":540,"ko":541,"vat":542,"á¹ĩaá¹ĥ":543,"daá¹ĥ":544,"á¹ĩe":545,"tve":546,"dÄ«":547,"ndha":548,"yÄģt":549,"ccha":550,"gra":551,"rÅĽa":552,"Ġsar":553,"á¹£i":554,"há¹Ľ":555,"tÄģá¹ĥ":556,"má¹Ľ":557,"Ã±ca":558,"vÄģn":559,"tá¹Ľ":560,"Ġvai":561,"ud":562,"á¹ĩo":563,"lam":564,"muk":565,"Ġsama":566,"pari":567,"kÄģra":568,"á¹ĩá¸įa":569,"ká¹£Äģ":570,"smÄģ":571,"rahma":572,"bhe":573,"nna":574,"stu":575,"dhe":576,"kam":577,"Ġyo":578,"nda":579,"ryÄģ":580,"Ġla":581,"tat":582,"yuk":583,"hya":584,"dhya":585,"tad":586,"á¹£e":587,"Ġupa":588,"rthaá¸¥":589,"jÃ±a":590,"á¹ĩÄ«":591,"nyÄģ":592,"ĠbhÅ«":593,"Ġci":594,"Ġdá¹Ľ":595,"ĠsamÄģ":596,"ĠjÄģ":597,"Å«rva":598,"Ġlo":599,"reá¹ĩa":600,"Ġanu":601,"Ġdu":602,"pya":603,"prati":604,"ji":605,"á¹ĩÄģá¹ĥ":606,"ÅĽo":607,"á¹£á¹ŃÄģ":608,"do":609,"has":610,"Ġtatra":611,"tiá¸¥":612,"kta":613,"Ġbhavati":614,"rt":615,"Ġce":616,"dhyÄģ":617,"Ġve":618,"bhava":619,"dyÄģ":620,"kha":621,"Ġsam":622,"Ġgu":623,"tpa":624,"sthÄģ":625,"kaá¸¥":626,"ki":627,"nÄģm":628,"Ġpara":629,"Ġbhaga":630,"yena":631,"kar":632,"Ġvya":633,"yet":634,"kal":635,"Ġpi":636,"sti":637,"maá¸¥":638,"ÅĽu":639,"sam":640,"miti":641,"se":642,"tvÄģt":643,"bhiá¸¥":644,"odhi":645,"á¹ħg":646,"smi":647,"á¹£á¹Ńha":648,"riyÄģ":649,"tÄģm":650,"Ä«r":651,"mÄģna":652,"nir":653,"tena":654,"man":655,"Ġme":656,"pta":657,"ĠÅĽÄģ":658,"dhu":659,"á¹ĩam":660,"Ġdvi":661,"Ġdeva":662,"nena":663,"pha":664,"Ġbrahma":665,"Ġtasya":666,"Ġsi":667,"gha":668,"cit":669,"Ġmu":670,"ÅĽeá¹£a":671,"á¹£ya":672,"ÅĽya":673,"á¹ĩaá¸¥":674,"Ġvar":675,"Ġkatha":676,"ĠjÃ±Äģ":677,"dra":678,"Ġity":679,"á¹£Äģá¹ĥ":680,"lÄ«":681,"van":682,"Ġkar":683,"maá¹ĥ":684,"vaá¹ĥ":685,"vÄģca":686,"vaá¸¥":687,"ĠvyÄģ":688,"Ġvá¹Ľ":689,"ÅĽab":690,"go":691,"Ġkiá¹ĥ":692,"Ġyat":693,"so":694,"tasya":695,"iti":696,"deva":697,"traá¹ĥ":698,"dva":699,"laká¹£a":700,"Ġdi":701,"ÅĽra":702,"Ġtva":703,"ĠdÄģ":704,"nte":705,"khyÄģ":706,"tayÄģ":707,"tre":708,"ĠÅĽi":709,"sthi":710,"Ġabhi":711,"bhir":712,"ká¹£e":713,"bho":714,"kara":715,"ĠnÄģma":716,"Ġpá¹Ľ":717,"tye":718,"dho":719,"sar":720,"mÄ«":721,"kti":722,"tmÄģ":723,"á¹ĩu":724,"viá¹£a":725,"yat":726,"sÄ«":727,"ce":728,"po":729,"Ġdharma":730,"ĠbÄģ":731,"Ġnir":732,"Ġbodhi":733,"tyarthaá¸¥":734,"dhÄ«":735,"cca":736,"ĠÄģha":737,"á¹ħgÄģ":738,"Ġava":739,"tur":740,"Ġpuna":741,"samÄģ":742,"yamÄģ":743,"Ġiva":744,"daá¸¥":745,"ÅĽaá¹ĥ":746,"ÅĽÅ«":747,"á¹£o":748,"darÅĽa":749,"Ġtri":750,"Ġkha":751,"pat":752,"Ġhe":753,"cyate":754,"Ġan":755,"bhya":756,"ĠpÅ«rva":757,"dam":758,"ĠÅĽu":759,"kra":760,"yÄģá¸¥":761,"tÄģni":762,"ĠtadÄģ":763,"vad":764,"ham":765,"ká¹£u":766,"bÄģ":767,"ge":768,"ddhÄģ":769,"bhu":770,"Ġevaá¹ĥ":771,"á¸įa":772,"gni":773,"Ġkarma":774,"tir":775,"bhÄģvÄģ":776,"tyÄģdi":777,"lu":778,"Ġbhave":779,"tyu":780,"ĠsvÄģ":781,"Ġ-":782,"atha":783,"Ã±ja":784,"ddhi":785,"Ġgá¹Ľ":786,"ndra":787,"sÅ«":788,"saá¸¥":789,"Ġyu":790,"yÄģm":791,"tav":792,"Ġpratya":793,"sama":794,"Ġyad":795,"ÅĽaá¸¥":796,"rmÄģ":797,"Ġye":798,"tÄ«ti":799,"pÄģra":800,"nma":801,"rthÄģ":802,"ntÄģ":803,"ĠsÅ«":804,"bu":805,"jÃ±Äģna":806,"gá¹Ľ":807,"pÄ«":808,"Ġmá¹Ľ":809,"rthaá¹ĥ":810,"ĠÅĽru":811,"Ġso":812,"sarva":813,"kya":814,"dvi":815,"á¹ĩya":816,"tvam":817,"pÄģda":818,"ÅĽÄ«":819,"Ġpuru":820,"ika":821,"á¹£á¹ŃhÄģ":822,"para":823,"Ġsat":824,"Ġcaiva":825,"Ġbodhisat":826,"Ġsthi":827,"tau":828,"varta":829,"Ġsaha":830,"Ġanya":831,"Ġt":832,"Ġti":833,"parÄģ":834,"tvena":835,"smin":836,"Ġká¹£a":837,"Ġana":838,"hÄģra":839,"sma":840,"nÄģt":841,"yata":842,"Ġuk":843,"ná¹Ľ":844,"Ġtena":845,"st":846,"dharma":847,"sau":848,"Ġno":849,"yoá¸¥":850,"Ġsarve":851,"Ġtada":852,"graha":853,"Ġman":854,"pá¹Ľ":855,"vai":856,"Ġbhi":857,"tathÄģ":858,"Ġh":859,"jana":860,"evaá¹ĥ":861,"tuá¹ĥ":862,"ĠsyÄģt":863,"bandha":864,"kalpa":865,"Ġpha":866,"yoga":867,"nnÄģ":868,"ĠpaÃ±ca":869,"dyate":870,"je":871,"gh":872,"tÄģn":873,"yathÄģ":874,"ĠjÄ«":875,"Ġmuk":876,"mÄģn":877,"yor":878,"ÅĽcÄģ":879,"ntara":880,"yama":881,"pÅ«":882,"Ġpunaá¸¥":883,"raá¹ĩaá¹ĥ":884,"py":885,"kÄģrÄģ":886,"Ġatha":887,"Ġsuk":888,"tama":889,"ĠsyÄģ":890,"ĠÅĽab":891,"mit":892,"raá¹ĩÄģ":893,"karma":894,"rÄģja":895,"vá¹Ľtti":896,"spa":897,"ÅĽci":898,"tyaá¹ĥ":899,"Ġgo":900,"dvÄģ":901,"á¹£á¹Ńi":902,"stha":903,"Ġbhavi":904,"vá¹Ľt":905,"mitÄģ":906,"ĠsarvÄģ":907,"á¹£yati":908,"Ġsamu":909,"sá¹Ľ":910,"ÅĽru":911,"ĠtasmÄģ":912,"gi":913,"gata":914,"nÄģma":915,"ĠÅĽrÄ«":916,"nupa":917,"mya":918,"mÄģt":919,"diti":920,"ĠuvÄģca":921,"ghÄģ":922,"Ġtaá¹ĥ":923,"yante":924,"drÄģ":925,"ĠrÄģja":926,"hÅ«":927,"rÅ«pÄģ":928,"cche":929,"teá¸¥":930,"ĠÅĽÅ«":931,"á¹£aá¸¥":932,"cchÄģ":933,"rÄģhma":934,"tan":935,"dau":936,"Ġyadi":937,"Ġkal":938,"kÄģÅĽa":939,"Ġdra":940,"Ġapa":941,"ban":942,"pÅ«rva":943,"Ġar":944,"dhva":945,"rati":946,"ĠprajÃ±Äģ":947,"ran":948,"khÄģ":949,"stÄģ":950,"Ġá¹Ľ":951,"yasya":952,"san":953,"mam":954,"grÄģ":955,"jÄ«":956,"tatra":957,"Ġjaga":958,"Ġke":959,"yÄģmi":960,"uddhi":961,"ĠprÄģp":962,"pratya":963,"ĠsthÄģ":964,"á¹ŃÄģ":965,"á¹ĥÅĽa":966,"ÅĽÅ«nya":967,"Ġko":968,"Ġsmá¹Ľ":969,"riya":970,"ĠpÅ«":971,"ĠpramÄģ":972,"Ġeka":973,"Ġviá¹£a":974,"á¹Ńi":975,"ktÄģ":976,"jo":977,"pÅ«r":978,"Ġá¹£a":979,"Ġru":980,"jya":981,"tara":982,"pati":983,"rthe":984,"Ġbahu":985,"á¹£á¹ŃvÄģ":986,"daÅĽa":987,"yÅ«":988,"Ġmaha":989,"Ġduá¸¥":990,"tum":991,"jÃ±e":992,"krÄģ":993,"á¹£á¹ĩa":994,"ĠdevÄģ":995,"ĠevÄģ":996,"ĠpÅ«r":997,"Ġká¹ĽtvÄģ":998,"vaca":999,"rÄģá¸¥":1000,"mÅ«":1001,"bra":1002,"laá¸¥":1003,"bhÄ«":1004,"stra":1005,"bo":1006,"bhÄģve":1007,"haá¸¥":1008,"ĠgÄģ":1009,"ĠvÄ«":1010,"dhaá¹ĥ":1011,"Ġatra":1012,"á¹£Ä«":1013,"bhyÄģá¹ĥ":1014,"dhaá¸¥":1015,"Ġná¹Ľ":1016,"ktaá¹ĥ":1017,"ĠupÄģ":1018,"veda":1019,"ká¹Ľta":1020,"Ġtan":1021,"kÄģá¸¥":1022,"Ġpunar":1023,"Ġbhavet":1024,"gama":1025,"mÄģtra":1026,"rava":1027,"Ġco":1028,"tuá¸¥":1029,"mÄģr":1030,"pÄģramitÄģ":1031,"kasya":1032,"ĠrÅ«pa":1033,"Ġkathaá¹ĥ":1034,"á¹ĩÄģm":1035,"ĠparÄģ":1036,"mÄģá¹ĥ":1037,"paá¸¥":1038,"rat":1039,"Ġsma":1040,"Ġbho":1041,"upa":1042,"trÄ«":1043,"ĠdarÅĽa":1044,"mahÄģ":1045,"vra":1046,"Ġgha":1047,"khi":1048,"Ġmama":1049,"sye":1050,"ivÄģ":1051,"Ġhá¹Ľ":1052,"Ġitya":1053,"patti":1054,"ĠdhÄģ":1055,"cid":1056,"ste":1057,"deÅĽa":1058,"yanti":1059,"á¹ĩena":1060,"bhá¹Ľ":1061,"ĠrÄģjÄģ":1062,"dhye":1063,"nama":1064,"tro":1065,"bi":1066,"krama":1067,"viÅĽeá¹£a":1068,"Ġmana":1069,"bhyo":1070,"duá¸¥":1071,"ĠtasyÄģ":1072,"iÅĽ":1073,"Ġtato":1074,"hitÄģ":1075,"kh":1076,"Ġsamya":1077,"guá¹ĩa":1078,"siddha":1079,"Ġtá¹Ľ":1080,"Ġavi":1081,"dena":1082,"Ġbhe":1083,"raá¹ĩam":1084,"Ġtataá¸¥":1085,"samu":1086,"Ġyuk":1087,"á¹ħka":1088,"Ġbu":1089,"á¹£á¹Ńaá¹ĥ":1090,"kÄ«r":1091,"mÄģnÄģ":1092,"vaya":1093,"Ġdo":1094,"Ġmo":1095,"sahas":1096,"Ġyaá¸¥":1097,"ĠÅĽak":1098,"rá¹£a":1099,"putra":1100,"Ġtvaá¹ĥ":1101,"Ġsan":1102,"nasya":1103,"loka":1104,"Ġayaá¹ĥ":1105,"rasya":1106,"ĠÄģtma":1107,"tiá¹ĥ":1108,"ĠprajÄģ":1109,"vidhÄģ":1110,"Ġbhu":1111,"nava":1112,"Ġveda":1113,"brahma":1114,"tvo":1115,"ĠbrÄģhma":1116,"dÄģya":1117,"ÅĽvÄģ":1118,"Ġyatra":1119,"Ġji":1120,"pramÄģ":1121,"tato":1122,"Ġut":1123,"thaá¹ĥ":1124,"ira":1125,"ntaá¹ĥ":1126,"Ġli":1127,"ĠtvÄģ":1128,"Ġdh":1129,"Ġpratha":1130,"Ġahaá¹ĥ":1131,"sÄģdha":1132,"ju":1133,"pala":1134,"rÄģva":1135,"prÄģp":1136,"Ġvyava":1137,"á¹£pa":1138,"gaá¹ĥ":1139,"bhyaá¸¥":1140,"kÄ«":1141,"ÅĽri":1142,"ĠmayÄģ":1143,"gaá¸¥":1144,"Ġati":1145,"ĠdvÄģ":1146,"á¹£á¹ĩu":1147,"ryaá¹ĥ":1148,"hita":1149,"yog":1150,"Ġutta":1151,"yas":1152,"Ġvaca":1153,"jaá¸¥":1154,"ĠÅĽo":1155,"ras":1156,"prasa":1157,"Ġkva":1158,"mÄģha":1159,"cchi":1160,"Ġkim":1161,"Ġasya":1162,"Ġapy":1163,"tataá¸¥":1164,"ĠsadÄģ":1165,"Ġpraká¹Ľ":1166,"rhi":1167,"ĠdaÅĽa":1168,"nÄģdi":1169,"co":1170,"rasa":1171,"dhÅ«":1172,"yÄģn":1173,"Ġadhi":1174,"Ġanta":1175,"phu":1176,"sÄģá¹ĥ":1177,"vará¹ĩa":1178,"Ġsapta":1179,"Ġbhagava":1180,"yoja":1181,"Ġdur":1182,"nÄģni":1183,"Ġevam":1184,"yogÄģ":1185,"ĠviÅĽeá¹£a":1186,"lena":1187,"Ġ\"":1188,"tada":1189,"Ġloka":1190,"vyava":1191,"tsa":1192,"ĠÄ«":1193,"ÅĽrÄ«":1194,"ká¹£ya":1195,"bheda":1196,"jaá¹ĥ":1197,"svÄģ":1198,"mapi":1199,"á¹Ńha":1200,"mana":1201,"mba":1202,"Ġne":1203,"tÄģnÄģá¹ĥ":1204,"ĠpaÅĽ":1205,"ntu":1206,"ÅĽabda":1207,"pada":1208,"nÄģá¸¥":1209,"nanda":1210,"ĠdÄ«":1211,"Ġhy":1212,"vyaá¹ĥ":1213,"riti":1214,"Ġkhalu":1215,"á¹£á¹Ńhi":1216,"á¹£aá¹ĥ":1217,"rÄģya":1218,"cchati":1219,"taÅĽ":1220,"yitvÄģ":1221,"paá¹ĥ":1222,"phala":1223,"suk":1224,"dharmÄģ":1225,"kena":1226,"nan":1227,"ĠmÅ«":1228,"rtham":1229,"rÄģn":1230,"Ġtra":1231,"mar":1232,"pre":1233,"ĠÅĽÄ«":1234,"lya":1235,"gÄ«":1236,"á¸įÄģ":1237,"kiá¹ĥ":1238,"Ġpro":1239,"Ġag":1240,"vada":1241,"yad":1242,"gam":1243,"dur":1244,"nÄģya":1245,"padÄģ":1246,"bhÅ«ta":1247,"Ġtava":1248,"dhar":1249,"ká¹£Ä«":1250,"ĠtÄ«":1251,"bhavÄģ":1252,"sattva":1253,"á¹£á¹Ńo":1254,"Ġsarvaá¹ĥ":1255,"Ġcai":1256,"Ġdá¹Ľá¹£á¹ŃvÄģ":1257,"Ġbra":1258,"ĠvÄģk":1259,"ddhaá¹ĥ":1260,"rodha":1261,"viá¹£aya":1262,"roti":1263,"ddhe":1264,"à¥¤à¥¤":1265,"á¹£va":1266,"Ġvra":1267,"bhÅ«te":1268,"ĠÅĽá¹Ľ":1269,"Ġetad":1270,"dyu":1271,"ká¹£o":1272,"viÅĽe":1273,"Ġcit":1274,"Ġidaá¹ĥ":1275,"kÄģri":1276,"yÄģma":1277,"vÄģdi":1278,"ĠparamÄģ":1279,"rÅ«pe":1280,"gatÄģ":1281,"tasmÄģ":1282,"ĠbhagavÄģn":1283,"puru":1284,"atra":1285,"lla":1286,"karaá¹ĩa":1287,"Ġparama":1288,"ĠnÄ«":1289,"vam":1290,"nye":1291,"pan":1292,"yÄ«":1293,"á¹ĩÄģá¸¥":1294,"yau":1295,"hmÄģ":1296,"laká¹£aá¹ĩa":1297,"Ġbhagavan":1298,"ĠprajÃ±ÄģpÄģramitÄģ":1299,"Ġmadhu":1300,"vÄģk":1301,"dar":1302,"ĠmÄģá¹ĥ":1303,"kriyÄģ":1304,"á¹£á¹Ńe":1305,"cÄ«":1306,"dhÄģna":1307,"yuá¸¥":1308,"Ġasti":1309,"Ã±cÄģ":1310,"Ġkra":1311,"ĠdharmÄģ":1312,"Ġcet":1313,"Ġkau":1314,"bhyu":1315,"Ġpre":1316,"Ġteá¹£Äģá¹ĥ":1317,"Ġkasya":1318,"Ġmano":1319,"á¸įha":1320,"Ġloke":1321,"rÄģá¹ĥ":1322,"Ġjana":1323,"peká¹£a":1324,"';":1325,"vidha":1326,"ntaá¸¥":1327,"rÄģá¹ĩi":1328,"ĠbhÄģva":1329,"Ã¢":1330,"Ġhari":1331,"Ġro":1332,"hetu":1333,"vÄģsa":1334,"Ġyasya":1335,"parya":1336,"ĠdÅ«":1337,"Ġani":1338,"Ġlaká¹£a":1339,"Ġiha":1340,"ĠpratÄ«":1341,"paÃ±ca":1342,"ter":1343,"veti":1344,"á¹ħgu":1345,"yeá¹ĩa":1346,"yopa":1347,"Ġsamyak":1348,"hena":1349,"cya":1350,"Ġyena":1351,"thaiva":1352,"tasyÄģ":1353,"Ġtv":1354,"paká¹£a":1355,"rthi":1356,"dÅ«":1357,"gar":1358,"á¹ħkÄģ":1359,"Ġdhar":1360,"noti":1361,"á¹£yÄģ":1362,"rÅ«paá¹ĥ":1363,"á¹ŃÄ«":1364,"Ġnitya":1365,"veÅĽa":1366,"pÄģdÄģ":1367,"tyÄģha":1368,"Ġucyate":1369,"Ġguá¹ĩa":1370,"ttÄģ":1371,"bravÄ«":1372,"yeta":1373,"Ġsatya":1374,"ntam":1375,"manu":1376,"Ġdaká¹£i":1377,"ĠvinÄģ":1378,"á¹£Äģm":1379,"Ġká¹£i":1380,"uddhÄģ":1381,"ÅĽvara":1382,"Ġo":1383,"vidyÄģ":1384,"taiá¸¥":1385,"siddhi":1386,"vyam":1387,"tvÄģd":1388,"cch":1389,"buddha":1390,"ĠbhÄ«":1391,"Ġcatur":1392,"Ġvidhi":1393,"Ġguru":1394,"cÄģra":1395,"kala":1396,"saá¹ĥs":1397,"stathÄģ":1398,"kÄģn":1399,"Ġsaá¹ĥs":1400,"nau":1401,"ÅĽÅ«nyatÄģ":1402,"pad":1403,"ĠsÄģdha":1404,"ĠkÄģrya":1405,"Ġputra":1406,"Ġpá¹Ľthi":1407,"niá¸¥":1408,"á¹£v":1409,"Ġcatu":1410,"mupa":1411,"kÄģla":1412,"ĠgrÄģ":1413,"bhyÄģ":1414,"Ġbodhisattva":1415,"Ġkuru":1416,"EN":1417,"vara":1418,"tavyÄģ":1419,"mÄģá¸¥":1420,"jÃ±Äģnaá¹ĥ":1421,"rtho":1422,"ĠÅĽarÄ«":1423,"ĠanÄģ":1424,"ĠdvitÄ«":1425,"bodhi":1426,"á¹ĩyÄģ":1427,"vidhi":1428,"nanta":1429,"Ġcha":1430,"Ġbhaviá¹£yati":1431,"daya":1432,"á¹£ma":1433,"ĠjÄ«va":1434,"Ġbhavanti":1435,"ĠdhyÄģ":1436,"rata":1437,"yur":1438,"tavyam":1439,"bhÄģvo":1440,"Ġsau":1441,"par":1442,"dhá¹Ľ":1443,"ĠÄģdi":1444,"Ġpuruá¹£a":1445,"ttara":1446,"yed":1447,"tÄģva":1448,"vÄģá¹ĥ":1449,"Ġsvar":1450,"Ġeá¹£a":1451,"bhaá¹ĥ":1452,"Ġind":1453,"dhena":1454,"is":1455,"ÅĽyate":1456,"bhÄģvaá¸¥":1457,"nÄģn":1458,"rÄģt":1459,"bodha":1460,"Ġetat":1461,"rasÄģ":1462,"pade":1463,"jja":1464,"ĠbhÄģvaá¸¥":1465,"ĠpurÄģ":1466,"nÄģd":1467,"yÄģd":1468,"Ġkula":1469,"Ġmi":1470,"Ġparaá¹ĥ":1471,"bhÄģvÄģt":1472,"ĠÅĽe":1473,"ká¹ĽtÄģ":1474,"ĠnÄģsti":1475,"Ġagni":1476,"Ġká¹Ľta":1477,"Ġsahas":1478,"tvÄģdi":1479,"ĠpÄ«":1480,"ĠyadÄģ":1481,"kÄģá¹ĥ":1482,"Ġvarta":1483,"ĠtÄģá¹ĥ":1484,"á¹ĩasya":1485,"Ġgau":1486,"vana":1487,"ĠkÄģma":1488,"Ġvastu":1489,"ivaá¹ĥ":1490,"meá¹ĩa":1491,"kau":1492,"Ġsaá¹ĥÅĽa":1493,"yeti":1494,"tar":1495,"dhvÄģ":1496,"Ġbuddha":1497,"syÄģpi":1498,"huá¸¥":1499,"Ġgra":1500,"á¹ĩá¸įi":1501,"Ġsiddha":1502,"tim":1503,"gandha":1504,"Ġvada":1505,"bhaya":1506,"dÄ«nÄģá¹ĥ":1507,"dÄģt":1508,"nopa":1509,"Ġityarthaá¸¥":1510,"ĠtatrÄģ":1511,"sÄģra":1512,"á¹£á¹ĩÄģ":1513,"Ġse":1514,"lab":1515,"Ġcaká¹£u":1516,"hyaá¹ĥ":1517,"kÄģma":1518,"dÄģha":1519,"ptÄģ":1520,"bhaga":1521,"naya":1522,"Ġud":1523,"Ġtiá¹£á¹Ńha":1524,"jyate":1525,"Ġprasa":1526,"Ġayam":1527,"bhyate":1528,"á¹ĩÄģn":1529,"ttama":1530,"nanu":1531,"ĠviÅĽva":1532,"Ġpá¹Ľtha":1533,"ktam":1534,"Ġkeva":1535,"á¹£á¹Ńam":1536,"Ġsati":1537,"ĠÅĽro":1538,"bhaá¸¥":1539,"ĠkriyÄģ":1540,"Ġmanu":1541,"tavyaá¹ĥ":1542,"mat":1543,"ntarÄģ":1544,"á¹£yanti":1545,"ntare":1546,"Ġas":1547,"Ġvaj":1548,"ĠivÄģ":1549,"bala":1550,"ĠjÃ±Äģna":1551,"Ġasi":1552,"á¹ĩyaá¹ĥ":1553,"Ġviá¹£á¹ĩu":1554,"devÄģ":1555,"ĠÅĽabda":1556,"tram":1557,"tyuk":1558,"dhÄģra":1559,"tpatti":1560,"anu":1561,"Ġdva":1562,"cha":1563,"bÄ«":1564,"pÄģya":1565,"Ġasa":1566,"pÄģta":1567,"ÅĽata":1568,"á¹£yate":1569,"ĠmÅ«r":1570,"daÅĽÄģ":1571,"jam":1572,"nva":1573,"Ġgandha":1574,"Ġrasa":1575,"Ġkalpa":1576,"kÄģraá¹ĩa":1577,"Ġniá¹£":1578,"bhra":1579,"Ġata":1580,"ĠkÄģr":1581,"ret":1582,"vena":1583,"Ġtam":1584,"dayaá¸¥":1585,"ĠÄģtmÄģ":1586,"bhavati":1587,"á¹£á¹Ńu":1588,"tarÄģ":1589,"maá¹ĩá¸įa":1590,"ndu":1591,"Ġ?":1592,"mala":1593,"á¹ĩÄģt":1594,"ĠityÄģdi":1595,"khya":1596,"á¸įi":1597,"Ġkur":1598,"vá¹Ľtta":1599,"eka":1600,"tho":1601,"á¹ħgaá¹ĥ":1602,"Ġpravi":1603,"ĠadhyÄģ":1604,"nai":1605,"á¹ĩá¸įÄģ":1606,"Ġceti":1607,"cu":1608,"neka":1609,"rdha":1610,"ĠmÄģr":1611,"dhÄģya":1612,"dhÄģtu":1613,"jÃ±ap":1614,"parÄ«":1615,"ÅĽam":1616,"lÄģá¸¥":1617,"vatÄ«":1618,"purÄģ":1619,"ĠsubhÅ«te":1620,"tÅ«":1621,"Ġbi":1622,"ĠsÅ«r":1623,"puna":1624,"vinÄģ":1625,"ĠvidyÄģ":1626,"nÄ«á¹ĥ":1627,"syo":1628,"ĠÄģga":1629,"cin":1630,"Ġhetu":1631,"ÅĽakti":1632,"mÄģra":1633,"mau":1634,"mÄģnya":1635,"lpa":1636,"ĠyajÃ±a":1637,"ĠkÄģla":1638,"á¹£á¹Ńaá¸¥":1639,"mena":1640,"ĠkÄģra":1641,"Ġtarhi":1642,"Ġphala":1643,"ĠÅĽÅ«nya":1644,"ĠsnÄģ":1645,"ĠbhrÄģ":1646,"teá¹£u":1647,"ny":1648,"mitya":1649,"á¹£eá¹ĩa":1650,"ĠprÄ«":1651,"Ġaham":1652,"smÄģt":1653,"ká¹Ľtya":1654,"viro":1655,"ká¹£aá¹ĥ":1656,"dhvaá¹ĥ":1657,"vartate":1658,"Ġhya":1659,"jÃ±o":1660,"nto":1661,"mÄģnaá¹ĥ":1662,"ĠÅĽre":1663,"ÅĽá¹Ľ":1664,"Ġnara":1665,"Ġju":1666,"vala":1667,"tana":1668,"tpÄģ":1669,"bhÄģga":1670,"the":1671,"Ġbuddhi":1672,"lÄģni":1673,"ĠcÄģpi":1674,"yÄģdi":1675,"ká¹£ma":1676,"kÅ«":1677,"gho":1678,"Ġasau":1679,"ĠÄģsa":1680,"ÅĽarÄ«":1681,"ccÄģ":1682,"hati":1683,"neti":1684,"ĠhÄģ":1685,"á¹ĩá¸įe":1686,"ĠsattvÄģ":1687,"Ġbo":1688,"sÄģma":1689,"gataá¹ĥ":1690,"ĠmÄģna":1691,"Ġtasmin":1692,"ĠsyÄģd":1693,"strÄģ":1694,"ĠtvayÄģ":1695,"yÄģmÄģ":1696,"kÄģraá¸¥":1697,"Ġgar":1698,"kÄģr":1699,"Ġbhá¹Ľ":1700,"padyate":1701,"ĠnÄģnÄģ":1702,"maha":1703,"ntar":1704,"svabhÄģva":1705,"yogena":1706,"Ġdat":1707,"kaá¹ĩ":1708,"Ġartha":1709,"ĠÅĽrutvÄģ":1710,"raiá¸¥":1711,"hur":1712,"bravÄ«t":1713,"ruddha":1714,"rÄģma":1715,"smai":1716,"vyati":1717,"Ġpri":1718,"mÄģdi":1719,"vÄģá¸¥":1720,"toá¸¥":1721,"ĠkadÄģ":1722,"ĠekÄģ":1723,"ĠpaÅĽya":1724,"Ġtya":1725,"mÄģni":1726,"sparÅĽa":1727,"Ġ[":1728,"Ġvaká¹£":1729,"nÄģti":1730,"lambha":1731,"mantra":1732,"bhÄģvi":1733,"yadi":1734,"ÅĽaá¹ħ":1735,"kÄģrya":1736,"Ġsphu":1737,"yatÄģ":1738,"Ġidam":1739,"ska":1740,"Ġpad":1741,"Ġbodhisattvo":1742,"ÅĽena":1743,"varti":1744,"ĠviÅĽe":1745,"nyathÄģ":1746,"sÄģm":1747,"cana":1748,"vÄģda":1749,"Ġkatham":1750,"á¹Ńe":1751,"bhave":1752,"cÄģri":1753,"daká¹£i":1754,"ĠjÄģyate":1755,"bhate":1756,"ĠmahÄ«":1757,"gá¹ĽhÄ«":1758,"bhÅ«tÄģ":1759,"ÅĽak":1760,"ropa":1761,"hitaá¹ĥ":1762,"á¹ħgÄ«":1763,"vÄģha":1764,"ĠbrahmÄģ":1765,"rau":1766,"bhedÄģ":1767,"Ã±ci":1768,"hÄģt":1769,"pratÄ«":1770,"pyÄģ":1771,"vasa":1772,"Ġtapa":1773,"ÅĽre":1774,"Ġsaá¸¥":1775,"gato":1776,"smá¹Ľ":1777,"dÄģna":1778,"riyate":1779,"Ġarthaá¸¥":1780,"jyÄģ":1781,"sena":1782,"Ġnityaá¹ĥ":1783,"pÄģla":1784,"teti":1785,"Ġtá¹ĽtÄ«":1786,"ddho":1787,"tair":1788,"Ġpau":1789,"jÃ±ÄģnÄģ":1790,"Ġduá¸¥kha":1791,"vasthÄģ":1792,"bhÄģsa":1793,"doá¹£a":1794,"lamba":1795,"bud":1796,"tmanaá¸¥":1797,"gan":1798,"kram":1799,"ÅĽaya":1800,"Ġnai":1801,"ĠyÄģvat":1802,"dhyate":1803,"rá¹ĩa":1804,"bham":1805,"kaiá¸¥":1806,"Ġvakta":1807,"ĠjÃ±e":1808,"nitya":1809,"ĠbrÅ«":1810,"bhavat":1811,"ĠhÄ«":1812,"nÄģpi":1813,"Ġkaroti":1814,"rÄģdi":1815,"ndri":1816,"á¹£á¹Ńhe":1817,"ĠÅĽiva":1818,"kÄģro":1819,"Ġvak":1820,"tthÄģ":1821,"mÅ«r":1822,"taÅĽca":1823,"ĠdhÄ«":1824,"yeá¹£u":1825,"ÅĽabdÄģ":1826,"ndriyÄģ":1827,"tapa":1828,"Ġrat":1829,"Ġdar":1830,"tte":1831,"athÄģ":1832,"mukha":1833,"sÄģda":1834,"niá¹£":1835,"ĠtÄģn":1836,"Ġsá¹Ľ":1837,"vatsa":1838,"Ġká¹Ľá¹£á¹ĩa":1839,"ndriya":1840,"katva":1841,"á¹£á¹ĩo":1842,"nyo":1843,"ĠÅĽuk":1844,"Ġgá¹Ľh":1845,"dga":1846,"Ġká¹£e":1847,"yai":1848,"Ġaha":1849,"á¹ħku":1850,"gdha":1851,"tiá¹£á¹Ńha":1852,"patiá¸¥":1853,"hni":1854,"AR":1855,"CO":1856,"MM":1857,"COMM":1858,"Ġnaá¸¥":1859,"TAR":1860,"ENTAR":1861,"COMMENTAR":1862,"COMMENTARY":1863,"yaÅĽ":1864,"nÅ«":1865,"katha":1866,"ĠstrÄ«":1867,"tai":1868,"rÄģá¹ĩÄģá¹ĥ":1869,"treá¹ĩa":1870,"vaj":1871,"'t":1872,"pitÄģ":1873,"ĠtasmÄģt":1874,"vira":1875,"ĠpadÄģ":1876,"phalaá¹ĥ":1877,"ká¹Ľtaá¹ĥ":1878,"kÄģle":1879,"Ġparam":1880,"ĠpaÅĽcÄģ":1881,"Ġsvayaá¹ĥ":1882,"meti":1883,"dyo":1884,"á¹ĥs":1885,"ká¹Ľt":1886,"rda":1887,"Ġvidyate":1888,"buddhi":1889,"Ġká¹£Ä«":1890,"meva":1891,"mbha":1892,"min":1893,"tyeva":1894,"sattvÄģ":1895,"thaá¸¥":1896,"catu":1897,"ÅĽraya":1898,"tava":1899,"nyaá¹ĥ":1900,"ccheda":1901,"Ġtathaiva":1902,"tmanÄģ":1903,"Ġmuni":1904,"dayo":1905,"á¹Ńu":1906,"Ġbhiká¹£u":1907,"ndÄģ":1908,"balÄģ":1909,"padya":1910,"ÅĽyÄģ":1911,"Ġgaccha":1912,"ceta":1913,"ĠabhÅ«":1914,"ĠkuÅĽa":1915,"cara":1916,"tasmÄģt":1917,"rÅ«peá¹ĩa":1918,"Ġvini":1919,"abhi":1920,"Ġsamyaksaá¹ĥ":1921,"pti":1922,"lava":1923,"saha":1924,"tadÄģ":1925,"gataá¸¥":1926,"á¹ħge":1927,"ĠtasmÄģd":1928,"ÅĽvaraá¸¥":1929,"ÅĽyati":1930,"hÄģya":1931,"Ġyoja":1932,"Ġdá¹Ľá¹£á¹ŃÄģ":1933,"Ġho":1934,"rha":1935,"laá¹ħ":1936,"bhÄģvena":1937,"mas":1938,"Ġbá¹Ľ":1939,"Ġpá¹ĽthivÄ«":1940,"ĠnirÄģ":1941,"ĠdhÅ«":1942,"vasÄģ":1943,"lyÄģ":1944,"ĠasmÄģ":1945,"Ġvid":1946,"kará¹£a":1947,"guru":1948,"sarvÄģ":1949,"Ġgho":1950,"yogi":1951,"gne":1952,"Ġná¹Ľpa":1953,"hitaá¸¥":1954,"Ġsukha":1955,"ĠrÄģjan":1956,"kte":1957,"rvÄģ":1958,"rapi":1959,"tasta":1960,"Ġgi":1961,"Ġbahi":1962,"mitta":1963,"Ġmit":1964,"canÄģ":1965,"bhyupa":1966,"kalÄģ":1967,"ká¹£ate":1968,"Ġmantra":1969,"á¹ĥÅĽ":1970,"bdha":1971,"ĠdhÄģra":1972,"vÄģkya":1973,"Ġsvayam":1974,"guá¹ĩÄģ":1975,"tpÄģda":1976,"ikÄģ":1977,"kama":1978,"pÄģdi":1979,"vitÄģ":1980,"ĠÅĽakti":1981,"bahu":1982,"saá¹ĥyuk":1983,"naiá¸¥":1984,"Ġdai":1985,"Ġnira":1986,"ĠÅĽabdÄģ":1987,"Ġdve":1988,"á¹£yÄģmi":1989,"kÄģre":1990,"Ġato":1991,"á¹ĩÄģma":1992,"nÄ«ya":1993,"Ġkurva":1994,"Ġvipra":1995,"ĠkaÅĽci":1996,"khe":1997,"ntÄ«":1998,"Ġdhá¹Ľ":1999,"Ġapra":2000,"bhau":2001,"ndo":2002,"Ġnya":2003,"liá¹ħga":2004,"ĠÄģyu":2005,"kuÅĽa":2006,"ĠvyÄģkhyÄģ":2007,"varji":2008,"ĠsÄģká¹£Äģ":2009,"á¹£am":2010,"ĠlÄģ":2011,"Ġmadhya":2012,"masya":2013,"hara":2014,"ĠpÄģpa":2015,"ĠvijÃ±Äģ":2016,"Ġtvam":2017,"tamo":2018,"á¹ĩá¸įu":2019,"á¹ħgi":2020,"ĠprÄģá¹ĩa":2021,"nÄģbhi":2022,"gau":2023,"kÄģnÄģá¹ĥ":2024,"viÅĽi":2025,"ĠÅĽra":2026,"mukhÄģ":2027,"vatÄģ":2028,"taraá¹ĥ":2029,"ntaraá¹ĥ":2030,"iÅĽca":2031,"stÄ«":2032,"brÄģhma":2033,"sana":2034,"ĠityÄģ":2035,"Ġmanaá¸¥":2036,"sra":2037,"Ġká¹ĽtÄģ":2038,"Ġuda":2039,"ĠÅ«":2040,"Ġastu":2041,"ĠvÄģc":2042,"dru":2043,"viti":2044,"nimit":2045,"mbu":2046,"teá¹£Äģá¹ĥ":2047,"kula":2048,"mÄģá¹ĩa":2049,"tvama":2050,"Ġnava":2051,"bhyÄģm":2052,"viá¹ĥÅĽa":2053,"gaá¹ĩa":2054,"neá¹£u":2055,"ĠbhÅ«ta":2056,"dhÄ«yate":2057,"kÄģraá¹ĥ":2058,"Ġnamaá¸¥":2059,"syÄģá¹ĥ":2060,"saá¹ħ":2061,"Ġviva":2062,"jÄģá¸¥":2063,"Ġkena":2064,"dhiá¸¥":2065,"ĠtÄģvat":2066,"snÄģ":2067,"mÄģtrÄģ":2068,"ĠrasÄģ":2069,"Ġparva":2070,"Ġjagat":2071,"sad":2072,"nnaá¹ĥ":2073,"ÅĽce":2074,"ĠtÄģm":2075,"ĠvÄģca":2076,"ĠdevÄ«":2077,"mano":2078,"mÄģtraá¹ĥ":2079,"ĠkuryÄģ":2080,"mati":2081,"á¹ĩÄģni":2082,"Ġkari":2083,"tyanta":2084,"Ġgá¹ĽhÄ«":2085,"ĠbÄ«":2086,"Ġjyo":2087,"yÄģni":2088,"ÅĽve":2089,"Ġmat":2090,"dat":2091,"Ġbud":2092,"siddhÄģ":2093,"ĠpitÄģ":2094,"Ġpura":2095,"loke":2096,"jyaá¹ĥ":2097,"ĠpaÅĽyati":2098,"putrÄģ":2099,"ĠÅ«r":2100,"Ġnaiva":2101,"tame":2102,"Ġsura":2103,"Ġmahe":2104,"karÄģ":2105,"á¸įhÄģ":2106,"á¹£á¹Ńhaá¹ĥ":2107,"evam":2108,"khye":2109,"ká¹Ľti":2110,"ĠtÄģdá¹Ľ":2111,"dhiá¹£á¹Ńhi":2112,"Ġapya":2113,"ĠpÅ«rvaá¹ĥ":2114,"karo":2115,"tyupa":2116,"grÄ«":2117,"Ġpratyaká¹£a":2118,"á¹ħgaá¸¥":2119,"Ġvedi":2120,"Ġniá¸¥":2121,"Ġsaá¹ĥpra":2122,"patteá¸¥":2123,"citta":2124,"á¹ĥha":2125,"phalÄģ":2126,"Ġhá¹Ľda":2127,"pyate":2128,"Ġspa":2129,"Ġpratye":2130,"bhidhÄģ":2131,"ĠsvÄģhÄģ":2132,"Ġsvap":2133,"ĠnyÄģ":2134,"ĠÅĽata":2135,"ĠdÄ«r":2136,"ndrÄģ":2137,"ĠrÅ«paá¹ĥ":2138,"ĠsÄģma":2139,"bandhÄģ":2140,"ÅĽrÄģ":2141,"kÄ«rti":2142,"bhÅ«taá¹ĥ":2143,"jj":2144,"api":2145,"tavya":2146,"á¹Ńaá¹ĥ":2147,"kto":2148,"reá¹£u":2149,"Ġcarati":2150,"mityarthaá¸¥":2151,"uktaá¹ĥ":2152,"Ġprayoja":2153,"vyaá¸¥":2154,"Ġcak":2155,"kÄģÅĽÄģ":2156,"madhu":2157,"Ġpuá¹ĩya":2158,"vit":2159,"ÅĽcaiva":2160,"hvÄģ":2161,"Ġnu":2162,"ĠkarmÄģ":2163,"Ġbala":2164,"Ġyaja":2165,"tvasya":2166,"bhavi":2167,"Ġutpa":2168,"jÃ±aá¸¥":2169,"Ġparya":2170,"Ġkara":2171,"karmÄģ":2172,"pramÄģá¹ĩa":2173,"ĠavÄģ":2174,"ÅĽuddha":2175,"Ġmanasi":2176,"ká¹£aá¸¥":2177,"ptaá¹ĥ":2178,"tÄģyÄģá¹ĥ":2179,"yoge":2180,"Ġap":2181,"sara":2182,"ity":2183,"trÄģá¹ĩi":2184,"ĠÅĽá¹Ľá¹ĩu":2185,"Ġyan":2186,"ĠkÄģraá¹ĩa":2187,"Ġre":2188,"paryÄģ":2189,"lokya":2190,"Ġarha":2191,"duá¸¥kha":2192,"ktyÄģ":2193,"sarve":2194,"ĠrÄģká¹£a":2195,"Ġtac":2196,"yatra":2197,"jÄ«va":2198,"bhrama":2199,"dyathÄģ":2200,"ĠmahÄģsattva":2201,"lita":2202,"Ġsad":2203,"tyo":2204,"gaccha":2205,"ĠabravÄ«t":2206,"Ġabhya":2207,"viÅĽa":2208,"ÅĽrava":2209,"á¹Ŀ":2210,"Ġtar":2211,"Ġparame":2212,"ruá¹ĩÄģ":2213,"bhrÄģ":2214,"Ġete":2215,"yituá¹ĥ":2216,"yadÄģ":2217,"kathaá¹ĥ":2218,"ĠpramÄģá¹ĩa":2219,"dhika":2220,"ĠdÄģna":2221,"bhÅ«mi":2222,"ÅĽrama":2223,"Ġghaá¹Ńa":2224,"viÅĽeá¹£Äģ":2225,"tamÄģ":2226,"á¹£oá¸įa":2227,"kÄģreá¹ĩa":2228,"rada":2229,"puá¹£":2230,"Ġupala":2231,"Ġpati":2232,"hva":2233,"Ġdá¹ĽÅĽyate":2234,"ĠsÄ«":2235,"ĠdeÅĽa":2236,"nÄģnÄģá¹ĥ":2237,"Ġhu":2238,"ĠjÃ±Äģnaá¹ĥ":2239,"ĠdevatÄģ":2240,"ĠsiddhÄģ":2241,"kle":2242,"sura":2243,"sapta":2244,"kÄģá¹ħ":2245,"be":2246,"ĠgatvÄģ":2247,"ava":2248,"ĠvedÄģ":2249,"nayÄģ":2250,"ĠkÄ«r":2251,"pau":2252,"Ġraja":2253,"Ġjala":2254,"nÄģnÄģ":2255,"nvi":2256,"Ġmai":2257,"ÅĽyaá¹ĥ":2258,"ĠaÅĽ":2259,"paká¹£e":2260,"Ġpraá¹ĩa":2261,"Ġsaá¹ĥÅĽayaá¸¥":2262,"rÄģjÄģ":2263,"Ġdhva":2264,"Äģdi":2265,"Ġasmi":2266,"ĠpÅ«ja":2267,"puruá¹£a":2268,"á¹ĩÄģnÄģá¹ĥ":2269,"vid":2270,"lÄģá¹ĥ":2271,"Ġmadhye":2272,"mÄģno":2273,"ĠsvabhÄģva":2274,"ghu":2275,"Ġsarvatra":2276,"jaga":2277,"Ġvasu":2278,"deÅĽe":2279,"Ġlaká¹£":2280,"mucyate":2281,"mnÄģ":2282,"ĠprakÄģÅĽa":2283,"Ġnanu":2284,"mate":2285,"nÄ«m":2286,"deÅĽÄģ":2287,"rasaá¹ĥ":2288,"Ġgraha":2289,"á¹Ńo":2290,"likÄģ":2291,"myÄģ":2292,"á¹ĩÄģdi":2293,"ĠbhÅ«mi":2294,"ĠvÄģsa":2295,"ĠvÄģkya":2296,"ĠanyathÄģ":2297,"strÄ«":2298,"tatas":2299,"ratna":2300,"Ġkala":2301,"syeti":2302,"dyaá¹ĥ":2303,"khaá¹ĥ":2304,"trÄģpi":2305,"mava":2306,"ruá¹ĩa":2307,"raá¹ĩya":2308,"apa":2309,"ĠsÄģdhu":2310,"á¹ĥsa":2311,"ĠtathÄģpi":2312,"dhau":2313,"ut":2314,"dana":2315,"madhya":2316,"karoti":2317,"Ġdeve":2318,"padaá¹ĥ":2319,"Ġpraká¹Ľti":2320,"niÅĽca":2321,"dro":2322,"bhavaá¸¥":2323,"Ġasmin":2324,"á¹ĩy":2325,"vÄģsi":2326,"gya":2327,"vardha":2328,"tasmin":2329,"janma":2330,"Ġjanma":2331,"dvai":2332,"Ġphalaá¹ĥ":2333,"ttamam":2334,"rÅ«pi":2335,"jjÄģ":2336,"gá¹Ľh":2337,"tasmÄģd":2338,"lyaá¹ĥ":2339,"ritÄģ":2340,"Ġghá¹Ľ":2341,"stva":2342,"th":2343,"Ġpá¹Ľthak":2344,"Ġvara":2345,"vastu":2346,"stri":2347,"pata":2348,"Ġvo":2349,"ĠkuryÄģt":2350,"ĠviÅĽi":2351,"pratyaya":2352,"saman":2353,"Ġpratiá¹£á¹ŃhÄģ":2354,"svarÅ«pa":2355,"Ġká¹£Äģ":2356,"ĠasyÄģ":2357,"ĠkÄģryaá¹ĥ":2358,"á¹£á¹Ńau":2359,"rita":2360,"Ġsarvam":2361,"ĠsÄģdhya":2362,"vopa":2363,"cyu":2364,"lasya":2365,"mahe":2366,"cakra":2367,"ÄĢ":2368,"tÄģpa":2369,"nara":2370,"maya":2371,"ndhÄģ":2372,"Ġdiva":2373,"kva":2374,"Ġpada":2375,"cÅ«r":2376,"ttha":2377,"puá¹£pa":2378,"ktaá¸¥":2379,"Ġmanya":2380,"rthasya":2381,"ĠpÅ«rvÄģ":2382,"rdhaá¹ĥ":2383,"bandhaá¸¥":2384,"ĠprajÃ±ÄģpÄģramitÄģyÄģá¹ĥ":2385,"tor":2386,"har":2387,"Ġpuá¹£":2388,"jet":2389,"dve":2390,"ĠpaÅĽu":2391,"ttarÄģ":2392,"harati":2393,"nÄģÅĽa":2394,"ndi":2395,"Ġsiddhi":2396,"viva":2397,"tmÄģnaá¹ĥ":2398,"Ġyoga":2399,"mÄģne":2400,"Ġbheda":2401,"mÄ«ti":2402,"Ġpuruá¹£Äģ":2403,"catur":2404,"kÄģya":2405,"gÄģá¸¥":2406,"Ġsattva":2407,"raÅĽ":2408,"ĠsÄģá¹ĥ":2409,"jÃ±apriyÄģ":2410,"Ġpuruá¹£o":2411,"jÃ±atÄģ":2412,"Ġasaá¹ĥ":2413,"Ġkathi":2414,"vu":2415,"padi":2416,"Ġvira":2417,"stasya":2418,"tavyaá¸¥":2419,"gati":2420,"ĠpÄģra":2421,"syati":2422,"tru":2423,"gate":2424,"nirÄģ":2425,"jaya":2426,"Ġstha":2427,"Ġtattva":2428,"anya":2429,"Ġpitá¹Ľ":2430,"nÄģnu":2431,"ĠkÄģryÄģ":2432,"ĠpÄģá¹ĩá¸įa":2433,"Ġceta":2434,"dhyaá¹ĥ":2435,"Ġdhi":2436,"tÄģs":2437,"ká¹Ľtam":2438,"nÄģva":2439,"yodha":2440,"dhÄģnaá¹ĥ":2441,"tyam":2442,"Ġgam":2443,"ĠyÄģvad":2444,"Ġle":2445,"sÄģdhana":2446,"dvitÄ«":2447,"Ġdoá¹£a":2448,"Ġvajra":2449,"ĠkaÅĽ":2450,"Ġká¹Ľá¹£":2451,"mayÄģ":2452,"laká¹£aá¹ĩÄģ":2453,"ĠÅĽrÄģva":2454,"heti":2455,"Ġdhru":2456,"Ġamá¹Ľ":2457,"pratiá¹£e":2458,"ata":2459,"pet":2460,"gena":2461,"rÄ«á¹ĥ":2462,"ĠkiÃ±":2463,"Å«la":2464,"yana":2465,"rÄģd":2466,"prakÄģÅĽa":2467,"rodhÄģ":2468,"Ġcitta":2469,"citra":2470,"Ġanena":2471,"paka":2472,"mÄģya":2473,"ĠbabhÅ«":2474,"saá¹ĥsparÅĽa":2475,"laká¹£":2476,"peká¹£Äģ":2477,"Ġmá¹Ľtyu":2478,"ĠtÄģva":2479,"ĠmahÄģsat":2480,"varÄģ":2481,"mabhi":2482,"ĠtÄģvad":2483,"saá¹ĥjÃ±Äģ":2484,"cÄģrya":2485,"Ġuktaá¹ĥ":2486,"yukta":2487,"rdhÄģ":2488,"Ġká¹£u":2489,"Ġyatho":2490,"Ġkaro":2491,"ĠnÄģnya":2492,"Ġá¹£aá¸į":2493,"yÄģva":2494,"yuktaá¹ĥ":2495,"vyo":2496,"Ġsamanupa":2497,"á¹ĩÄģti":2498,"prasÄģ":2499,"payet":2500,"vijÃ±Äģna":2501,"nmÄģ":2502,"deha":2503,"grahÄģ":2504,"grÄģha":2505,"Ġpriya":2506,"pate":2507,"darÅĽana":2508,"pÄģsa":2509,"kÄģdi":2510,"Ġnamo":2511,"Ġkvacit":2512,"Ġuktam":2513,"pro":2514,"Ġkhal":2515,"yora":2516,"sthitaá¸¥":2517,"yogaá¸¥":2518,"ĠcatvÄģ":2519,"yÄģmÄģsa":2520,"tsÄģ":2521,"Ġprabhu":2522,"ĠputrÄģ":2523,"ĠsÄģmÄģnya":2524,"ĠmÄģm":2525,"ĠvÄģyu":2526,"panna":2527,"sthaá¹ĥ":2528,"midaá¹ĥ":2529,"ĠvarÄģ":2530,"pannÄģ":2531,"ĠÅĽruti":2532,"vikalpa":2533,"baddha":2534,"Ġaká¹£a":2535,"syaiva":2536,"bhÄģá¹£a":2537,"ĠÅĽara":2538,"Ġcid":2539,"ana":2540,"dá¹Ľá¹£á¹Ńa":2541,"raka":2542,"Ġá¹£aá¹Ń":2543,"Ġataá¸¥":2544,"tmano":2545,"myaá¹ĥ":2546,"ĠyÄģti":2547,"Ġkima":2548,"Ġsaá¹ĥvi":2549,"Ġvará¹ĩa":2550,"gdhÄģ":2551,"Ġadya":2552,"sanni":2553,"ĠbhÅ«tvÄģ":2554,"kÄģni":2555,"voca":2556,"Ġpuá¹£pa":2557,"ĠpÄģda":2558,"pÄģrami":2559,"grahaá¸¥":2560,"ĠrÅ«pÄģ":2561,"hitam":2562,"kalpÄģ":2563,"tyÄģá¹ĥ":2564,"sthÄģna":2565,"rikÄģ":2566,"punar":2567,"ĠÄģsÄ«":2568,"pÄ«ti":2569,"Ġnopa":2570,"nn":2571,"jyo":2572,"Ġvikalpa":2573,"á¹ħgo":2574,"mai":2575,"eá¹£a":2576,"smÄģd":2577,"Ġdru":2578,"staá¹ĥ":2579,"Ġsada":2580,"ĠÅĽaá¹ħ":2581,"Ġdevi":2582,"pnu":2583,"ĠÅĽai":2584,"Ġsara":2585,"katvÄģ":2586,"dhyati":2587,"tmani":2588,"ÅĽabdo":2589,"Ġhetoá¸¥":2590,"mÅ«la":2591,"palabhyate":2592,"ĠkÄģle":2593,"ká¹£epa":2594,"ĠbodhisattvÄģ":2595,"svi":2596,"Ġavya":2597,"stam":2598,"ĠprÄģpnoti":2599,"karaá¹ĩÄģ":2600,"bhiprÄģ":2601,"kartá¹Ľ":2602,"Ġchi":2603,"laya":2604,"mÄģnam":2605,"Ġyada":2606,"Ġyadya":2607,"ĠathÄģ":2608,"Ġbhar":2609,"Ġraká¹£a":2610,"ĠtÄģni":2611,"Ġpare":2612,"Ġdvija":2613,"manÄģ":2614,"Ġnimit":2615,"siddhe":2616,"Ġto":2617,"Ġká¹Ľtaá¹ĥ":2618,"kri":2619,"Ġstu":2620,"hito":2621,"pri":2622,"nni":2623,"Ġdá¹Ľá¹£á¹Ńa":2624,"ĠmÄģyÄģ":2625,"ĠbhÄģvÄģ":2626,"Ġtau":2627,"Ġai":2628,"syate":2629,"pnoti":2630,"Ġvina":2631,"kramya":2632,"Ġliá¹ħga":2633,"tÄ«nÄģá¹ĥ":2634,"Ġvá¹Ľtti":2635,"ĠtvÄģá¹ĥ":2636,"krÄ«":2637,"ravi":2638,"á¹£mÄģ":2639,"Ġpaká¹£a":2640,"nÄ«ti":2641,"karaá¹ĩe":2642,"tÄģdi":2643,"ptam":2644,"pita":2645,"Ġpar":2646,"Ġdharmaá¹ĥ":2647,"ĠadhyÄģyaá¸¥":2648,"mÄģyÄģ":2649,"dama":2650,"ritaá¹ĥ":2651,"tÄ«á¹ĥ":2652,"Ġsaá¹ħ":2653,"nas":2654,"mita":2655,"ĠdarÅĽayati":2656,"Ġniya":2657,"ká¹Ľte":2658,"khyaá¹ĥ":2659,"vyatire":2660,"Ġcandra":2661,"pÄģá¹ĩi":2662,"karaá¹ĥ":2663,"moká¹£a":2664,"mÄģtreá¹ĩa":2665,"prasaá¹ħgÄģ":2666,"Ġcara":2667,"Ġpat":2668,"Ġgacchati":2669,"Ġkrama":2670,"etad":2671,"darÅĽi":2672,"Ġvayaá¹ĥ":2673,"ÅĽma":2674,"Ġspá¹Ľ":2675,"ĠchÄģ":2676,"vibhÄģ":2677,"vijÃ±Äģ":2678,"vaÅĽÄģ":2679,"ĠvÄģpi":2680,"vidhaá¹ĥ":2681,"hrÄģ":2682,"sahasra":2683,"prÄģmÄģ":2684,"miva":2685,"sÄģdya":2686,"sphu":2687,"dÄ«pa":2688,"caká¹£u":2689,"mevÄģ":2690,"á¹£ye":2691,"mÄģnaá¸¥":2692,"ĠkÅ«":2693,"dá¹ĽÅĽa":2694,"ĠkauÅĽi":2695,"katvaá¹ĥ":2696,"ntaram":2697,"jÄģta":2698,"ar":2699,"vati":2700,"ditÄģ":2701,"dapi":2702,"gÄģma":2703,"brahmÄģ":2704,"Ġsaá¹ĥsÄģ":2705,"Ġanupa":2706,"Ġkila":2707,"ĠsvarÅ«pa":2708,"dá¹Ľá¹£á¹ŃÄģ":2709,"Ġparamaá¹ĥ":2710,"ĠrÅ«":2711,"pattiá¸¥":2712,"uá¹£a":2713,"Ġprathama":2714,"hÅ«r":2715,"jala":2716,"vak":2717,"rÄģga":2718,"ká¹£aá¹ĩa":2719,"Ġsata":2720,"ĠyÅ«":2721,"bhinna":2722,"dá¹ĽÅĽÄģ":2723,"ÅĽuk":2724,"Ġyataá¸¥":2725,"ĠtÅ«":2726,"ghá¹Ľ":2727,"Ġdraá¹£á¹Ńa":2728,"hÄģrÄģ":2729,"dhara":2730,"ĠsarvÄģn":2731,"Ġvasa":2732,"dhipa":2733,"prÄ«":2734,"madhye":2735,"Ġviá¹£aya":2736,"Ġvartate":2737,"Ġsaá¹ĥjÃ±Äģ":2738,"á¹ĩye":2739,"Ġpraya":2740,"Ġpata":2741,"Ġgaá¹ħgÄģ":2742,"paraá¹ĥ":2743,"pÄģpa":2744,"Ġuta":2745,"Ġsto":2746,"gÄģmi":2747,"mÄģnasya":2748,"Ġá¹£oá¸įa":2749,"vedÄģ":2750,"ĠdadÄģ":2751,"Ġcaran":2752,"Ġanyo":2753,"ryam":2754,"ĠudÄģ":2755,"sÄģmart":2756,"Ġri":2757,"Ġindra":2758,"ĠtathÄģgata":2759,"tvi":2760,"ĠtayÄģ":2761,"goca":2762,"Ġ!":2763,"ĠbÄģdha":2764,"ntya":2765,"Ġtatha":2766,"dre":2767,"á¹£aá¹ĩa":2768,"cinta":2769,"loca":2770,"payati":2771,"ĠanyÄģ":2772,"nÄģmÄģ":2773,"dbhu":2774,"Ġpravá¹Ľtti":2775,"pÄģá¸¥":2776,"Ġniru":2777,"saá¹ĥni":2778,"dvaya":2779,"ĠÅĽuddha":2780,"dá¹ĽÅĽya":2781,"ĠbrÄģhmaá¹ĩa":2782,"Ġdeha":2783,"ĠbÄģla":2784,"triá¹ĥÅĽa":2785,"ĠdevÄģá¸¥":2786,"nair":2787,"rá¹£i":2788,"ĠnÄģga":2789,"nÄģga":2790,"Ġprava":2791,"koá¹Ńi":2792,"kaá¹Ńa":2793,"dravya":2794,"tatrÄģ":2795,"jÄģá¹ĥ":2796,"ditya":2797,"kurva":2798,"Ġmaá¹ĩá¸įa":2799,"dhÄģraá¹ĩa":2800,"vÄģra":2801,"ndro":2802,"Ġratha":2803,"nÄģha":2804,"Ġgá¹Ľha":2805,"dita":2806,"vÄģya":2807,"ká¹Ľá¹£á¹ĩa":2808,"patta":2809,"ĠprasÄģ":2810,"ÅĽai":2811,"Ġteja":2812,"oá¹ĥ":2813,"ĠÅĽÄģstra":2814,"dvÄ«":2815,"Ġanye":2816,"Ġvyati":2817,"naka":2818,"gre":2819,"Ġdaá¹ĩá¸įa":2820,"bhoga":2821,"laká¹£aá¹ĩam":2822,"jÃ±i":2823,"yupa":2824,"mÄģnu":2825,"reva":2826,"ĠarthÄģ":2827,"Ġguá¹ĩÄģ":2828,"yogÄģt":2829,"yÄģya":2830,"ĠkeÅĽa":2831,"Ġkle":2832,"ĠuktvÄģ":2833,"dÄģnaá¹ĥ":2834,"mÄģrga":2835,"Ġvacanaá¹ĥ":2836,"ĠmanasÄģ":2837,"ĠpÄģrthi":2838,"sarvaá¹ĥ":2839,"pÅ«rá¹ĩa":2840,"Ġeta":2841,"sahasrÄģá¹ĩi":2842,"lÄģdi":2843,"Ġtai":2844,"ĠdattvÄģ":2845,"ĠvijÃ±Äģna":2846,"satya":2847,"ĠpaÃ±cÄģ":2848,"Ġtiá¹£á¹Ńhati":2849,"Ġstri":2850,"ktvÄģ":2851,"Ġsaá¹ĥni":2852,"Ġevai":2853,"meá¹£u":2854,"Ġtrai":2855,"nÄģda":2856,"ĠapÄģ":2857,"chÄģ":2858,"ĠvÄ«rya":2859,"laká¹£aá¹ĩaá¹ĥ":2860,"Ġkaá¹ĩ":2861,"Ġsmá¹Ľtaá¸¥":2862,"ĠniÅĽca":2863,"'s":2864,"prÄģpta":2865,"gamya":2866,"bá¹Ľ":2867,"gna":2868,"nimitta":2869,"tthaá¹ĥ":2870,"ĠkÄģya":2871,"ĠkumÄģ":2872,"ĠprÄģpya":2873,"ratha":2874,"jÄģtÄ«":2875,"ÅĽabdaá¸¥":2876,"hari":2877,"gá¹Ľhya":2878,"ĠsamÄ«":2879,"rÅ«po":2880,"á¹ĩikÄģ":2881,"Ġphalam":2882,"Ġpratiá¹£e":2883,"stya":2884,"dhyam":2885,"iÅĽvar":2886,"sarga":2887,"vanti":2888,"ĠÅĽaá¹ĥ":2889,"á¹£á¹ŃhÄ«":2890,"Ġbhiká¹£a":2891,"bhavÄģt":2892,"ĠsamanupaÅĽyati":2893,"naca":2894,"tatha":2895,"Ġbá¹Ľha":2896,"itya":2897,"vitam":2898,"Ġpravarta":2899,"deá¸¥":2900,"ĠÅĽubhÄģ":2901,"nira":2902,"Ġbandha":2903,"sukha":2904,"Ġbhakti":2905,"ĠbhavÄģn":2906,"ĠprayÄģ":2907,"ĠmithyÄģ":2908,"dadhÄģ":2909,"prabhá¹Ľ":2910,"yojana":2911,"á¹Ńá¹Ńa":2912,"yuktÄģ":2913,"saá¹ħga":2914,"pena":2915,"lambhayogena":2916,"dÄ«r":2917,"viÅĽ":2918,"maá¹ĩi":2919,"prabhÄģ":2920,"ĠdarÅĽi":2921,"manya":2922,"rti":2923,"dÄģnÄ«á¹ĥ":2924,"straá¹ĥ":2925,"vye":2926,"Ġtatta":2927,"ĠpratyÄģ":2928,"Ġkaá¸¥":2929,"deÅĽaá¸¥":2930,"sai":2931,"parva":2932,"ĠkÄ«":2933,"gÄģn":2934,"Ġvibha":2935,"val":2936,"Ġsahasra":2937,"vará¹£a":2938,"Ġbhaved":2939,"Ġmahat":2940,"dá¹Ľá¹£á¹Ń":2941,"hyam":2942,"Ġvana":2943,"ĠparyÄģ":2944,"prajÄģ":2945,"pÅ«rvaá¹ĥ":2946,"bhira":2947,"sÄģhas":2948,"yantÄ«":2949,"Ġvraja":2950,"ĠpratijÃ±Äģ":2951,"ĠprÄģg":2952,"sÅ«r":2953,"palab":2954,"tÄģt":2955,"nur":2956,"lokÄģ":2957,"guá¹ĩaá¹ĥ":2958,"pÅ«ja":2959,"Ġane":2960,"ĠmahÄģrÄģja":2961,"Ġdravya":2962,"viá¹£Äģ":2963,"bhayÄģ":2964,"vará¹ĩÄģ":2965,"yasyÄģ":2966,"Ġmoká¹£a":2967,"ndhu":2968,"pye":2969,"Ġvará¹£a":2970,"karaá¹ĩaá¹ĥ":2971,"ĠjanÄģ":2972,"topa":2973,"ĠrÄģma":2974,"Ġanyatra":2975,"ĠpÅ«rvo":2976,"tÄģra":2977,"Ġkutaá¸¥":2978,"draá¹ĥ":2979,"ditaá¹ĥ":2980,"statra":2981,"Ġprayat":2982,"yaiva":2983,"hye":2984,"game":2985,"há¹Ľda":2986,"ĠupÄģdÄģya":2987,"Ġsoma":2988,"bhÅ«á¹£i":2989,"spá¹Ľ":2990,"Ġnaraá¸¥":2991,"pÄģdhi":2992,"ĠO":2993,"sÄģá¸¥":2994,"Ġvyabhi":2995,"laá¹ħkÄģra":2996,"hata":2997,"END":2998,"ĠOF":2999,"ĠCOMMENTARY":3000,"yya":3001,"ĠsahÄģ":3002,"patir":3003,"bandhi":3004,"ÅĽÄģá¹ĥ":3005,"Ġpratyu":3006,"Ġbodhisattvasya":3007,"ĠÅĽrÄģ":3008,"iha":3009,"jye":3010,"á¹ŃhÄģ":3011,"ĠbhÄģrata":3012,"tayo":3013,"Ġkriyate":3014,"bhÄģvanÄģ":3015,"Ġkartá¹Ľ":3016,"ttamaá¸¥":3017,"ĠatÄ«":3018,"Ġsai":3019,"ĠparÄ«":3020,"dÄģá¹ĥ":3021,"ĠÄģra":3022,"ĠprÄģmÄģ":3023,"á¹ĩá¸įÄ«":3024,"Ġpuro":3025,"dupa":3026,"gatam":3027,"darÅĽanÄģ":3028,"II":3029,"vane":3030,"meya":3031,"jÄģti":3032,"mÄģm":3033,"Ġgataá¸¥":3034,"ĠÅĽrÅ«":3035,"dÄ«ni":3036,"ĠdÄ«rgha":3037,"Ġdivya":3038,"putro":3039,"sá¹Ľja":3040,"vasi":3041,"rambha":3042,"Ġvaá¸¥":3043,"litÄģ":3044,"Vi":3045,"ká¹Ľtaá¸¥":3046,"á¹ĩÄģya":3047,"vÄģna":3048,"khÄ«":3049,"Ġká¹£atri":3050,"ÅĽruti":3051,"ĠbuddhÄģ":3052,"ĠsÅ«tra":3053,"Ġsarveá¹£Äģá¹ĥ":3054,"ati":3055,"stÄ«ti":3056,"viá¹£á¹ĩu":3057,"ahaá¹ĥ":3058,"dhiá¹£á¹ŃhÄģ":3059,"bhiÅĽ":3060,"dÄģá¸¥":3061,"ryÄģá¹ĥ":3062,"Ġabhavat":3063,"ukta":3064,"reá¹ĩÄģ":3065,"Ġmá¹Ľga":3066,"Ġaá¹ħga":3067,"ĠdvÄģdaÅĽa":3068,"han":3069,"ĠvibhÄģ":3070,"ĠmÄģnu":3071,"tá¹Ŀ":3072,"iá¹£a":3073,"ÅĽau":3074,"tyucyate":3075,"tattva":3076,"ĠÅĽeá¹£aá¸¥":3077,"idaá¹ĥ":3078,"priyÄģ":3079,"janaá¹ĥ":3080,"Ġsamyag":3081,"diá¹£u":3082,"á¹£á¹Ńho":3083,"Ġbhaviá¹£ya":3084,"sane":3085,"sthitÄģ":3086,"ÅĽiva":3087,"ĠvÄģkyaá¹ĥ":3088,"ĠviÅĽvÄģ":3089,"Ġantar":3090,"ĠkrÄ«":3091,"danta":3092,"bhede":3093,"raja":3094,"Ġeá¹£Äģ":3095,"ĠparamÄģrtha":3096,"ÅĽvaram":3097,"Ġdoá¹£Äģ":3098,"Ġyujyate":3099,"Ġgiri":3100,"bhayaá¹ĥ":3101,"lÄģn":3102,"hÄģraá¸¥":3103,"Ġcitra":3104,"sto":3105,"hasya":3106,"Ġvivi":3107,"tvÄģda":3108,"cchÄģmi":3109,"ete":3110,"ÅĽabdena":3111,"yogo":3112,"Ġdharmo":3113,"kyÄģ":3114,"pura":3115,"ĠÅĽuci":3116,"ká¹£yÄģmi":3117,"ĠnarÄģ":3118,"buddhÄģ":3119,"karaá¸¥":3120,"trya":3121,"ÅĽara":3122,"gran":3123,"pÅ«ra":3124,"ká¹ĽtvÄģ":3125,"ĠsamÄģdhi":3126,"á¹£yaá¹ĥ":3127,"mitra":3128,"pravi":3129,"Ġtatraiva":3130,"devaá¹ĥ":3131,"Ġpadma":3132,"Ġsatyaá¹ĥ":3133,"ĠlokÄģ":3134,"katvÄģt":3135,"Ġmahi":3136,"caret":3137,"Ġnaga":3138,"Ġyaá¹ĥ":3139,"rasi":3140,"yiá¹£yati":3141,"chi":3142,"viá¹£ayÄģ":3143,"ĠkathÄģ":3144,"hÄģri":3145,"ÅĽama":3146,"bhÄģvaá¹ĥ":3147,"tá¹ĽtÄ«":3148,"Ġaá¹£á¹Ńa":3149,"Ġbhrama":3150,"Ġeveti":3151,"paramÄģ":3152,"ekÄģ":3153,"Ġska":3154,"my":3155,"kair":3156,"tsu":3157,"Ġviro":3158,"Ġuttara":3159,"Ġmar":3160,"pá¹Ľthi":3161,"Ġsvarga":3162,"paÅĽya":3163,"pratha":3164,"Ġcinta":3165,"agni":3166,"ts":3167,"layÄģ":3168,"vÄģri":3169,"Ġitye":3170,"pÄģr":3171,"Ġpuá¹ĥ":3172,"Ġn":3173,"nÄģmi":3174,"ĠpradhÄģ":3175,"Ġmaru":3176,"grahe":3177,"dá¹ĽÅĽaá¹ĥ":3178,"bahi":3179,"praá¹ĩi":3180,"ĠsarvadÄģ":3181,"sÄģdhya":3182,"ĠbalÄģ":3183,"Ġtapo":3184,"ĠsÄģrdhaá¹ĥ":3185,"Ġpadaá¹ĥ":3186,"ĠprÄģha":3187,"ká¹Ľto":3188,"á¹ĩÄ«á¹ĥ":3189,"ato":3190,"Ġdoá¹£aá¸¥":3191,"ddharma":3192,"teja":3193,"ĠsurÄģ":3194,"mayaá¹ĥ":3195,"tyÄģdinÄģ":3196,"darÅĽanÄģt":3197,"mukhaá¹ĥ":3198,"varga":3199,"saá¹ĥkhyÄģ":3200,"krÄģnta":3201,"á¹ĩau":3202,"ĠaÅĽva":3203,"ĠvidhÄģ":3204,"paya":3205,"niá¹£e":3206,"Ġteá¹£u":3207,"raká¹£a":3208,"Ġviá¹£á¹ĩo":3209,"Ġsamaá¹ĥ":3210,"kapÄģ":3211,"Ġkapi":3212,"Ġbhara":3213,"stre":3214,"Äģtma":3215,"bhakti":3216,"Ġyac":3217,"dhÄģt":3218,"Ġkurute":3219,"ĠÅĽve":3220,"Ã±ji":3221,"ÅĽÅ«nyatÄģm":3222,"yoni":3223,"Ġyato":3224,"vÄģc":3225,"Ġpraá¹ĩi":3226,"tenÄģ":3227,"vanaá¹ĥ":3228,"Ġsukhaá¹ĥ":3229,"ĠsukhÄģ":3230,"bÄģdha":3231,"phÄģ":3232,"ĠprÄģá¹ĩÄģ":3233,"ká¹£ita":3234,"tiri":3235,"pare":3236,"Ġvyu":3237,"Ġcakra":3238,"Ġhare":3239,"Ġrudra":3240,"janÄģ":3241,"yeva":3242,"ĠasÄģ":3243,"á¹ĩeá¹£u":3244,"á¹ĩyam":3245,"vir":3246,"á¹£aá¹Ń":3247,"Ġaá¹£á¹ŃÄģ":3248,"Ġbali":3249,"janya":3250,"ĠviprÄģ":3251,"ĠprÄģpta":3252,"dheá¸¥":3253,"Ġvá¹Ľá¹£a":3254,"Ġduá¹£":3255,"devatÄģ":3256,"ĠtadyathÄģ":3257,"mada":3258,"Ġagne":3259,"ÅĽÄģstra":3260,"cita":3261,"dhana":3262,"Ġká¹Ľtam":3263,"pto":3264,"nuá¸¥":3265,"Ġduá¸¥khÄģ":3266,"ĠvedanÄģ":3267,"ĠkhyÄģ":3268,"rupa":3269,"meka":3270,"paro":3271,"Ġkevalaá¹ĥ":3272,"á¹Ńhe":3273,"mama":3274,"candra":3275,"ÅĽati":3276,"Ġst":3277,"VijÃ±apriyÄģ":3278,"paÅĽ":3279,"Ġaya":3280,"yÄģna":3281,"dÄģra":3282,"neha":3283,"dá¹Ľá¹£á¹ŃvÄģ":3284,"kÄģlÄģ":3285,"dharÄģ":3286,"ĠjÄģta":3287,"ditaá¸¥":3288,"Ġoá¹ĥ":3289,"ĠjÄģti":3290,"thu":3291,"Ġced":3292,"ita":3293,"ĠmamÄģ":3294,"yava":3295,"ĠnÄģpi":3296,"bandho":3297,"ÅĽÄģá¸¥":3298,"nvÄģ":3299,"Ġmaá¹ĩi":3300,"kÄģm":3301,"stat":3302,"ĠpriyÄģ":3303,"laiá¸¥":3304,"yitu":3305,"ghaá¹Ńa":3306,"Ġlu":3307,"yÄģrtha":3308,"ghÄģta":3309,"Ġpravartate":3310,"Ġyas":3311,"sid":3312,"neva":3313,"Ġvive":3314,"kusu":3315,"Ġtatas":3316,"ĠlÄ«":3317,"gÄģt":3318,"Ġbhinna":3319,"katÄģ":3320,"Ġtadvi":3321,"tantra":3322,"ryo":3323,"Ġch":3324,"lÄģnÄģá¹ĥ":3325,"dvatÄ«":3326,"Ġpravá¹Ľt":3327,"ĠnÄģrÄģya":3328,"puruá¹£Äģ":3329,"Ġyogi":3330,"ÅĽle":3331,"ĠyasyÄģ":3332,"tyai":3333,"stho":3334,"Ġsiddham":3335,"ÅĽro":3336,"ĠpÄģr":3337,"tyaá¸¥":3338,"Ġeve":3339,"ĠyÄģva":3340,"yiá¹£yanti":3341,"á¹Ńhi":3342,"Ġyuga":3343,"eta":3344,"yamÄģna":3345,"Ġsanni":3346,"á¹ĩá¸įaá¹ĥ":3347,"tvenÄģ":3348,"á¹£á¹Ńhaá¸¥":3349,"cchinna":3350,"Ġkri":3351,"etat":3352,"ĠÅĽrava":3353,"kathÄģ":3354,"ĠyÄģnti":3355,"der":3356,"ÅĽrÅ«":3357,"gamÄģ":3358,"samÄ«":3359,"ĠtÄģta":3360,"Ġlaká¹£aá¹ĩa":3361,"ĠghrÄģ":3362,"Ã±jÄģ":3363,"á¹£Å«":3364,"pradÄģ":3365,"ĠmÄģtÄģ":3366,"surÄģ":3367,"bÄ«ja":3368,"Ġká¹Ľte":3369,"Ġratna":3370,"Ġvija":3371,"Ġama":3372,"ĠrÄģgha":3373,"Ġupasaá¹ĥ":3374,"danÄģ":3375,"ĠgatÄģ":3376,"ĠnirvÄģ":3377,"sÅ«tra":3378,"nupalab":3379,"mud":3380,"ĠÅĽÄ«gh":3381,"peká¹£ayÄģ":3382,"ĠkÄģraá¹ĩam":3383,"ĠbabhÅ«va":3384,"saá¹ĥvi":3385,"ĠjÃ±ÄģtvÄģ":3386,"kavi":3387,"tÄģya":3388,"pÅ«rvÄģ":3389,"Ġvista":3390,"Ġkuto":3391,"ikaá¹ĥ":3392,"rÅ«pya":3393,"Ġkintu":3394,"spar":3395,"ayaá¹ĥ":3396,"ĠetÄģ":3397,"dá¹Ľá¹£á¹Ńi":3398,"ĠÅĽaá¹ħka":3399,"tyÄģá¸¥":3400,"nne":3401,"Ã±jali":3402,"mukta":3403,"vocat":3404,"cchab":3405,"devo":3406,"ĠityÄģha":3407,"cak":3408,"nataá¸¥":3409,"prÄģá¹ĩa":3410,"ĠcÄģsya":3411,"yitum":3412,"Ġsthitaá¸¥":3413,"ĠaparÄģ":3414,"dhikaraá¹ĩa":3415,"Ġniá¹£e":3416,"doá¹£Äģ":3417,"yÄģti":3418,"mupÄģ":3419,"bÄģhu":3420,"ĠatrÄģ":3421,"nadÄ«":3422,"vyabhi":3423,"Ġdaká¹£iá¹ĩÄģ":3424,"ĠtenÄģ":3425,"dheya":3426,"kari":3427,"grahaá¹ĩam":3428,"Ġdvau":3429,"nantaraá¹ĥ":3430,"Ġtadu":3431,"pratipÄģda":3432,"paÃ±cÄģ":3433,"Ġlauk":3434,"Ġsphuá¹Ńa":3435,"viÅĽiá¹£á¹Ńa":3436,"Ġparo":3437,"aho":3438,"sthitam":3439,"Ġnija":3440,"vÄ«ta":3441,"ÅĽritya":3442,"kÄģmÄģ":3443,"vacana":3444,"yadya":3445,"ĠnÅ«":3446,"Ġmanyate":3447,"tÄģyÄģ":3448,"tvÄģditi":3449,"dyÄģt":3450,"ptvÄģ":3451,"yikÄģ":3452,"kramaá¸¥":3453,"ĠpramÄģá¹ĩÄģ":3454,"viÅĽva":3455,"vá¹Ľttiá¸¥":3456,"cintya":3457,"Ġparas":3458,"ttaá¹ĥ":3459,"nyasya":3460,"ĠkalyÄģ":3461,"caá¹ĥ":3462,"ĠmahÄģn":3463,"rair":3464,"laka":3465,"yuktam":3466,"á¸įhaá¹ĥ":3467,"Ġvyo":3468,"garbha":3469,"Ġlabhate":3470,"ĠjÄ«vi":3471,"pana":3472,"ĠsÄģká¹£Äģt":3473,"Ġrakta":3474,"á¹£á¹ŃÄģá¸¥":3475,"ĠdÅ«á¹£a":3476,"niá¹£a":3477,"nuk":3478,"Ġraá¹ĩe":3479,"purÄģá¹ĩe":3480,"bhis":3481,"caá¹£á¹Ńe":3482,"pam":3483,"bhijÃ±Äģ":3484,"ĠabhÄģva":3485,"siddhiá¸¥":3486,"ÅĽeá¹£Äģ":3487,"ĠrÄģjÃ±Äģ":3488,"sati":3489,"sanaá¹ĥ":3490,"mukti":3491,"Ġaneka":3492,"bhÄģá¹£i":3493,"Ġprathamaá¹ĥ":3494,"Ġvacaá¸¥":3495,"rca":3496,"veá¹ĩa":3497,"jitÄģ":3498,"Ġpuruá¹£aá¸¥":3499,"Ġghaá¹ŃÄģ":3500,"ĠvijÃ±e":3501,"nÄ«yÄģ":3502,"llÄģ":3503,"vyaÃ±ja":3504,"Ġkathayati":3505,"ĠjihvÄģ":3506,"Ġgama":3507,"ktiá¸¥":3508,"ĠsahasÄģ":3509,"mahi":3510,"yyÄģ":3511,"bhedena":3512,"á¸įÄ«":3513,"Ġyau":3514,"tthi":3515,"yajÃ±a":3516,"Ġsanti":3517,"ĠmahÄģba":3518,"ÅĽÄģra":3519,"tÄģna":3520,"ĠkanyÄģ":3521,"gÄģdi":3522,"Ġhaá¹ĥ":3523,"Ġsamanta":3524,"prayoja":3525,"Ġvaktavyam":3526,"ĠÄģrya":3527,"ĠbhÄ«ma":3528,"liá¹ħgÄģ":3529,"Ġyuktam":3530,"Ġbhuk":3531,"ntareá¹ĩa":3532,"sÄģmÄģnya":3533,"mÄģlÄģ":3534,"ĠbhavatÄ«ti":3535,"Ġsavi":3536,"Ġatya":3537,"Ġteá¹£Äģm":3538,"jÄ«vi":3539,"taro":3540,"vanÄģ":3541,"ttamÄģá¸¥":3542,"varaá¹ĥ":3543,"ruci":3544,"rye":3545,"ká¹£etra":3546,"Ġmanda":3547,"Ġantaá¸¥":3548,"tv":3549,"Ġpá¹Ľthag":3550,"kabuddha":3551,"ghna":3552,"rvi":3553,"nirvÄģ":3554,"marÅĽa":3555,"caryÄģ":3556,"rÄģká¹£a":3557,"pÄģá¹ĥ":3558,"Ġmayi":3559,"ĠÄģyuá¹£":3560,"moda":3561,"kÄģrajÃ±atÄģ":3562,"ĠkÄģraá¹ĩÄģ":3563,"kÄģÅĽaá¹ĥ":3564,"paá¹Ńa":3565,"kas":3566,"bhedo":3567,"ĠtrÄ«":3568,"hiá¹ĥ":3569,"ĠnÄģtra":3570,"ĠÅĽatru":3571,"rÅ«pam":3572,"Ġsaá¹ĥskÄģrÄģ":3573,"Ġtair":3574,"Ġiyaá¹ĥ":3575,"daiva":3576,"jani":3577,"Ġjyoti":3578,"Ġkaá¹ĥ":3579,"tÄ«r":3580,"ĠÅĽÄ«la":3581,"ĠkauÅĽika":3582,"param":3583,"Ġdevo":3584,"bdhÄģ":3585,"prahÄģ":3586,"dvayaá¹ĥ":3587,"raá¹ĩe":3588,"Ġ]":3589,"Ġniha":3590,"atrÄģ":3591,"palÄģ":3592,"nty":3593,"ĠrÅ«pam":3594,"nÄģtha":3595,"Ġtama":3596,"ĠsparÅĽa":3597,"rmi":3598,"nno":3599,"nyaá¸¥":3600,"ĠtrÄģ":3601,"prasaá¹ħgÄģt":3602,"kÄģryÄģ":3603,"kÄģlaá¹ĥ":3604,"sthÄģnaá¹ĥ":3605,"ÅĽataá¹ĥ":3606,"thÄģá¸¥":3607,"Ġbhaja":3608,"vasya":3609,"tpat":3610,"Ġvahni":3611,"rga":3612,"mukhÄ«":3613,"bhagavÄģn":3614,"datta":3615,"Ġbhuvi":3616,"Ġau":3617,"rthÄ«":3618,"set":3619,"kÄģram":3620,"latÄģ":3621,"brah":3622,"pá¹Ľtha":3623,"ryaá¸¥":3624,"Ġjaya":3625,"rka":3626,"pte":3627,"jÃ±Äģnam":3628,"Ġcittaá¹ĥ":3629,"Ġvidya":3630,"ĠvÄ«r":3631,"cari":3632,"yuga":3633,"ĠkÄģraá¹ĩaá¹ĥ":3634,"bhedaá¸¥":3635,"bhavaá¹ĥ":3636,"Ġhema":3637,"taye":3638,"ĠdadyÄģ":3639,"mad":3640,"nibandha":3641,"sÄģt":3642,"Ġyadu":3643,"ĠkaÅĽcit":3644,"ĠyaÅĽ":3645,"ndÄ«":3646,"Ġtasmai":3647,"tata":3648,"ĠcÄģtra":3649,"ĠsthÅ«":3650,"Ġpadam":3651,"ĠgÄ«":3652,"Ġdaiva":3653,"ĠkalÄģ":3654,"roha":3655,"dham":3656,"Ġvida":3657,"ĠvÄģma":3658,"Ġvardha":3659,"ĠbahÅ«":3660,"Ġpuá¹ĩyaá¹ĥ":3661,"Ġiccha":3662,"samud":3663,"mukhe":3664,"saá¹ĥyu":3665,"ĠdaÅĽÄģ":3666,"ruddhÄģ":3667,"Ġputro":3668,"Ġbrah":3669,"vedi":3670,"sÄģn":3671,"yato":3672,"Ġgaá¹ĩa":3673,"vive":3674,"pratyaká¹£a":3675,"á¹£yan":3676,"dÄģdi":3677,"ĠdÄģni":3678,"ĠkaÅĽcid":3679,"ká¹£yÄģ":3680,"uktam":3681,"vyÅ«":3682,"Ġeko":3683,"ĠmÅ«la":3684,"stÅ«":3685,"kará¹ĩa":3686,"Ġnama":3687,"tyata":3688,"caá¸¥":3689,"Ġmada":3690,"Ġdevaá¹ĥ":3691,"tvamiti":3692,"Ġparitya":3693,"yuta":3694,"ká¹£itÄģ":3695,"dhunÄģ":3696,"praá¹ĩa":3697,"Ġvapu":3698,"má¹Ľta":3699,"ĠsamÄģna":3700,"Ġaa":3701,"Ġká¹£ipra":3702,"ĠdhyÄģna":3703,"ĠdevÄģnÄģá¹ĥ":3704,"ĠbhÄģga":3705,"veva":3706,"ĠniÅĽci":3707,"ramÄģ":3708,"Ġnirva":3709,"Ġsmá¹Ľti":3710,"plu":3711,"nyÄģá¹ĥ":3712,"Ġgá¹Ľhe":3713,"kopa":3714,"ĠbhaktyÄģ":3715,"ĠcÄģnu":3716,"cet":3717,"Ġamu":3718,"vini":3719,"jena":3720,"Ġsakala":3721,"keá¹£u":3722,"lÅ«":3723,"nenÄģ":3724,"Ã±cana":3725,"dai":3726,"hite":3727,"Ġsta":3728,"yataá¸¥":3729,"ĠpradhÄģna":3730,"ĠprabhÄģ":3731,"Ġmad":3732,"Ġtrayo":3733,"vÄ«rya":3734,"viá¹ĥÅĽati":3735,"Ġyady":3736,"kalpanÄģ":3737,"ÅĽrayÄģ":3738,"á¹ħgya":3739,"vÄģdaá¸¥":3740,"ĠdivÄģ":3741,"bÅ«":3742,"punaá¸¥":3743,"á¹ĩopa":3744,"ĠvÄģsu":3745,"Ġubha":3746,"vacanaá¹ĥ":3747,"ÅĽÄģt":3748,"ĠbhÅ«yo":3749,"Ġprasiddha":3750,"ĠviÅĽ":3751,"ĠÅĽau":3752,"yÄģnÄģá¹ĥ":3753,"moha":3754,"pnuyÄģt":3755,"cce":3756,"lokaá¹ĥ":3757,"yasÄģ":3758,"tmaka":3759,"á¹Ńhaá¸¥":3760,"darÅĽanam":3761,"Ġprabhuá¸¥":3762,"riva":3763,"á¹ĩÄģd":3764,"anena":3765,"tatvÄģt":3766,"Ġtanu":3767,"ĠdivyÄģ":3768,"lamÅ«":3769,"anÄģ":3770,"tale":3771,"Ġchanda":3772,"ĠnadÄ«":3773,"Ġyudhiá¹£á¹Ńhi":3774,"nÄ«yaá¹ĥ":3775,"geá¹ĩa":3776,"janam":3777,"Ġbhaká¹£a":3778,"ĠniÅĽÄģ":3779,"kro":3780,"vedanÄģ":3781,"daÅĽ":3782,"svap":3783,"ĠkhÄģ":3784,"kÄģt":3785,"duá¸¥khÄģ":3786,"ĠvividhÄģ":3787,"Ġmune":3788,"malÄģ":3789,"dá¹ĽÅĽ":3790,"mÄģtre":3791,"dhanaá¹ĥ":3792,"prakÄģra":3793,"patte":3794,"ttaraá¹ĥ":3795,"tÄģraá¹ĥ":3796,"Ġsni":3797,"mataá¸¥":3798,"mye":3799,"Ġyayau":3800,"pitá¹Ľ":3801,"Ġgran":3802,"yukto":3803,"hÄģro":3804,"ĠprÄģpte":3805,"cuá¸¥":3806,"Ġgacche":3807,"vayava":3808,"smá¹Ľti":3809,"naÅĽ":3810,"á¹£á¹ŃyÄģ":3811,"Ġduá¸¥khaá¹ĥ":3812,"sasya":3813,"reka":3814,"puá¹ĩya":3815,"cida":3816,"puá¹ĥ":3817,"ĠsÅ«rya":3818,"krame":3819,"Ġsve":3820,"Ġdá¹ĽÅĽya":3821,"Ġparaspa":3822,"Ġnopalabhyate":3823,"jane":3824,"Ġnirdi":3825,"jvÄģ":3826,"tÄģnu":3827,"ĠvÄģg":3828,"Ġá¹Ľá¹£i":3829,"kulÄģ":3830,"yann":3831,"Ġsamud":3832,"Ġsatataá¹ĥ":3833,"ĠvyaÃ±ja":3834,"kuru":3835,"Ġjuho":3836,"viá¹£á¹Ńa":3837,"priya":3838,"á¹ĩeti":3839,"jitaá¸¥":3840,"tayaá¸¥":3841,"muktÄģ":3842,"tari":3843,"Ġdvijo":3844,"taiva":3845,"Ġkusu":3846,"ĠÅĽubha":3847,"pÄģka":3848,"Ġgá¹ĽhÄ«tvÄģ":3849,"ĠpÄģá¹ĩi":3850,"dye":3851,"rthena":3852,"sadÄģ":3853,"Ġprayu":3854,"ĠbhavatÄ«":3855,"grahaá¹ĩa":3856,"Ġapari":3857,"pÄģna":3858,"ká¹£amÄģ":3859,"ĠsÄģga":3860,"ddhvÄģ":3861,"kayÄģ":3862,"Ġtejo":3863,"jÃ±ayÄģ":3864,"ĠsarvÄģá¹ĩi":3865,"ĠpramÄģá¹ĩaá¹ĥ":3866,"gnir":3867,"kalpi":3868,"ÅĽrÄģva":3869,"kyaá¹ĥ":3870,"Ġprabho":3871,"vÄ«á¹ĥ":3872,"Ġvatsa":3873,"ĠpraÅĽa":3874,"Ġdhana":3875,"Ġtaj":3876,"ĠÄģkÄģÅĽa":3877,"ĠvÄ«ra":3878,"tare":3879,"mudrÄģ":3880,"ĠprakÄģ":3881,"vyÄģkhyÄģ":3882,"Ġsmá¹Ľtam":3883,"Ġhetuá¸¥":3884,"gamyate":3885,"nnam":3886,"ĠbhagavatÄģ":3887,"vadhÄģ":3888,"krameá¹ĩa":3889,"ĠnÄ«la":3890,"keá¹ĩa":3891,"ĠÅĽarÄ«ra":3892,"vipra":3893,"ĠÅĽri":3894,"citÄģ":3895,"syÄģnu":3896,"bhÄģvÄģd":3897,"yÄģnu":3898,"á¹ħgÄģni":3899,"ĠrÄģva":3900,"daá¹ĩá¸įa":3901,"yatÄģá¹ĥ":3902,"hasta":3903,"Ġdro":3904,"Ġpá¹ĽthivyÄģ":3905,"dhyÄģt":3906,"mbho":3907,"cala":3908,"Ġbru":3909,"ÅĽilÄģ":3910,"dher":3911,"hÄģn":3912,"bimba":3913,"ÅĽaá¹ħkÄģ":3914,"puro":3915,"ĠbhÄģryÄģ":3916,"bhavanti":3917,"ptaá¸¥":3918,"Ġmaho":3919,"Ġupalabhyate":3920,"patya":3921,"ĠsthitÄģ":3922,"Ġtata":3923,"deÅĽo":3924,"ĠkÄģvya":3925,"ká¹£Äģá¹ĥ":3926,"vará¹ĩaá¹ĥ":3927,"ryate":3928,"ĠihÄģ":3929,"lopa":3930,"samÄģdhi":3931,"ÅĽarÄ«ra":3932,"trau":3933,"vÄģt":3934,"ĠnÄģbhi":3935,"Ġlaghu":3936,"ĠvÄģcyam":3937,"hÄģá¸¥":3938,"Ã±c":3939,"pÄģdya":3940,"linÄ«":3941,"ĠnÄģmÄģ":3942,"ĠprÄģá¹ĩi":3943,"Ġkhe":3944,"sthÄģpa":3945,"ÅĽÄģsa":3946,"Ġdhanaá¹ĥ":3947,"ĠkÄģlÄģ":3948,"sthe":3949,"ntari":3950,"Ġnamas":3951,"jva":3952,"tarÄģá¹£á¹Ń":3953,"ĠpÄģpaá¹ĥ":3954,"Ġveti":3955,"gatÄģá¸¥":3956,"yamÄģá¹ĩa":3957,"suá¸¥":3958,"stadÄģ":3959,"ĠÅĽÅ«nyatÄģ":3960,"Ġbhagavato":3961,"rta":3962,"Ġime":3963,"ká¹Ľd":3964,"vá¹ĽttÄģ":3965,"vitaá¸¥":3966,"á¹ħgha":3967,"ÅĽayaá¸¥":3968,"kramam":3969,"nyatra":3970,"ndraá¹ĥ":3971,"uda":3972,"katve":3973,"Ġatyanta":3974,"gatasya":3975,"sita":3976,"pyaá¹ĥ":3977,"Ġvipu":3978,"dÄ«nÄģm":3979,"karaá¹ĩam":3980,"lair":3981,"ĠtasyÄģá¸¥":3982,"ĠabhÅ«t":3983,"Ġkarmaá¹ĩÄģ":3984,"Ġadha":3985,"ĠÅĽakra":3986,"nÄ«yam":3987,"naga":3988,"tÄģny":3989,"vyÄģá¹ĥ":3990,"Ġbaha":3991,"bhavam":3992,"Ġaho":3993,"bhÅ«to":3994,"rÄģm":3995,"bhavo":3996,"ĠsarvajÃ±a":3997,"saá¹ĥskÄģra":3998,"kho":3999,"vyu":4000,"jÄģyate":4001,"trai":4002,"ĠÅĽakyate":4003,"kule":4004,"cittaá¹ĥ":4005,"ĠtÄ«ká¹£":4006,"ranti":4007,"pÄģt":4008,"vá¹Ľká¹£a":4009,"ĠyaÅĽa":4010,"tpanna":4011,"Ġhá¹Ľdi":4012,"Ġcakre":4013,"Ġdharmaá¸¥":4014,"pravá¹Ľtti":4015,"Ġmukha":4016,"ĠÅĽrotra":4017,"Ġsaá¹ĥvatsa":4018,"sv":4019,"Ġyama":4020,"Ġdehi":4021,"nayo":4022,"Ġlaká¹£ma":4023,"prayoga":4024,"riputra":4025,"ĠbhavÄģ":4026,"Ġhye":4027,"bandhe":4028,"ĠprakÄ«rti":4029,"ĠpÄģá¹ĩá¸įu":4030,"ÅĽceti":4031,"ĠtavÄģ":4032,"niya":4033,"dvayam":4034,"ceti":4035,"á¹ĩá¸įo":4036,"Ġaparaá¹ĥ":4037,"ntau":4038,"ĠrÄģtri":4039,"ĠvÄģri":4040,"YA":4041,"jyam":4042,"kanyÄģ":4043,"khaá¹ĩá¸įa":4044,"ÅĽabdasya":4045,"ĠtÄģá¸¥":4046,"ĠdurÄģ":4047,"paá¹ĩa":4048,"Ġjagad":4049,"danu":4050,"Ġpravra":4051,"Ġvayam":4052,"Ġgaga":4053,"mÄģd":4054,"ĠbhedÄģ":4055,"Ġnityam":4056,"kaá¹ĩá¹Ńha":4057,"ĠviÅĽa":4058,"bhyaá¹ĥ":4059,"dvatÄ«putra":4060,"ĠyÄģni":4061,"DH":4062,"matÄģ":4063,"bhavan":4064,"veá¹£a":4065,"ĠpaÅĽci":4066,"Ġbodha":4067,"ĠviÅĽeá¹£Äģ":4068,"rakta":4069,"canam":4070,"ĠprÄģdur":4071,"prave":4072,"ÅĽvÄģsa":4073,"ká¹£ayÄģ":4074,"nÄģmapi":4075,"dÄģhá¹Ľ":4076,"tyanu":4077,"Ġjuhu":4078,"Ġekaá¹ĥ":4079,"ĠvijÄģ":4080,"Ġkai":4081,"yamÄģnÄģ":4082,"Ġdaká¹£iá¹ĩa":4083,"ĠkuryÄģd":4084,"Ġsuhá¹Ľ":4085,"ĠdÄģnaá¹ĥ":4086,"Ġsthitam":4087,"ĠÅĽva":4088,"bhÄģge":4089,"namo":4090,"á¹ĩá¸įÅ«":4091,"ĠÄģnanda":4092,"patra":4093,"ĠsÄģm":4094,"Ġká¹£etra":4095,"NY":4096,"SU":4097,"lama":4098,"ĠmantrÄģ":4099,"ÄĢYA":4100,"DHÄĢ":4101,"NYÄĢYA":4102,"SUDHÄĢ":4103,"NYÄĢYASUDHÄĢ":4104,"bhar":4105,"Ġsukham":4106,"Ġimaá¹ĥ":4107,"asa":4108,"Ġbrahmaá¹ĩo":4109,"kÄģrÄ«":4110,"bhÄģra":4111,"ĠpÄģta":4112,"marda":4113,"yenÄģ":4114,"vyÄģpÄģ":4115,"sÄ«da":4116,"Ġkulaputra":4117,"Ġtacca":4118,"ĠpÄģva":4119,"ĠkartÄģ":4120,"á¹ŃikÄģ":4121,"Ġkvacid":4122,"Ġab":4123,"ĠpurastÄģ":4124,"Ġevo":4125,"Ġtatho":4126,"hna":4127,"yatÄģm":4128,"yÄģs":4129,"dhÄ«á¸¥":4130,"jayet":4131,"ÅĽvaraá¹ĥ":4132,"ká¹£ipya":4133,"vÄģnÄģá¹ĥ":4134,"ĠyasmÄģt":4135,"ĠvÄģta":4136,"tvÄģn":4137,"ĠvÄģcÄģ":4138,"yiá¹£yÄģmi":4139,"pÄģde":4140,"gá¹Ľhe":4141,"gÅ«":4142,"mÄģtram":4143,"dharmo":4144,"ĠvÄģna":4145,"cÄģrÄģ":4146,"viá¹£aye":4147,"darÅĽanaá¹ĥ":4148,"á¹£á¹Ńiá¹ĥ":4149,"ĠpraÅĽ":4150,"siá¹ĥ":4151,"ĠsanÄģ":4152,"sthÄģne":4153,"pÄģdÄģna":4154,"hitÄģá¸¥":4155,"ÅĽÄģn":4156,"viá¹£":4157,"Ġukta":4158,"mÄģsa":4159,"ĠkarmÄģá¹ĩi":4160,"Ġpratyaká¹£Äģ":4161,"sÄģdi":4162,"phalam":4163,"ĠabhyÄģ":4164,"mityÄģ":4165,"kleÅĽa":4166,"indra":4167,"ĠvidhÄ«yate":4168,"ĠÅĽle":4169,"Ġgati":4170,"yayÄģ":4171,"ká¹Ľá¹£á¹Ńa":4172,"raá¹ħga":4173,"paraá¸¥":4174,"Ġká¹Ľts":4175,"Ġyathe":4176,"Ġbodhisattvena":4177,"padma":4178,"kai":4179,"ĠkramÄģt":4180,"vÄģdÄģ":4181,"rutvÄģ":4182,"bhÄģvasya":4183,"Ġdá¹ĽÅĽ":4184,"ÅĽodha":4185,"Ġbhaviá¹£yanti":4186,"vivi":4187,"á¹£á¹Ńiá¸¥":4188,"á¹£á¹ĩÄ«":4189,"ityuk":4190,"jendra":4191,"gandhÄģ":4192,"tumar":4193,"jÃ±Äģne":4194,"mata":4195,"Ġagnir":4196,"ĠsnÄģtvÄģ":4197,"ĠbÄģhu":4198,"tvÄģcca":4199,"pÄģd":4200,"rÅ«paá¸¥":4201,"ĠprÄ«ti":4202,"vidya":4203,"pratyÄģ":4204,"dhvani":4205,"dhÄģnÄģ":4206,"ĠnÄģnu":4207,"Ġtulya":4208,"Ġvane":4209,"yameva":4210,"vá¹Ľddha":4211,"khaá¹ĩá¸įe":4212,"tÄģla":4213,"baddhÄģ":4214,"vedya":4215,"Ġprayojanam":4216,"lepa":4217,"drava":4218,"citam":4219,"ttat":4220,"ĠpaÅĽcÄģt":4221,"Ġvidi":4222,"bhÅ«á¹£a":4223,"ÅĽabde":4224,"devasya":4225,"Ġvará¹£Äģ":4226,"Ġpunara":4227,"padam":4228,"kÄģraá¹ĩaá¹ĥ":4229,"ĠÅĽaraá¹ĩaá¹ĥ":4230,"ĠsarvadharmÄģ":4231,"dhir":4232,"Ġsaá¹ĥsÄģra":4233,"ataá¸¥":4234,"Ġityata":4235,"ruá¸¥":4236,"dhikara":4237,"ĠsarvathÄģ":4238,"prasaá¹ħgaá¸¥":4239,"Ġgan":4240,"Ġanva":4241,"Ġagra":4242,"tÄģv":4243,"ĠÄģdÄģya":4244,"ĠbhagavÄģá¹ĥ":4245,"Ġdhe":4246,"ritam":4247,"dityarthaá¸¥":4248,"Ġhariá¸¥":4249,"yaka":4250,"bhara":4251,"Ġmukhya":4252,"ĠpÅ«rá¹ĩa":4253,"Ġkrameá¹ĩa":4254,"pÄģn":4255,"ĠÄģkhyÄģ":4256,"ndrama":4257,"ĠÄģca":4258,"Ã±jÃ±Äģ":4259,"á¹ĩoti":4260,"vyavahÄģra":4261,"pannaá¸¥":4262,"Ġtadeva":4263,"kauÅĽa":4264,"niá¹£á¹Ńha":4265,"ĠcÅ«r":4266,"gnÄ«":4267,"naiva":4268,"ĠpratipÄģda":4269,"Ġdraá¹£á¹Ńu":4270,"ĠkÄ«rti":4271,"nirÅ«pa":4272,"Ġjye":4273,"ÅĽÄģnta":4274,"bhÅ«mau":4275,"ĠtÄģra":4276,"mitaá¹ĥ":4277,"deka":4278,"Ġsuká¹Ľ":4279,"itad":4280,"paká¹£Äģ":4281,"dÄģru":4282,"ĠÄģt":4283,"Ġká¹Ľá¹£á¹ĩÄģ":4284,"Ġupalambhayogena":4285,"psa":4286,"ĠprajÃ±ÄģpÄģrami":4287,"ká¹£yate":4288,"vá¹Ľddhi":4289,"taraá¸¥":4290,"Ġaprati":4291,"ĠÄģr":4292,"kÄģmo":4293,"ĠsÅ«ta":4294,"ÅĽvaro":4295,"ÅĽÄ«ti":4296,"Ġaá¹ĥ":4297,"parÄģya":4298,"canda":4299,"Ġmau":4300,"ĠsÅ«ká¹£":4301,"ĠÅĽÄģnti":4302,"ĠdadÄģti":4303,"Ġadhya":4304,"mukhaá¸¥":4305,"ghaá¹ĥ":4306,"laá¹ħkÄģ":4307,"Ġviga":4308,"ĠdadyÄģt":4309,"labha":4310,"dÄ«n":4311,"hasi":4312,"kaá¹ĩá¸įe":4313,"Ġtaiá¸¥":4314,"Ġsali":4315,"sÄģga":4316,"lÄģpa":4317,"tala":4318,"Ġyuktaá¹ĥ":4319,"Ġá¹Ľá¹£a":4320,"yitÄģ":4321,"Ġká¹£Äģnti":4322,"kÄģÅĽe":4323,"ĠdehÄģ":4324,"diva":4325,"Ġsuvará¹ĩa":4326,"Ġvá¹Ľddhi":4327,"Ġaja":4328,"Ġnirma":4329,"dhyÄģtma":4330,"ĠmahÄģsattvasya":4331,"yuá¹£":4332,"leá¹£u":4333,"ĠÅĽraddhÄģ":4334,"pÄģti":4335,"laye":4336,"roca":4337,"Ġtanma":4338,"Ġyeá¹£Äģá¹ĥ":4339,"samavÄģ":4340,"ĠjanÄģrda":4341,"liá¸¥":4342,"mikÄģ":4343,"syÄģmi":4344,"ĠrÄģga":4345,"ÅĽikha":4346,"yogaá¹ĥ":4347,"nde":4348,"sthitÄģá¸¥":4349,"tulya":4350,"Ġyoni":4351,"jita":4352,"traya":4353,"treá¹£u":4354,"vajra":4355,"yanaá¹ĥ":4356,"tmakaá¹ĥ":4357,"ĠdiÅĽi":4358,"Ġabhisaá¹ĥ":4359,"ĠniryÄģ":4360,"bhavet":4361,"dava":4362,"ritaá¸¥":4363,"Ġarthe":4364,"ĠvidvÄģn":4365,"jagÄģma":4366,"á¹£aá¹ĩ":4367,"bhuk":4368,"Ġproktaá¹ĥ":4369,"Ġvibhu":4370,"yitavyÄģ":4371,"vá¹Ľtaá¸¥":4372,"ĠmahÄģbÄģ":4373,"natÄģ":4374,"dá¹ĽÅĽo":4375,"satva":4376,"tÄ«va":4377,"hetuá¸¥":4378,"ĠbhÅ«tÄģ":4379,"Ġyasmin":4380,"Ġhasta":4381,"Ġloko":4382,"Ġcopa":4383,"uvÄģca":4384,"syÄģá¸¥":4385,"pÅ«jÄģ":4386,"dayÄģ":4387,"yamÄģno":4388,"kÄģryaá¹ĥ":4389,"keÅĽa":4390,"ÅĽoka":4391,"kÄģnti":4392,"bhini":4393,"Ġpriye":4394,"dÅ«á¹£a":4395,"bhÄģg":4396,"devaá¸¥":4397,"sthiti":4398,"bhÄģgÄģ":4399,"bhÅ«ya":4400,"kÄģrasya":4401,"Ġparaá¸¥":4402,"smiá¹ĥ":4403,"Ġvidu":4404,"Ã±jÄ«":4405,"graho":4406,"vÄģta":4407,"virodha":4408,"mÄģhÄģt":4409,"puraá¹ĥ":4410,"pitaá¹ĥ":4411,"Ġkaraá¹ĩa":4412,"Ġakhi":4413,"ká¹£atra":4414,"hana":4415,"vÄģde":4416,"sÄģká¹£Äģ":4417,"ĠmahatÄģ":4418,"graá¹ĥ":4419,"psi":4420,"tpannÄģ":4421,"atho":4422,"dyÄģá¸¥":4423,"hÄģni":4424,"Ġubhaya":4425,"mÄģnena":4426,"pateá¸¥":4427,"viruddha":4428,"ĠsthÄģpa":4429,"ry":4430,"Ġviduá¸¥":4431,"tvameva":4432,"cyante":4433,"Ġkro":4434,"ditam":4435,"Ġyukta":4436,"ĠimÄģá¹ĥ":4437,"citaá¹ĥ":4438,"sÄ«t":4439,"trÄģdi":4440,"au":4441,"ĠsÄģra":4442,"á¹£itaá¸¥":4443,"bhavad":4444,"tyuktam":4445,"Ġityatra":4446,"dÄģva":4447,"ndraá¸¥":4448,"ÅĽayÄģ":4449,"niá¹£á¹ŃhÄģ":4450,"Ġvici":4451,"ĠkÄģlena":4452,"á¹£á¹Ńir":4453,"deve":4454,"ÅĽÄģr":4455,"grahaá¹ĩaá¹ĥ":4456,"hÄģsa":4457,"vacanam":4458,"dri":4459,"hanti":4460,"á¹£vapi":4461,"Ġpaá¹Ńa":4462,"sÄģya":4463,"guá¹ĩo":4464,"tÄ«rtha":4465,"Ġkará¹ĩa":4466,"Ġkasyacid":4467,"litaá¹ĥ":4468,"tpadyate":4469,"bhÄģá¹£ata":4470,"varca":4471,"cchayÄģ":4472,"Ġlava":4473,"tastu":4474,"sy":4475,"á¹£vÄģ":4476,"samya":4477,"sambandha":4478,"nyena":4479,"vrÄ«":4480,"ÅĽÄ«r":4481,"Ġsaka":4482,"ĠmahÄģsattvo":4483,"ĠsatyÄģ":4484,"Ã±ju":4485,"diÅĽya":4486,"ĠmunÄ«":4487,"Ġkam":4488,"ĠÄģcÄģ":4489,"gmu":4490,"kur":4491,"Ġviparya":4492,"mityÄģha":4493,"dhyÄģya":4494,"Ġtenaiva":4495,"gacchati":4496,"kÄģraá¹ĩam":4497,"sattÄģ":4498,"yaty":4499,"Ġmanyase":4500,"á¹ĩaiá¸¥":4501,"metat":4502,"Ġeti":4503,"saá¹ĥjÃ±a":4504,"ĠcatvÄģri":4505,"maá¹ħga":4506,"Ġkartavyam":4507,"Ġrama":4508,"ĠmahÄģtmanaá¸¥":4509,"ĠsatÄ«":4510,"ĠÅĽabdo":4511,"Ġsmá¹ĽtÄģá¸¥":4512,"ká¹Ľtiá¸¥":4513,"artha":4514,"ÅĽaá¹ħka":4515,"ĠviÅĽeá¹£ataá¸¥":4516,"ĠkÄģrayet":4517,"ntasya":4518,"babhÅ«":4519,"Ġgami":4520,"ĠpÅ«jÄģ":4521,"ĠÄģtmÄģnaá¹ĥ":4522,"balaá¹ĥ":4523,"Ġsarvasya":4524,"ĠsthitvÄģ":4525,"ĠÅĽÅ«nyÄģ":4526,"Ġkecit":4527,"ĠbhÅ«tÄģni":4528,"karam":4529,"yuktaá¸¥":4530,"Ġdevaá¸¥":4531,"ĠvicÄģ":4532,"ĠpramÄģá¹ĩam":4533,"dhikÄģ":4534,"vyakti":4535,"bhisaá¹ĥ":4536,"tasva":4537,"vyatiri":4538,"dig":4539,"sÄģri":4540,"ĠkÄģlaá¹ĥ":4541,"kare":4542,"ĠmÄģtá¹Ľ":4543,"ĠvÄģcya":4544,"dharmi":4545,"ĠajÄģ":4546,"ĠkiÃ±ci":4547,"ká¹£itaá¸¥":4548,"Ġbhasma":4549,"sthita":4550,"vinÄģÅĽa":4551,"vivarji":4552,"lÄģva":4553,"ttare":4554,"raá¹ĩÄģt":4555,"hyate":4556,"ĠprajÄģá¸¥":4557,"gá¹Ľha":4558,"Ġuttamam":4559,"mÄģá¹ĥsa":4560,"Ġá¹£oá¸įaÅĽa":4561,"padÄģrtha":4562,"Ġtayor":4563,"vá¹Ľtte":4564,"á¹ħkte":4565,"tamaá¸¥":4566,"ĠnÄģra":4567,"Ġvaiá¹£á¹ĩa":4568,"syopa":4569,"tÄģma":4570,"ĠmahÄģsattvÄģ":4571,"Ġsame":4572,"ĠbhagavÄģ":4573,"sá¹Ľjya":4574,"Ġtve":4575,"vÄ«ra":4576,"bhyupaga":4577,"ĠpÅ«rvavat":4578,"caya":4579,"Ġkuta":4580,"Ġsiá¹ĥha":4581,"pho":4582,"ĠkvÄģ":4583,"á¹£yasi":4584,"ÅĽobhi":4585,"Ġkurvanti":4586,"Ġcaká¹£uá¸¥":4587,"dara":4588,"ĠbhÅ«mau":4589,"nyam":4590,"bÄģla":4591,"ĠpratibhÄģ":4592,"ÅĽreá¹£á¹Ńha":4593,"ĠtyÄģ":4594,"ĠmÄģrga":4595,"hate":4596,"á¹£Äģma":4597,"Ġari":4598,"ĠjÃ±ÄģnÄģ":4599,"Ġvá¹Ľddha":4600,"ĠrudrÄģ":4601,"Ġsidhyati":4602,"Ġpavi":4603,"piá¹ĩá¸įa":4604,"bhraá¹ĥ":4605,"dehÄģ":4606,"rÄģjo":4607,"Ġkaá¹Ńu":4608,"ĠsamavÄģ":4609,"trayaá¹ĥ":4610,"Ġasma":4611,"mayo":4612,"hÄģre":4613,"Ġbhagavataá¸¥":4614,"dhvam":4615,"vinda":4616,"Ġsami":4617,"ĠsabhÄģ":4618,"Ġtapaá¸¥":4619,"á¸įho":4620,"ĠsÄģmart":4621,"dbhir":4622,"bhÅ«taá¸¥":4623,"Ġsiá¹ĥ":4624,"Ġvaru":4625,"Ġvah":4626,"sÅ«ta":4627,"vÄģcya":4628,"vÄģg":4629,"ĠlokadhÄģ":4630,"ĠadhyÄģtma":4631,"sro":4632,"Ġalaá¹ĥ":4633,"ĠkasmÄģt":4634,"ÅĽvarÄģ":4635,"Ġyojayati":4636,"ĠbÄ«ja":4637,"upÄģ":4638,"divya":4639,"dhÄģrÄģ":4640,"saá¹ĥyoga":4641,"vadÄģ":4642,"ĠvijÃ±Äģnaá¹ĥ":4643,"devÄ«":4644,"tÄģd":4645,"nvaya":4646,"pyu":4647,"tyasya":4648,"Ã´":4649,"Ġsyuá¸¥":4650,"ruddho":4651,"saá¹ĥbandha":4652,"Ġlab":4653,"muni":4654,"Ġhiá¹ĥ":4655,"ĠproktÄģ":4656,"ĠsyÄģditi":4657,"Ġdharmi":4658,"Ġnimitta":4659,"ĠbhÄģra":4660,"anyathÄģ":4661,"ĠdvijÄģá¸¥":4662,"ityÄģdi":4663,"sthÄģya":4664,"ttamÄģ":4665,"vas":4666,"reti":4667,"kuá¹ĩá¸įa":4668,"ĠmahÄģsattvaá¸¥":4669,"ĠprÄģya":4670,"ĠÅĽobha":4671,"rur":4672,"brahmo":4673,"Ġsvaá¹ĥ":4674,"pla":4675,"kapra":4676,"Ġmoha":4677,"ĠpratÄ«yate":4678,"ryeá¹ĩa":4679,"á¹ĩÄ«ya":4680,"tyevaá¹ĥ":4681,"dharaá¸¥":4682,"ĠdÄ«pa":4683,"Ġká¹Ľtaá¸¥":4684,"vyÄģá¸¥":4685,"Ġvá¹Ľt":4686,"ĠkÄģryam":4687,"ĠkiÃ±cit":4688,"Ġpibe":4689,"Ġdivyaá¹ĥ":4690,"ĠsÅ«ká¹£ma":4691,"ndriyÄģá¹ĩi":4692,"Ġarhasi":4693,"ttarÄģá¹ĥ":4694,"ĠjÄ«r":4695,"vá¹Ľttau":4696,"ramo":4697,"dá¹ĽÅĽÄ«":4698,"má¹Ľtyu":4699,"ĠathavÄģ":4700,"Ġasu":4701,"Ġjvala":4702,"sthaá¸¥":4703,"mbi":4704,"naye":4705,"nirá¹ĩa":4706,"ĠÅĽÄģÅĽva":4707,"Ġbá¹Ľhas":4708,"Ġmanuá¹£yÄģ":4709,"ĠtyaktvÄģ":4710,"ĠmÄ«":4711,"ĠvÄģkyam":4712,"ĠnÄģti":4713,"ĠpÅ«rvam":4714,"vrata":4715,"Ġsuvi":4716,"Ġsarasva":4717,"á¸·":4718,"dasya":4719,"ĠnityÄģ":4720,"svÄ«":4721,"ĠavidyÄģ":4722,"tryÄģ":4723,"jan":4724,"ĠjÄģna":4725,"Ġcaká¹£ur":4726,"tac":4727,"Ġsaá¹ħga":4728,"Ġkrodha":4729,"ĠniÅĽi":4730,"samaá¹ĥ":4731,"ĠapÄ«":4732,"Ġpe":4733,"bhÄģá¸¥":4734,"kÄģnta":4735,"syaá¹ĥ":4736,"ĠveditavyÄģ":4737,"pitta":4738,"avi":4739,"dbhiá¸¥":4740,"ÅĽrayaá¸¥":4741,"yanto":4742,"Ġsamasta":4743,"ĠpradÄģ":4744,"á¹ħkÄģra":4745,"Ġkuladu":4746,"ityÄģ":4747,"ruk":4748,"ĠÅĽÄģriputra":4749,"vá¹Ľttaá¹ĥ":4750,"ĠÅĽrÅ«yate":4751,"samÄģna":4752,"vÄģdÄ«":4753,"Ġsambandhaá¸¥":4754,"Ġkiá¹ĥcid":4755,"viá¹£ayaá¹ĥ":4756,"yane":4757,"syanti":4758,"ttaram":4759,"ttau":4760,"Ġanava":4761,"syeva":4762,"koá¹ŃÄ«":4763,"Ġsatyam":4764,"Ġsra":4765,"bhÅ«ti":4766,"Ġparaspara":4767,"Ġabhyu":4768,"Ġbhavaty":4769,"giri":4770,"ĠjarÄģ":4771,"Ġtadanu":4772,"ÅĽÄģli":4773,"vanto":4774,"etÄģ":4775,"Ġalpa":4776,"vyÄģpÄģra":4777,"sÄ«ti":4778,"prayat":4779,"hyo":4780,"vÄģhi":4781,"patiá¹ĥ":4782,"vyakta":4783,"Ġsamyaksaá¹ĥbodhi":4784,"ÅĽayo":4785,"vilÄģ":4786,"ruá¸įa":4787,"ĠvyÄģcaá¹£á¹Ńe":4788,"ĠcakÄģra":4789,"rja":4790,"bhÅ«t":4791,"ĠmuÃ±ca":4792,"ĠdvitÄ«ya":4793,"Ġyadyapi":4794,"luk":4795,"Ġvica":4796,"Ġnare":4797,"Ġcin":4798,"Ġsarveá¹£u":4799,"pratipatti":4800,"á¹ħgena":4801,"viÅĽeá¹£aá¹ĩa":4802,"muktaá¹ĥ":4803,"ĠjÃ±Äģnam":4804,"tanam":4805,"kumÄģ":4806,"Ġprayo":4807,"Ġivo":4808,"skandha":4809,"vyÄģp":4810,"Ġananta":4811,"á¹ĩiá¸¥":4812,"Ġsaá¹ĥbhavati":4813,"ĠrÄģjyaá¹ĥ":4814,"Ġpo":4815,"ká¹£aya":4816,"ká¹£ipta":4817,"tavyo":4818,"Ġsampra":4819,"Ġmá¹Ľdu":4820,"nÄģtma":4821,"Ġhiraá¹ĩya":4822,"ká¹£itam":4823,"ĠÅĽÄģnta":4824,"cyÄģ":4825,"Ġviruddha":4826,"kaÅĽ":4827,"á¹£itÄģ":4828,"Ġká¹£aá¹ĩa":4829,"nÄ«la":4830,"prÄģpti":4831,"raga":4832,"ĠnÄģstÄ«ti":4833,"Ġvividha":4834,"siá¹ĥha":4835,"Ġtasyaiva":4836,"dyum":4837,"á¹£á¹ĩaá¹ĥ":4838,"ĠÅĽrama":4839,"Ġraso":4840,"ĠbhÄģvanÄģ":4841,"Ġbandhu":4842,"Ġpratiá¹£á¹Ńhi":4843,"Ġvá¹Ľká¹£a":4844,"Ġvila":4845,"hlÄģ":4846,"Ġlabhe":4847,"dhvaja":4848,"ĠgÄģyat":4849,"yen":4850,"ĠvÄģr":4851,"jÄģn":4852,"ĠtatrÄģpi":4853,"rci":4854,"yasi":4855,"ruhya":4856,"Ġvaraá¹ĥ":4857,"ÅĽeá¹£aá¹ĥ":4858,"bhuja":4859,"Ġlabdha":4860,"ttvÄģ":4861,"ĠkumÄģra":4862,"Ġsthito":4863,"dinÄģ":4864,"kartÄģ":4865,"ká¹£ara":4866,"satyÄģ":4867,"pradhÄģna":4868,"Ġsarvataá¸¥":4869,"dhÄ«na":4870,"vará¹£Äģ":4871,"Ġpiá¹ĩá¸įa":4872,"lyam":4873,"ká¹£aá¹ĩÄģ":4874,"kim":4875,"cchu":4876,"dadhÄģti":4877,"Ġnaro":4878,"ÅĽÄģya":4879,"catvÄģ":4880,"Ġtvayi":4881,"ĠbrÄģhmaá¹ĩÄģ":4882,"vijÃ±Äģnaá¹ĥ":4883,"deti":4884,"tenaiva":4885,"Ġbrahmaá¹ĩaá¸¥":4886,"Ġtá¹Ľá¹£á¹ĩÄģ":4887,"Ã±cha":4888,"ĠbravÄ«":4889,"ĠvidhinÄģ":4890,"sattama":4891,"sthitaá¹ĥ":4892,"ai":4893,"Ġpariá¹ĩÄģma":4894,"vÄģkye":4895,"ĠaÅĽa":4896,"ÅĽuddhi":4897,"Ġmarda":4898,"ká¹£Å«":4899,"dhÄģtur":4900,"Ġgá¹Ľhya":4901,"á¹£aá¸į":4902,"Ġdadhi":4903,"mukho":4904,"ĠÄģtmanaá¸¥":4905,"ĠÄģhuá¸¥":4906,"nute":4907,"Ġkiá¹ĥcit":4908,"ghe":4909,"kli":4910,"Ġkath":4911,"ĠbhÅ«yaá¸¥":4912,"jitam":4913,"ĠÅĽivÄģ":4914,"Ġmitra":4915,"Ġpaá¹ĩá¸įi":4916,"Ġjan":4917,"nÄģrÄģya":4918,"á¹ħa":4919,"locanÄģ":4920,"ĠindriyÄģ":4921,"vyÄģgh":4922,"ĠpaÅĽcÄģd":4923,"ĠsÄģdh":4924,"Ġsamare":4925,"sukhÄģ":4926,"jÄ«r":4927,"viá¸¥":4928,"ĠÄģda":4929,"ani":4930,"Ġtayoá¸¥":4931,"ĠviparÄ«":4932,"Ġnanda":4933,"ĠbhÄģá¹£ya":4934,"bandhena":4935,"Ġkevala":4936,"ĠyajÃ±Äģ":4937,"praká¹Ľti":4938,"ĠprÄģk":4939,"Ġuktaá¸¥":4940,"ktÄģá¸¥":4941,"ĠdhÄģtu":4942,"ĠgambhÄ«":4943,"gÄģd":4944,"ĠpaÅĽÅ«":4945,"Ġbahir":4946,"rmahÄģ":4947,"Ġgatiá¸¥":4948,"vyÄģdhi":4949,"Ġsarvo":4950,"ndaá¹ĥ":4951,"bodhisattva":4952,"há¹Ľtya":4953,"Ġenaá¹ĥ":4954,"ĠviÅĽeá¹£aá¸¥":4955,"detat":4956,"ÅĽasya":4957,"Ġpathi":4958,"Ġpuá¹ĩyÄģ":4959,"ÅĽrutvÄģ":4960,"Ġjuhoti":4961,"ÅĽÄģkhÄģ":4962,"Ġbhavataá¸¥":4963,"Ġkathitaá¹ĥ":4964,"rÄģg":4965,"Ġbalaá¹ĥ":4966,"Ġvisma":4967,"Ġpuruá¹£aá¹ĥ":4968,"Ġviá¹£aye":4969,"prajÃ±Äģ":4970,"tvayÄģ":4971,"ĠprÄģdhÄģ":4972,"nimittaá¹ĥ":4973,"anye":4974,"Ġpraca":4975,"rá¹£abha":4976,"ĠrÄģjÃ±o":4977,"hatÄģ":4978,"mara":4979,"mÄģtma":4980,"ĠrÄģjendra":4981,"ĠsamÄģkhyÄģ":4982,"rthÄģya":4983,"ĠdvÄģdaÅĽÄģ":4984,"sthite":4985,"Ġsarvadharma":4986,"yatana":4987,"yasa":4988,"yanta":4989,"prasiddha":4990,"rju":4991,"thya":4992,"ĠmuhÅ«r":4993,"yamÄģnaá¹ĥ":4994,"pitaá¸¥":4995,"ĠbhÄģá¹£a":4996,"dhra":4997,"rÅ«pasya":4998,"Ġgamyate":4999,"ĠbhavatÄģ":5000,"matÄ«":5001,"rmadÄģ":5002,"irapi":5003,"pannaá¹ĥ":5004,"labdha":5005,"ghana":5006,"á¹ħgÄģra":5007,"Ġoá¹£a":5008,"ĠcÄģru":5009,"Ġbhuja":5010,"ĠprathamÄģ":5011,"mÄģá¹ĩÄģ":5012,"bhasma":5013,"hy":5014,"Ġcatas":5015,"Ġupe":5016,"puá¹Ńa":5017,"vate":5018,"aá¹ĥ":5019,"Ġsamantataá¸¥":5020,"samaye":5021,"rpa":5022,"ghnaá¹ĥ":5023,"Ġsmá¹ĽtÄģ":5024,"kapi":5025,"rudra":5026,"ĠtÄģtpa":5027,"Ġsarvato":5028,"panno":5029,"padyata":5030,"mantrÄģ":5031,"dhyÄģna":5032,"sahasraá¹ĥ":5033,"katvena":5034,"gaá¹ĩÄģ":5035,"ĠcÄģnya":5036,"Ġpradaká¹£i":5037,"adhi":5038,"dhÄģá¸¥":5039,"mÄģrkaá¹ĩá¸įe":5040,"nayaá¸¥":5041,"rÄģca":5042,"Ġká¹Ľcch":5043,"cÄģraá¸¥":5044,"treti":5045,"Ġmahad":5046,"Ġbhoga":5047,"niyama":5048,"dheyaá¹ĥ":5049,"pavi":5050,"Ġsuá¹£u":5051,"cchanti":5052,"Ġkartavyaá¹ĥ":5053,"ĠkiÃ±cid":5054,"prÄģá¹ĩÄģ":5055,"ĠchÄģra":5056,"ĠsÄģdhana":5057,"ĠdvidhÄģ":5058,"nupapatteá¸¥":5059,"bindu":5060,"Ġupari":5061,"cÄģrÄ«":5062,"hyÄģt":5063,"ĠdeÅĽe":5064,"sthito":5065,"tÄ«ty":5066,"ĠÅĽakya":5067,"Ġgaja":5068,"Ġdá¹Ľá¹£á¹Ńaá¹ĥ":5069,"vantaá¸¥":5070,"á¹ĩá¸įarÄ«":5071,"tamu":5072,"Ġtirya":5073,"ĠvyavasthÄģ":5074,"ÅĽet":5075,"Ġhan":5076,"Ġpratyayo":5077,"tÄ«tya":5078,"daka":5079,"trayam":5080,"kvÄģ":5081,"ĠtataÅĽ":5082,"dhru":5083,"minÄ«":5084,"ĠyasmÄģ":5085,"ĠÅĽiká¹£i":5086,"Ġlaká¹£aá¹ĩÄģ":5087,"viparya":5088,"stad":5089,"ĠrÄģá¹£á¹Ń":5090,"Ġhanti":5091,"yamÄģne":5092,"hÄģraá¹ĥ":5093,"mÄģnyÄģ":5094,"Ġvivá¹Ľ":5095,"Ġbhavatu":5096,"ĠphalÄģ":5097,"vá¹ĽttyÄģ":5098,"Ro":5099,"ĠÅĽaá¹ħkha":5100,"bhadra":5101,"ĠpaÅĽyanti":5102,"yamo":5103,"iá¹£Äģ":5104,"vÄģdya":5105,"sunda":5106,"kÄ«rá¹ĩa":5107,"Ġdharme":5108,"viá¹ĥ":5109,"pÅ«jya":5110,"ĠghrÄģá¹ĩa":5111,"sanÄģ":5112,"á¹£ita":5113,"brahmovÄģca":5114,"gandharva":5115,"gamaá¸¥":5116,"ĠbÄģhya":5117,"ÅĽcid":5118,"Ġgá¹Ľhyate":5119,"lva":5120,"ĠpÄģdau":5121,"pattyÄģ":5122,"maá¹ĩá¸įala":5123,"ktena":5124,"streá¹ĩa":5125,"rud":5126,"ĠÄģyuá¹£ma":5127,"haraá¹ĥ":5128,"Ġsaá¹ĥyu":5129,"ĠÅĽilÄģ":5130,"tavaá¸¥":5131,"ttayÄģ":5132,"Ġdá¹Ľá¹£á¹Ńi":5133,"bravÄ«d":5134,"dÄ«rgha":5135,"ĠprÄģti":5136,"Ġdraá¹£á¹Ńavyam":5137,"á¹ĩamya":5138,"Ġmanye":5139,"Ġhá¹Ľdayaá¹ĥ":5140,"dÄģd":5141,"rasva":5142,"kÄģÅĽaá¸¥":5143,"ppa":5144,"taya":5145,"ÅĽá¹Ľá¹ĩu":5146,"nane":5147,"mut":5148,"ĠcintÄģ":5149,"Ġdivi":5150,"Ġnivarta":5151,"kulaá¹ĥ":5152,"pá¹ĽthivÄ«":5153,"kasyÄģ":5154,"ĠvirÄģ":5155,"jyoti":5156,"ĠÅĽud":5157,"yÄģÅĽ":5158,"pratibhÄģ":5159,"á¹Ńya":5160,"pikÄģ":5161,"Ġtvat":5162,"rna":5163,"tathaiva":5164,"ĠtapasÄģ":5165,"'d":5166,"dhÄģri":5167,"ĠjÄģtÄģ":5168,"Ġarju":5169,"Äģha":5170,"ĠmahÄģtmÄģ":5171,"Ġsthitaá¹ĥ":5172,"ĠmÅ«rdh":5173,"ĠjÄ«vÄģ":5174,"namas":5175,"ĠviÅĽeá¹£aá¹ĩa":5176,"Ġsvapna":5177,"mityata":5178,"Ġpravaká¹£yÄģmi":5179,"tyartha":5180,"ĠsthÄģnaá¹ĥ":5181,"ĠcaivÄģ":5182,"Ġekam":5183,"ĠmahÄģra":5184,"Ġpratyaya":5185,"pÄ«á¸įi":5186,"Ġbhayaá¹ĥ":5187,"á¹ħgam":5188,"vato":5189,"ĠjagÄģma":5190,"tiá¹£á¹Ńhate":5191,"nahi":5192,"ÄģtmÄģ":5193,"Ġprave":5194,"ĠnÄģÅĽa":5195,"Ġrasaá¸¥":5196,"Ġvadanti":5197,"Ġdvai":5198,"ĠbalÄ«":5199,"sitÄģ":5200,"Ġcana":5201,"samucca":5202,"Ġyata":5203,"ĠÄģva":5204,"svar":5205,"nivÄģ":5206,"tameva":5207,"tadeva":5208,"vidhaá¸¥":5209,"ttasya":5210,"ĠmahÄģsattvena":5211,"vista":5212,"karmaá¹ĩi":5213,"ĠpÅ«ra":5214,"nnaá¸¥":5215,"Ġprayoga":5216,"saá¹ĥpra":5217,"á¹Ńaka":5218,"jÃ±Äģnasya":5219,"kÄģmaá¸¥":5220,"jayÄģ":5221,"ĠnÄģva":5222,"ivam":5223,"hÄ«ti":5224,"Ġpitá¹Ŀ":5225,"ĠdÄģru":5226,"manaá¸¥":5227,"ĠbhrÄģtá¹Ľ":5228,"Ġvasi":5229,"ĠÅ«cuá¸¥":5230,"dadhi":5231,"gocara":5232,"Ġná¹Ľpaá¸¥":5233,"vikÄģ":5234,"ĠÅĽÄ«ta":5235,"Ġvaktavyaá¸¥":5236,"Ġcari":5237,"ĠmÄģdha":5238,"dyante":5239,"ĠvÄģkyÄģ":5240,"Ġsargaá¸¥":5241,"sminna":5242,"Ġdurla":5243,"ktau":5244,"patnÄ«":5245,"sada":5246,"Ġetena":5247,"ÅĽvarasya":5248,"ĠparikÄ«rti":5249,"dy":5250,"Ġpade":5251,"ĠkÄģmÄģ":5252,"dá¹ĽÅĽaá¸¥":5253,"tavÄģn":5254,"ĠÄģyÄģ":5255,"ĠmÄģru":5256,"Ġdehe":5257,"rase":5258,"vyÄģpti":5259,"rÄģjasya":5260,"sahÄģ":5261,"há¹Ľdaya":5262,"Ġvima":5263,"Ġnabha":5264,"ĠdevÄģn":5265,"ÅĽÄ«la":5266,"Ġvrajet":5267,"Ġsaá¹ĥskÄģra":5268,"raso":5269,"ĠsÅ«tre":5270,"ĠyogÄ«":5271,"bandhu":5272,"ĠÅĽeá¹£a":5273,"sas":5274,"Ġviá¹ĥÅĽa":5275,"ĠÅĽaÅĽi":5276,"sarja":5277,"nÄģrtha":5278,"Ġviha":5279,"ká¹£ata":5280,"Ġpiba":5281,"patha":5282,"ÅĽvare":5283,"ĠprÄģpnu":5284,"asya":5285,"rÄģtra":5286,"ĠdadhÄģ":5287,"ĠaÅĽu":5288,"nÄģrthaá¹ĥ":5289,"cintÄģ":5290,"Ġpá¹Ľá¹£á¹Ńha":5291,"strÄģá¹ĩi":5292,"brÄģhmaá¹ĩa":5293,"sÄģdhu":5294,"keta":5295,"grÄģma":5296,"á¹ĥÅĽca":5297,"aÅĽva":5298,"palla":5299,"vÄģci":5300,"Ġviá¹£Äģ":5301,"cchedaá¸¥":5302,"Ġmanuá¹£ya":5303,"Ġenam":5304,"svayaá¹ĥ":5305,"madhyÄģ":5306,"mÄģva":5307,"ĠsvÄ«":5308,"dhatte":5309,"pratÄ«ti":5310,"gadÄģ":5311,"Ġhara":5312,"vantaá¹ĥ":5313,"stá¹Ľ":5314,"parama":5315,"yudhiá¹£á¹Ńhi":5316,"mni":5317,"ÅĽat":5318,"mukhya":5319,"siddheá¸¥":5320,"lgu":5321,"nabhi":5322,"cau":5323,"rÄģdha":5324,"roga":5325,"Ġyog":5326,"matha":5327,"ĠsÄģmÄģn":5328,"Ġvacanam":5329,"ĠbrÅ«hi":5330,"daÅĽe":5331,"Ġyaje":5332,"prasÄģda":5333,"ĠsamantÄģ":5334,"Ġcenna":5335,"ĠÅĽabdaá¸¥":5336,"vinir":5337,"Ġsaká¹Ľ":5338,"nvayaá¸¥":5339,"tamÄ«":5340,"ĠdvitÄ«yÄģ":5341,"lau":5342,"ká¹£eá¹ĩa":5343,"ĠtÄģsÄģá¹ĥ":5344,"ĠjÄģnÄģti":5345,"vaiá¸¥":5346,"ÅĽatÄģ":5347,"ĠgatÄģá¸¥":5348,"vyavasthÄģ":5349,"bhÅ«tÄģnÄģá¹ĥ":5350,"ĠsamÄģsa":5351,"ĠÄģsÄ«t":5352,"rÄģÅĽ":5353,"Ġraud":5354,"ĠtÅ«r":5355,"ĠviÅĽiá¹£á¹Ńa":5356,"lambi":5357,"yada":5358,"hiá¹ĩÄ«":5359,"jÄģtÄ«ya":5360,"keti":5361,"tÄģyÄģá¸¥":5362,"ĠnÄģrÄ«":5363,"balena":5364,"má¹Ľtaá¹ĥ":5365,"khila":5366,"dinaá¹ĥ":5367,"netra":5368,"mantri":5369,"Ġsiddhe":5370,"vÄģyu":5371,"dhaiá¸¥":5372,"ĠÅĽirasÄģ":5373,"viÅĽeá¹£aá¸¥":5374,"kampa":5375,"Ġvidhiá¸¥":5376,"lÄ«lÄģ":5377,"Ġarhati":5378,"gdhaá¹ĥ":5379,"á¹£á¹ŃÄ«":5380,"saá¹ĥsparÅĽapratyaya":5381,"prabhá¹Ľti":5382,"kaá¹ŃÄģ":5383,"ĠbuddhyÄģ":5384,"Ġkathyate":5385,"raá¹ĩ":5386,"nartha":5387,"nivá¹Ľtti":5388,"á¹ħki":5389,"duá¹£":5390,"mayÄ«":5391,"stava":5392,"nityaá¹ĥ":5393,"á¹ħgira":5394,"jati":5395,"muktam":5396,"Ġmuhur":5397,"bhyas":5398,"ĠkalyÄģá¹ĩa":5399,"danaá¸¥":5400,"á¹ĩita":5401,"Ġdá¹Ľá¸įha":5402,"jit":5403,"bhedÄģt":5404,"ĠsattvÄģnÄģá¹ĥ":5405,"Ġasmai":5406,"Ġdhruvam":5407,"ĠcÄģnye":5408,"gnau":5409,"kalpo":5410,"tikÄģ":5411,"ĠpÄģrtha":5412,"Ġhar":5413,"ktá¹Ľ":5414,"Ġdhanu":5415,"tÄģpi":5416,"prÄģpya":5417,"ite":5418,"ĠcÄ«":5419,"Ġkhalv":5420,"keva":5421,"Ġsne":5422,"saá¹ĥghÄģ":5423,"Ġgarbha":5424,"ká¹£am":5425,"ĠsarvasattvÄģ":5426,"Ġcaika":5427,"gaá¹ħgÄģ":5428,"á¸įham":5429,"bhyaÅĽ":5430,"ĠdravyÄģ":5431,"gul":5432,"ntena":5433,"ĠkrÅ«":5434,"jijÃ±Äģ":5435,"Ġbuddhaká¹£e":5436,"ĠbodhisattvÄģnÄģá¹ĥ":5437,"gniá¹ĥ":5438,"prÄģmÄģá¹ĩya":5439,"vanam":5440,"Ġiá¹£yate":5441,"ĠvrÄ«":5442,"ĠÅĽuddhÄģ":5443,"ĠdadarÅĽa":5444,"Ġpravar":5445,"Å«rdhva":5446,"ĠprÄģrtha":5447,"nirdi":5448,"Ġatho":5449,"gnÄģ":5450,"á¹£Äģá¸¥":5451,"trÄģva":5452,"ĠÅĽrÄ«mÄģn":5453,"ntas":5454,"mithyÄģ":5455,"dhyo":5456,"numÄģna":5457,"tasmi":5458,"ĠkleÅĽa":5459,"katvam":5460,"pramÄģá¹ĩÄģ":5461,"bÄ«jaá¹ĥ":5462,"lpÄģ":5463,"Ġkvaci":5464,"yÄģá¹ĩÄģá¹ĥ":5465,"ĠbhÄģti":5466,"ĠvyÄģpti":5467,"vÄģkyaá¹ĥ":5468,"Ġanyat":5469,"tanu":5470,"ĠpaÅĽa":5471,"ravÄģ":5472,"ĠbhÄģá¹£i":5473,"sthÅ«":5474,"ĠmahÄģbalaá¸¥":5475,"bhaá¹ħga":5476,"bhÄģvÄģn":5477,"vidhiá¸¥":5478,"Lo":5479,"á¹ĩair":5480,"rityarthaá¸¥":5481,"vidho":5482,"bhÅ«tÄģni":5483,"Ġdevasya":5484,"Ġyuktaá¸¥":5485,"stena":5486,"jÄģla":5487,"muttamam":5488,"ÅĽiro":5489,"ĠvyÄģp":5490,"opa":5491,"parivÄģ":5492,"tÄģvaccheda":5493,"bhogÄģ":5494,"Ġnopaiti":5495,"á¹ĩava":5496,"Ġvimo":5497,"karÄ«":5498,"canaá¹ĥ":5499,"Ġmatam":5500,"Ġpuraá¸¥":5501,"Ġviddhi":5502,"ĠnÄģmnÄģ":5503,"loki":5504,"jitaá¹ĥ":5505,"yatho":5506,"pÅ«rvo":5507,"LocanÄģ":5508,"Ġspar":5509,"Ġcanda":5510,"cchaá¹ĥ":5511,"svabhÄģvÄģ":5512,"ĠtasyÄģá¹ĥ":5513,"cam":5514,"tÄģÅĽ":5515,"ĠpalÄģ":5516,"Ġkapha":5517,"Ġduá¹£á¹Ńa":5518,"rthÄģnÄģá¹ĥ":5519,"seva":5520,"loko":5521,"kÄģrÄģá¸¥":5522,"yÄģmaá¸¥":5523,"ká¹ĽtyÄģ":5524,"dvÄģrÄģ":5525,"ĠtvÄģm":5526,"ĠpurÄ«":5527,"ĠÅĽrutiá¸¥":5528,"cÅ«":5529,"Ġdaká¹£iá¹ĩe":5530,"Ġlokam":5531,"ÅĽcÄģpi":5532,"aá¹£á¹ŃÄģ":5533,"kadÄģ":5534,"dhvar":5535,"athavÄģ":5536,"tanÄģ":5537,"kanda":5538,"Ġkumbha":5539,"ÅĽmi":5540,"dhÄģnam":5541,"caraá¹ĩa":5542,"Ġvidyu":5543,"ÅĽobha":5544,"ĠÅĽubham":5545,"tathÄģpi":5546,"vikÄģra":5547,"Ġvibho":5548,"Ġmaá¹ħga":5549,"ĠtÄ«rthaá¹ĥ":5550,"Ġanitya":5551,"ĠasmÄģkaá¹ĥ":5552,"ĠcÄģpy":5553,"bhÅ«tam":5554,"ktasya":5555,"ĠÅĽubhe":5556,"krodha":5557,"mityÄģdi":5558,"ĠadhÄ«":5559,"Ġputraá¹ĥ":5560,"ĠpÅ«rvapaká¹£a":5561,"hará¹£a":5562,"bhiÅĽca":5563,"Ġeá¹£Äģá¹ĥ":5564,"ĠÅĽakyaá¹ĥ":5565,"Ġtadi":5566,"Ġpuruá¹£asya":5567,"á¹£yo":5568,"Ġbhai":5569,"Ġlokaá¹ĥ":5570,"á¹ŃÄ«kÄģ":5571,"ĠÅĽarÄ«raá¹ĥ":5572,"mavÄģ":5573,"ÅĽvarÄ«":5574,"Ġpaá¹Ń":5575,"karmaá¹ĩÄģ":5576,"tamiti":5577,"stada":5578,"darÅĽane":5579,"kaá¹ĩá¹Ń":5580,"dhikaá¹ĥ":5581,"mune":5582,"Ġgate":5583,"Ġrase":5584,"ĠsarvÄģkÄģrajÃ±atÄģ":5585,"rÄģtraá¹ĥ":5586,"mekaá¹ĥ":5587,"nÄ«yaá¸¥":5588,"Ġhasti":5589,"hyaá¸¥":5590,"varo":5591,"harÄģ":5592,"saá¹ĥgha":5593,"dikaá¹ĥ":5594,"ĠyatrÄģ":5595,"ĠkÄģá¹ĥ":5596,"dhiá¹ĥ":5597,"rÅ«á¸įha":5598,"laká¹£mÄ«":5599,"ivo":5600,"satyaá¹ĥ":5601,"Ġtathe":5602,"ĠlokÄģn":5603,"tapra":5604,"vÄģma":5605,"Ġpaká¹£e":5606,"Ġbharata":5607,"Ġniyama":5608,"Ġantari":5609,"Ġdyu":5610,"Ġsaá¹ĥkhyÄģ":5611,"saá¹ħkhyÄģ":5612,"yete":5613,"Ġkoá¹Ńi":5614,"vijÃ±apriyÄģ":5615,"ĠpÄģrÅĽva":5616,"ĠjuhuyÄģt":5617,"mÄģrkaá¹ĩá¸įeya":5618,"pasya":5619,"ĠsthÄģtavyam":5620,"Ġpauru":5621,"inaá¹ĥ":5622,"padena":5623,"Ġsubha":5624,"ĠhatvÄģ":5625,"ĠdhÅ«ma":5626,"á¸įe":5627,"yutaá¹ĥ":5628,"Ġciraá¹ĥ":5629,"cittÄģ":5630,"rr":5631,"Ġtrya":5632,"hri":5633,"Ġviru":5634,"Ġjam":5635,"ĠabhiprÄģ":5636,"jÃ±apti":5637,"yanÄģ":5638,"tadi":5639,"Ġtá¹ĽtÄ«yÄģ":5640,"vida":5641,"Ġpaá¹Ńha":5642,"ĠÄģro":5643,"Ġbrahmaá¹ĩÄģ":5644,"smÄģkaá¹ĥ":5645,"Ġvará¹ĩÄģ":5646,"ĠpaÅĽyÄģmi":5647,"Ã±a":5648,"Ġucca":5649,"ĠpradÄ«":5650,"citto":5651,"Ġnopala":5652,"dhá¹Ľtya":5653,"nÄģsi":5654,"ddham":5655,"ĠhÅ«":5656,"miha":5657,"bhiá¹£e":5658,"brÅ«":5659,"mayaá¸¥":5660,"ĠmÄģtrÄģ":5661,"bda":5662,"á¹£ka":5663,"satvÄģ":5664,"gatiá¸¥":5665,"ritya":5666,"kÄģá¹ħká¹£Äģ":5667,"tvamÄģ":5668,"ĠvipÄģ":5669,"rÄ«ya":5670,"Ġpriyaá¹ĥ":5671,"ĠÄģhur":5672,"á¹Ńaá¸¥":5673,"vapu":5674,"het":5675,"parityÄģ":5676,"nod":5677,"ĠrÄģtrau":5678,"cchet":5679,"saá¹ĥjÃ±i":5680,"ĠmahÄģmate":5681,"mukham":5682,"ĠpÅ«rve":5683,"ĠnidrÄģ":5684,"Ġkartuá¹ĥ":5685,"ced":5686,"tmanÄģm":5687,"ĠbÄģlÄģ":5688,"Ġcaivaá¹ĥ":5689,"hare":5690,"vá¹ĽtÄģ":5691,"Ġgá¹ĽhÄģ":5692,"Ġbhiká¹£avo":5693,"kiÃ±ca":5694,"ĠsamudÄģ":5695,"Ġnaca":5696,"bharaá¹ĩa":5697,"ĠnirÄ«":5698,"bá¹Ľha":5699,"madÄģ":5700,"dhÅ«ma":5701,"ĠkÄģryakÄģraá¹ĩa":5702,"sni":5703,"Ġanna":5704,"ĠÅĽiká¹£ate":5705,"ĠutthÄģ":5706,"saá¹ĥyuktaá¹ĥ":5707,"umÄģ":5708,"vipÄģ":5709,"Ġpan":5710,"ĠrÄģjÃ±aá¸¥":5711,"ĠsÄģká¹£i":5712,"Ġmukhaá¹ĥ":5713,"khyo":5714,"catuá¹£á¹Ńa":5715,"lokaá¸¥":5716,"kum":5717,"yogya":5718,"Ġindriya":5719,"pado":5720,"Ġsambandha":5721,"ĠpaÅĽyan":5722,"ĠrÅ«peá¹ĩa":5723,"dyÄģpi":5724,"ĠkadÄģcit":5725,"viÅĽvÄģ":5726,"Ġanyaá¸¥":5727,"ĠÅĽukla":5728,"Ġdá¹Ľá¹£á¹ŃÄģnta":5729,"Ġityeva":5730,"dibhiá¸¥":5731,"Ġkuá¹ĩá¸įa":5732,"vyapade":5733,"dharme":5734,"já¹Ľ":5735,"vÄģcÄģ":5736,"mopa":5737,"ĠdÅ«ra":5738,"taram":5739,"ĠjÃ±eyÄģ":5740,"Ġliá¹ħgaá¹ĥ":5741,"yasva":5742,"gamana":5743,"ĠsakhÄ«":5744,"mantaá¹ĥ":5745,"ĠicchÄģ":5746,"tyate":5747,"muÃ±ca":5748,"preká¹£Äģ":5749,"kÄģmena":5750,"ĠmatvÄģ":5751,"ĠsarvaÅĽaá¸¥":5752,"kramÄģ":5753,"gninÄģ":5754,"ĠtrÄ«á¹ĩi":5755,"deÅĽaá¹ĥ":5756,"ĠnÄģtha":5757,"ká¹£itaá¹ĥ":5758,"vihÄģra":5759,"Ġcala":5760,"ĠniveÅĽa":5761,"kulam":5762,"sÄģká¹£Äģt":5763,"ká¹Ľá¹£á¹ĩÄģ":5764,"ĠÅĽiro":5765,"vÄģsÄģ":5766,"Ġam":5767,"daÅĽÄ«":5768,"kumbha":5769,"ive":5770,"yuá¹£ma":5771,"gopa":5772,"ká¹£aá¹ĩaá¹ĥ":5773,"Ã±jana":5774,"mÄģnÄģdhikara":5775,"rdhva":5776,"paÅĽcÄģ":5777,"Ã±cit":5778,"sahasrÄģ":5779,"ĠviÅĽÄģ":5780,"tÄ«ká¹£":5781,"virodhi":5782,"dyata":5783,"ĠsyÄģn":5784,"Ġlaká¹£mÄ«":5785,"rÄģá¹ĩa":5786,"jÄģna":5787,"bhinnÄģ":5788,"bodhau":5789,"gatya":5790,"Ġdadau":5791,"Ġdaitya":5792,"Ġvaraá¸¥":5793,"yug":5794,"Ġsambhavati":5795,"Ġardha":5796,"buddho":5797,"vasu":5798,"mato":5799,"cyata":5800,"dati":5801,"veta":5802,"tvÄģc":5803,"metada":5804,"Ġvrr":5805,"cÄģro":5806,"ĠmudÄģ":5807,"Ġvrrs":5808,"tÄģnÄģ":5809,"ĠbhÄģvi":5810,"kalpe":5811,"ĠjÃ±Äģyate":5812,"ĠantarÄģ":5813,"ĠamÄģ":5814,"Ġmuniá¸¥":5815,"ĠprajÃ±Äģyante":5816,"lÄģm":5817,"tpala":5818,"laká¹£aá¹ĩaá¸¥":5819,"ĠÅĽoka":5820,"vrÄģ":5821,"Ġdau":5822,"ĠyuktÄģ":5823,"itthaá¹ĥ":5824,"sali":5825,"vÄģdo":5826,"Ġbrahman":5827,"abhya":5828,"á¹ĩas":5829,"á¹£á¹Ńhu":5830,"Ġkati":5831,"dhÄģraá¹ĩÄģ":5832,"Ġvaká¹£yÄģmi":5833,"vidhe":5834,"ĠviÅĽru":5835,"ká¹Ľcch":5836,"tataÅĽ":5837,"maho":5838,"ká¹£aye":5839,"Ġsvasti":5840,"senÄģ":5841,"Ġviá¹£ayÄģ":5842,"kaá¹£Äģ":5843,"ĠpÄģdÄģ":5844,"má¹Ľga":5845,"ĠpratÄ«tya":5846,"Ġartho":5847,"ĠÅĽataá¹ĥ":5848,"Ġbhadra":5849,"vidhau":5850,"cÅ«rá¹ĩa":5851,"meá¹£a":5852,"ÅĽaá¹ħkha":5853,"Ġpraká¹Ľta":5854,"Ġvade":5855,"vará¹ĩi":5856,"grahÄ«":5857,"nubhava":5858,"lambana":5859,"ntyÄģ":5860,"siddhya":5861,"Ġtal":5862,"ĠsÄģdhyÄģ":5863,"Ġhanta":5864,"á¹ħghÄģ":5865,"Ġkhaá¸į":5866,"pá¹Ľccha":5867,"ĠkÄģÅĽya":5868,"kÄģd":5869,"tattvÄģ":5870,"Ġlaká¹£aá¹ĩaá¹ĥ":5871,"vata":5872,"dehe":5873,"ÅĽitÄģ":5874,"ĠjÄģtu":5875,"ĠÅĽÄģkhÄģ":5876,"Ġanabhi":5877,"ĠjijÃ±Äģ":5878,"namaá¸¥":5879,"patÄģ":5880,"lauk":5881,"ĠmuktÄģ":5882,"pratyayÄģ":5883,"paryanta":5884,"Ġayama":5885,"Ġsro":5886,"ĠrÄģmo":5887,"bhoja":5888,"tant":5889,"paÅĽci":5890,"Ġtamo":5891,"Ġbhiká¹£uá¹ĩÄ«":5892,"ĠprasÄģda":5893,"Ġvyaá¹ħg":5894,"Ġdattaá¹ĥ":5895,"Ġsaá¹ĥyoga":5896,"nyÄģya":5897,"Ġapara":5898,"ĠÄģsÄģdya":5899,"kÄģmaá¹ĥ":5900,"Ġsure":5901,"ĠpÄģri":5902,"ĠyayÄģ":5903,"ĠÄģÅĽu":5904,"ĠbhÅ«ri":5905,"Ġká¹£aá¹ĩi":5906,"Ġbhaya":5907,"rthÄģá¸¥":5908,"ĠsÅ«trÄģ":5909,"nirva":5910,"Ġagniá¸¥":5911,"vataá¸¥":5912,"ĠpumÄģn":5913,"saá¹ĥhÄģra":5914,"ĠsamÄģdhiá¸¥":5915,"myam":5916,"Ġityucyate":5917,"ĠsamanvÄģ":5918,"ĠjÄ«ve":5919,"prasaá¹ħga":5920,"dharo":5921,"ĠkrÄ«á¸įa":5922,"rcya":5923,"gá¹Ľhaá¹ĥ":5924,"sukhaá¹ĥ":5925,"danaá¹ĥ":5926,"dite":5927,"ĠkÄģlo":5928,"sthau":5929,"kramaá¹ĥ":5930,"nantaram":5931,"vÄģm":5932,"vidÄģ":5933,"Ġdhu":5934,"Ġdhvani":5935,"vÄģr":5936,"ĠsvÄģmi":5937,"ĠÅ«rdhvaá¹ĥ":5938,"yantra":5939,"kÄģraá¹ĩÄģ":5940,"grahaá¹ĩe":5941,"Ġbhagavantaá¹ĥ":5942,"rakÄģ":5943,"ĠmahÄģte":5944,"Ġmantri":5945,"Ġbhedaá¸¥":5946,"bhena":5947,"yamÄģnaá¸¥":5948,"Ġdig":5949,"ÅĽÄģrdÅ«":5950,"ká¹ĽtÄģá¸¥":5951,"gamanaá¹ĥ":5952,"kÅ«á¹Ńa":5953,"eá¹£Äģ":5954,"mÄģá¹ĩaá¹ĥ":5955,"dravyÄģ":5956,"tthÄģya":5957,"ĠjÄģnÄ«":5958,"ĠvÄģji":5959,"dyaá¸¥":5960,"niti":5961,"ĠprasÅ«":5962,"saá¹ĥbhavÄģ":5963,"lambhÄģ":5964,"Ġandha":5965,"Ġnahi":5966,"dhÄģá¹ĥ":5967,"vÄģkyÄģ":5968,"Ġiá¹£á¹Ńa":5969,"Ġarthaá¹ĥ":5970,"hiraá¹ĩya":5971,"Ġkaá¹£Äģ":5972,"Ġabh":5973,"tÄ«rthaá¹ĥ":5974,"tathÄģgata":5975,"Ġá¹£aá¸įa":5976,"ĠbrÄģhmaá¹ĩo":5977,"Ġbuddhir":5978,"vayaá¸¥":5979,"ĠabhÄ«":5980,"Ġjaá¸įa":5981,"Ġneti":5982,"jjva":5983,"dito":5984,"cayet":5985,"Ġanyad":5986,"Ġitara":5987,"bhÅ«tir":5988,"Ġtara":5989,"á¹£á¹Ńena":5990,"Ġmati":5991,"pito":5992,"tmane":5993,"ghoá¹£a":5994,"itat":5995,"vau":5996,"paÅĽu":5997,"yorapi":5998,"ndrasya":5999,"yÄģmy":6000,"Ġhá¹Ľdaya":6001,"ĠtÄ«rtha":6002,"ĠudÄģha":6003,"vyate":6004,"nÄģsti":6005,"Ġpava":6006,"Ġkartum":6007,"Ġlaká¹£aá¹ĩam":6008,"padeÅĽa":6009,"ĠÅĽÄģra":6010,"ĠtÄ«rthe":6011,"vega":6012,"pratiyogi":6013,"tá¹Ľá¹£á¹ĩÄģ":6014,"rthya":6015,"virodhÄģ":6016,"á¹£á¹ĩi":6017,"namÄģ":6018,"ntike":6019,"Ġjani":6020,"Ġtadupa":6021,"ĠdiÅĽaá¸¥":6022,"niyamÄģ":6023,"ĠkasmÄģ":6024,"jÄģtaá¹ĥ":6025,"laká¹£aá¹ĩe":6026,"hema":6027,"mukto":6028,"ÅĽritaá¸¥":6029,"Ġsyur":6030,"ĠrathÄģ":6031,"ĠÅĽá¹Ľá¹ĩ":6032,"virÄģ":6033,"ĠnÄģya":6034,"ĠrÄģjÄģnaá¹ĥ":6035,"Ġvikalpayiá¹£yanti":6036,"ĠyaÅĽo":6037,"sÄģdhÄģraá¹ĩa":6038,"ĠÅĽiraá¸¥":6039,"sargÄģ":6040,"Ġkarmaá¹ĩi":6041,"Ġlokeá¹£u":6042,"rathÄģ":6043,"Ġrati":6044,"aha":6045,"vaditi":6046,"nameva":6047,"Ġruci":6048,"ruvan":6049,"Ġbhoja":6050,"Ġseva":6051,"Ġjha":6052,"samudÄģ":6053,"ĠutpÄģda":6054,"ĠvyavahÄģra":6055,"Ġpitta":6056,"anyo":6057,"gatena":6058,"jÄģm":6059,"ĠviÅĽve":6060,"megha":6061,"kará¹£Äģ":6062,"lÄ«á¹ĥ":6063,"Ġsattvaá¹ĥ":6064,"ratÄģ":6065,"nÄģyÄģ":6066,"Ġnive":6067,"Ġpratyekaá¹ĥ":6068,"samÅ«":6069,"viÅĽeá¹£o":6070,"vibha":6071,"ĠmahÄģma":6072,"Ġhetur":6073,"ĠyenÄģ":6074,"Ġkriya":6075,"ĠsthÄģne":6076,"ganta":6077,"Ġcaita":6078,"-'":6079,"Ġmegha":6080,"asti":6081,"ÅĽÄģna":6082,"Ġpunas":6083,"yos":6084,"ĠvÄģya":6085,"Ġguá¹ĩÄģá¸¥":6086,"Ġá¹Ľddhi":6087,"ĠityÄģdinÄģ":6088,"Ġká¹£ipraá¹ĥ":6089,"ĠbahirdhÄģ":6090,"ndhe":6091,"nor":6092,"ÅĽaktyÄģ":6093,"Ġsari":6094,"dine":6095,"ror":6096,"sattve":6097,"ĠÄģhu":6098,"Ġtattvaá¹ĥ":6099,"Ġhá¹Ľdaye":6100,"Ġniga":6101,"vibhÄģga":6102,"Ġsaiva":6103,"pratyu":6104,"yac":6105,"prame":6106,"hopa":6107,"pariá¹ĩÄģ":6108,"sambhavÄģt":6109,"Ġpratyekabuddha":6110,"pá¹Ľthak":6111,"Ġiyam":6112,"Ġlokasya":6113,"iri":6114,"ĠRo":6115,"ÅĽaá¹ĥpÄģya":6116,"á¹ħgula":6117,"KA":6118,"cayati":6119,"Ġvidhe":6120,"ĠÄģna":6121,"Ġpudga":6122,"Ġhetor":6123,"ĠtridhÄģ":6124,"Ġduá¸¥khi":6125,"Ġgata":6126,"ĠsamupÄģ":6127,"padyante":6128,"bhyÄģsa":6129,"KAII":6130,"ká¹£yanti":6131,"jvala":6132,"paká¹£i":6133,"kÄģntÄģ":6134,"ÅĽaá¹ħkya":6135,"tmakam":6136,"ĠÅĽastra":6137,"ĠvyÄģpÄģ":6138,"ghÄģna":6139,"sate":6140,"Ġetan":6141,"mÄģá¹ĥsÄģ":6142,"Ġsunda":6143,"pattau":6144,"Ġgatim":6145,"á¹ĩÅ«":6146,"nikÄģ":6147,"tura":6148,"ramuk":6149,"gá¹ĽhÄ«ta":6150,"Ġduá¸¥kham":6151,"Ġsakhi":6152,"saá¹ĥÅĽa":6153,"tamana":6154,"prÄģpte":6155,"durla":6156,"ĠchrutvÄģ":6157,"praccha":6158,"ĠvaiÅĽvÄģ":6159,"phale":6160,"vaá¹ĥÅĽa":6161,"nut":6162,"lÄģt":6163,"mÄģnanda":6164,"tpattiá¸¥":6165,"ĠsarvÄģá¸¥":6166,"ĠÅĽÄ«ghraá¹ĥ":6167,"iyaá¹ĥ":6168,"nyÄģá¸¥":6169,"etena":6170,"Ġavocat":6171,"nuá¹£á¹ŃhÄģ":6172,"kuryÄģ":6173,"dÄ«nÄģma":6174,"bja":6175,"ĠsthitÄģá¸¥":6176,"Ġvaktuá¹ĥ":6177,"syasi":6178,"pÄģtÄģ":6179,"Ġtatpra":6180,"Ġgacchanti":6181,"ĠnÅ«naá¹ĥ":6182,"ĠÄģpa":6183,"Ġsaá¹ĥgha":6184,"Ġje":6185,"dattÄģ":6186,"ĠtathÄģgato":6187,"tpÄģdo":6188,"gá¹Ľhá¹ĩÄģti":6189,"sne":6190,"ĠvikhyÄģ":6191,"Ġbaddha":6192,"vÄģsanÄģ":6193,"ĠidÄģnÄ«á¹ĥ":6194,"pÄģtra":6195,"jito":6196,"geá¹£u":6197,"theti":6198,"tsi":6199,"Ġcau":6200,"roá¸¥":6201,"Ġsaá¹ĥsá¹Ľ":6202,"loha":6203,"Ġtaru":6204,"ĠkÄģÃ±ca":6205,"ĠsumahÄģ":6206,"vá¹Ľá¹£a":6207,"grahaá¹ĥ":6208,"ĠbhÅ«t":6209,"ĠsyÄģda":6210,"valla":6211,"Ġsamá¹Ľ":6212,"tÄģrtha":6213,"triá¹ĥ":6214,"Ġnirava":6215,"pratiá¹£á¹ŃhÄģ":6216,"sarpa":6217,"adya":6218,"karuá¹ĩÄģ":6219,"sattvaá¹ĥ":6220,"vá¹Ľttir":6221,"tvopa":6222,"haá¹ĥsa":6223,"Ġjva":6224,"rthÄģntara":6225,"Ġpayo":6226,"ĠÄģryÄģ":6227,"Ġavaya":6228,"vá¹Ľttya":6229,"cÅ«rá¹ĩaá¹ĥ":6230,"Ġvita":6231,"ĠprajÄģpatiá¸¥":6232,"yÄģnaá¹ĥ":6233,"laká¹£ya":6234,"pitam":6235,"ká¹£aá¹ĩaá¸¥":6236,"ĠdarÅĽana":6237,"Ġká¹Ľá¹£á¹ĩaá¹ĥ":6238,"stÄģá¹ĥ":6239,"ĠdeÅĽÄģ":6240,"nÄģdhi":6241,"Ġcu":6242,"Ġpratyeka":6243,"ĠudÄģhá¹Ľ":6244,"yadyapi":6245,"srava":6246,"Ġstam":6247,"jarÄģ":6248,"veá¹£u":6249,"Ġbrahmaá¹ĩi":6250,"ĠkurvÄ«ta":6251,"ÅĽco":6252,"Ġdanta":6253,"Ġcen":6254,"ĠvyÄģdhi":6255,"ĠtasmÄģn":6256,"viÅĽeá¹£e":6257,"Ã±ce":6258,"dvaye":6259,"Ġmaitre":6260,"ĠjanÄģá¸¥":6261,"Ġbhiká¹£avaá¸¥":6262,"vimoká¹£a":6263,"tejo":6264,"Ġvaá¹ĥ":6265,"Ġsamanu":6266,"ĠavasthÄģ":6267,"vaiÅĽaá¹ĥpÄģya":6268,"ĠhyÄģ":6269,"ĠsaptÄģ":6270,"ĠprÄģcÄ«":6271,"ĠbahudhÄģ":6272,"hÄģreá¹ĩa":6273,"bali":6274,"Ġanuk":6275,"Ġgá¹Ľhá¹ĩÄģti":6276,"pravÄģ":6277,"ĠvadÄģ":6278,"ĠgÄģthÄģ":6279,"ddhu":6280,"ĠbhrÄģnti":6281,"ĠchÄģradvatÄ«putra":6282,"draá¸¥":6283,"mitrÄģ":6284,"Ġlabhyate":6285,"lli":6286,"Ġsap":6287,"vÄģnu":6288,"kameva":6289,"Ġyuddhe":6290,"ĠÅĽÅ«dra":6291,"mÅ«tra":6292,"ntÄģá¸¥":6293,"Ġparyu":6294,"Ġyatha":6295,"yantaá¸¥":6296,"ĠkadÄģcana":6297,"ditÄģá¸¥":6298,"Ġguruá¸¥":6299,"stataá¸¥":6300,"Ġsaá¹ĥÅĽaya":6301,"gandhi":6302,"ĠÅĽaá¹ħkÄģ":6303,"ĠmahÄģkÄģ":6304,"ttiá¹£á¹Ńha":6305,"kÄģÅĽ":6306,"pÄģá¹ĩá¸įu":6307,"sÄģmÄģn":6308,"Ġtadvat":6309,"nyÄģsa":6310,"tyeti":6311,"Ġupalabhate":6312,"ndreá¹ĩa":6313,"rá¹ĩamÄģ":6314,"Ġsarpi":6315,"á¹£á¹Ńham":6316,"grÄģhya":6317,"ÅĽatru":6318,"prayÄģ":6319,"pÄ«á¸įa":6320,"vraja":6321,"Ġduryodha":6322,"viÅĽuddhi":6323,"dá¹ĽÅĽe":6324,"ĠkartavyÄģ":6325,"ĠgrÄģha":6326,"ĠgrÄģhya":6327,"syante":6328,"Ġpaká¹£i":6329,"ká¹£Äģá¸¥":6330,"ĠbhuktvÄģ":6331,"nÄģra":6332,"tÄ«á¸¥":6333,"deÅĽi":6334,"ÅĽÄģm":6335,"ĠbhÅ«tÄģnÄģá¹ĥ":6336,"Ġmukta":6337,"ĠdevÄģnÄģm":6338,"yamiti":6339,"ĠvÄģra":6340,"Ġgandharva":6341,"rá¹£e":6342,"kamÄģ":6343,"Ġaá¹£á¹Ńau":6344,"Ġsaptam":6345,"Ġsaá¹ĥvá¹Ľ":6346,"tiá¹£á¹Ńhati":6347,"Ġara":6348,"Ġvirodha":6349,"Ġbrahmaca":6350,"sarpi":6351,"kriyate":6352,"Ġvaha":6353,"ĠÄģjÃ±Äģ":6354,"Ġbhedo":6355,"ĠpatnÄ«":6356,"Ġkali":6357,"ndrÄģya":6358,"ĠjÄģto":6359,"bhÅ«tasya":6360,"Ġdhara":6361,"hÄ«na":6362,"ĠnarÄģá¸¥":6363,"mitam":6364,"dhita":6365,"dhyavasÄģ":6366,"Ġsvapne":6367,"pÄģlÄģ":6368,"Ġeá¹£aá¸¥":6369,"gá¹ĽhÄģ":6370,"lba":6371,"ĠpÄģla":6372,"ĠbhÄģvo":6373,"ĠÅĽÄģkya":6374,"ÅĽritÄģ":6375,"Ġá¹ĩa":6376,"á¹ĩyÄģá¹ĥ":6377,"Ġtadva":6378,"Ġcira":6379,"Ġdvijaá¸¥":6380,"ĠÅĽrÄģvaka":6381,"ĠM":6382,"ĠsvÄģbhÄģvi":6383,"Ġmukti":6384,"yogÄģd":6385,"ĠjÄ«vati":6386,"yatÄ«ti":6387,"Ġnibodha":6388,"ÅĽaá¹ĥsa":6389,"Ã±jÄ«ta":6390,"ddi":6391,"sÄģreá¹ĩa":6392,"Ġpratipadyate":6393,"ĠbÄģhyÄģ":6394,"ĠbhinnÄģ":6395,"mÄģnÄģá¸¥":6396,"Ġparasparam":6397,"Ġadho":6398,"mÄģtá¹Ľ":6399,"bhÄģsÄģ":6400,"Ġparasya":6401,"jayaá¸¥":6402,"trayo":6403,"tvÄģnna":6404,"Ġlokaá¸¥":6405,"sambandhÄģ":6406,"Ġdina":6407,"ĠtejasÄģ":6408,"tÄģtpa":6409,"praká¹Ľ":6410,"muktvÄģ":6411,"tham":6412,"ĠtadÄ«":6413,"layaá¹ĥ":6414,"ĠprapaÃ±ca":6415,"ĠÄģÅĽra":6416,"gamo":6417,"ĠgadÄģ":6418,"daá¹ĥá¹£á¹Ń":6419,"kaá¹ĩá¹Ńa":6420,"dveá¹£a":6421,"Ġcarann":6422,"Ġdá¹ĽÅĽyante":6423,"rÄģÅĽi":6424,"patter":6425,"krÄģma":6426,"ĠÄģtmani":6427,"ndriyaá¸¥":6428,"ttarÄģyÄģá¹ĥ":6429,"ĠÄģpnoti":6430,"Ġmucyate":6431,"dvand":6432,"lyo":6433,"vacchinna":6434,"dhipaá¸¥":6435,"jÄģtÄģ":6436,"spaá¹£á¹Ńam":6437,"Ġkasyacit":6438,"palabdhi":6439,"Ġvigamena":6440,"Ġpuras":6441,"Ġkum":6442,"babhÅ«va":6443,"dala":6444,"saá¹ĥvatsa":6445,"ĠÅĽama":6446,"ĠnyÄģya":6447,"vÄģsu":6448,"kamiti":6449,"muda":6450,"Ġkevalam":6451,"patÄ«":6452,"praÅĽ":6453,"guá¹ĩe":6454,"Ġteá¹£Äģ":6455,"moca":6456,"dá¹ĽÅĽam":6457,"á¹£á¹ŃÄģá¹ĥ":6458,"Ġsthite":6459,"ĠÅ«rdhva":6460,"aá¹£á¹Ńa":6461,"dadha":6462,"Ġsaá¹ĥgrÄģ":6463,"Ġsamudra":6464,"Ġvyoma":6465,"Ġeke":6466,"Ġagre":6467,"ĠdadyÄģd":6468,"antar":6469,"Ġsatva":6470,"ĠudÄ«":6471,"cÄģru":6472,"patim":6473,"Ġkama":6474,"tÄ«tyarthaá¸¥":6475,"meta":6476,"ĠÄģtmano":6477,"garbhÄģ":6478,"ĠamÄ«":6479,"Ġvinda":6480,"á¹ħganÄģ":6481,"Ġloha":6482,"Ġtriá¹£u":6483,"Ġukte":6484,"yair":6485,"tila":6486,"ĠsÄģnu":6487,"Ġpai":6488,"Ġsamam":6489,"kusuma":6490,"aká¹£a":6491,"itye":6492,"Ġvat":6493,"Ġge":6494,"ÅĽikhÄģ":6495,"vaÅĽ":6496,"Å«rdhvaá¹ĥ":6497,"dyair":6498,"Ġhará¹£a":6499,"Ġyudhi":6500,"krÄģntaá¸¥":6501,"pannam":6502,"Ġsneha":6503,"ĠÅĽuddhi":6504,"Ġkule":6505,"svarÅ«pÄģ":6506,"hasthÄģ":6507,"ĠtÄģdá¹ĽÅĽa":6508,"jju":6509,"saro":6510,"á¹ħke":6511,"noá¸¥":6512,"ĠpadÄģrtha":6513,"tattvaá¹ĥ":6514,"sÅ«tre":6515,"ĠprÄģptaá¹ĥ":6516,"Ġjanaá¸¥":6517,"á¹£á¹ŃÄģni":6518,"á¹ħguli":6519,"mahaá¸¥":6520,"Ġadbhu":6521,"laká¹£aá¹ĩo":6522,"che":6523,"syÄģsya":6524,"suvará¹ĩa":6525,"ká¹£ipet":6526,"á¸įo":6527,"yanty":6528,"ÅĽatÄģni":6529,"Ġubhau":6530,"saá¹ĥta":6531,"medha":6532,"á¹ĩÄ«yÄģ":6533,"ĠÅĽarÄ«re":6534,"Ġpá¹Ľthu":6535,"mÅ«laá¹ĥ":6536,"Ġekaá¸¥":6537,"Ġhima":6538,"Ġká¹Ľpa":6539,"parimÄģá¹ĩa":6540,"ÅĽubha":6541,"buddhyÄģ":6542,"Ġpaá¹ĥ":6543,"ryamÄģ":6544,"bhru":6545,"lok":6546,"vá¹Ľtya":6547,"ĠcÄģnupa":6548,"Ġkhaá¹ĩá¸įa":6549,"Ġyuá¹£mÄģ":6550,"ĠÅĽrutaá¹ĥ":6551,"Ġká¹£o":6552,"tuma":6553,"jyeta":6554,"dhikÄģra":6555,"ĠlokadhÄģtu":6556,"ĠÄģtmÄģnam":6557,"ÅĽá¹Ľá¹ħgÄģ":6558,"ĠÅĽveta":6559,"Ġsamaye":6560,"Ġuddha":6561,"á¹ĩyo":6562,"á¹Ľá¹£a":6563,"nyapi":6564,"Ġpariá¹ĩÄģ":6565,"Ġdá¹Ľá¹£á¹Ńaá¸¥":6566,"dvÄģreá¹ĩa":6567,"pramÄģá¹ĩaá¹ĥ":6568,"Ġviá¹£á¹ĩur":6569,"ĠjÃ±eyaá¹ĥ":6570,"ĠprÄģmÄģá¹ĩya":6571,"á¹Ńá¹ŃÄģ":6572,"yetya":6573,"Ġsid":6574,"Ġrudhi":6575,"ĠmatÄģ":6576,"ĠpÄģrva":6577,"á¹£itaá¹ĥ":6578,"Ġmanuá¹£":6579,"viparÄ«":6580,"Ġsuta":6581,"ĠmÄģra":6582,"Ġdine":6583,"steá¹£Äģá¹ĥ":6584,"Ġroca":6585,"Ġlaká¹£yate":6586,"Ġsvena":6587,"Ġpariá¹ĩa":6588,"krÄģntÄģ":6589,"ĠviditvÄģ":6590,"saá¹ĥsÄģra":6591,"Ġcatura":6592,"ĠsthÅ«la":6593,"Ġasama":6594,"danya":6595,"ká¹£aá¹ĩam":6596,"dharmaá¹ĥ":6597,"ĠkalpanÄģ":6598,"mÄģtÄģ":6599,"mÄģla":6600,"ÅĽÄģstrÄģ":6601,"ĠmanÄ«":6602,"prÄģya":6603,"Ġruk":6604,"Ġputraá¸¥":6605,"bhilÄģ":6606,"locana":6607,"ĠtÄģvan":6608,"kará¹ĩya":6609,"ĠÅĽÄģstrÄģ":6610,"Ġsaá¹ĥbandha":6611,"Ġpunaru":6612,"kÄģrÄģt":6613,"pula":6614,"peá¹ĩa":6615,"putraá¸¥":6616,"Ġaci":6617,"Ġityu":6618,"diÅĽa":6619,"ĠmukhyÄģ":6620,"ĠsÄģká¹£Äģd":6621,"á¹ĥÅĽu":6622,"nirma":6623,"pradhÄģ":6624,"bhirÄģ":6625,"ĠnÄģrada":6626,"ĠvilÄģ":6627,"Ġgato":6628,"svara":6629,"sambhavÄģ":6630,"Ġpá¹Ľcchati":6631,"ĠviÅĽeá¹£o":6632,"ĠityÄģdau":6633,"vita":6634,"trasya":6635,"Ġpuraá¹ĥ":6636,"kriya":6637,"prayojana":6638,"ryÄģá¸¥":6639,"Ã±co":6640,"svaá¹ĥ":6641,"ĠyathÄģvidhi":6642,"Ġvaco":6643,"Ġetaá¹ĥ":6644,"jite":6645,"dÄģtma":6646,"lÄģbhÄģ":6647,"Ġhai":6648,"mukhyÄģ":6649,"Ġsaá¹ĥvidyate":6650,"bhrÅ«":6651,"purÄ«":6652,"ĠmudrÄģ":6653,"pater":6654,"katayÄģ":6655,"prava":6656,"stato":6657,"khala":6658,"ĠdvitÄ«yaá¹ĥ":6659,"apÄģ":6660,"lye":6661,"maru":6662,"jÄģnÄ«":6663,"suhá¹Ľ":6664,"Ġkeci":6665,"pauru":6666,"ĠrÅ«pe":6667,"ĠpratÄģpa":6668,"ĠyasmÄģd":6669,"saá¹ĥbhava":6670,"Ġtvad":6671,"tÄ«m":6672,"Ġtila":6673,"siddhaá¹ĥ":6674,"sÄģdhanaá¹ĥ":6675,"ĠastÄ«ti":6676,"yaÅĽca":6677,"ĠsamÄģcaret":6678,"ĠdiÅĽo":6679,"ĠapÄ«ti":6680,"Ġtá¹Ľp":6681,"Ġyaju":6682,"svarÅ«paá¹ĥ":6683,"Ġká¹£iti":6684,"vuá¸¥":6685,"á¹ĩÄģpi":6686,"ĠkÄģlaá¸¥":6687,"damba":6688,"vika":6689,"prakÄģ":6690,"Ġniveda":6691,"ĠtattvÄģ":6692,"ĠsamÄģhitaá¸¥":6693,"nÄģÅĽanam":6694,"eko":6695,"saá¹ĥbandhÄģ":6696,"Ġsaá¹ĥta":6697,"ĠtÄģpa":6698,"purÄģá¹ĩa":6699,"''":6700,"ĠvicÄģra":6701,"Ġannaá¹ĥ":6702,"krami":6703,"ĠnÄģnyatra":6704,"agne":6705,"sty":6706,"Ġvanaá¹ĥ":6707,"Ġbrahmaá¹ĩa":6708,"vaicit":6709,"Ġdravyaá¹ĥ":6710,"saá¹ĥská¹Ľta":6711,"ĠviÅĽeá¹£eá¹ĩa":6712,"ĠvÄģdi":6713,"Ġsaá¹ĥbhava":6714,"ÅĽli":6715,"prapaÃ±ca":6716,"bhavÄģn":6717,"Ġjale":6718,"raá¹ĩÄģya":6719,"Ġsamupa":6720,"Ġvaká¹£yati":6721,"gÄģya":6722,"Ġá¹£aá¹ĩ":6723,"Ġstana":6724,"Ġprada":6725,"dá¹Ľk":6726,"ttvi":6727,"Ġyacca":6728,"Ġsaá¹ĥghÄģ":6729,"jÅ«":6730,"Ġasat":6731,"ĠprahÄģ":6732,"á¹£yÄģmaá¸¥":6733,"Ġmanyante":6734,"ĠsatvÄģ":6735,"Ġprabhá¹Ľ":6736,"puá¹£pÄģ":6737,"Ġvyatire":6738,"ĠÅĽanaiá¸¥":6739,"Ġsiddhaá¹ĥ":6740,"nmahÄģ":6741,"yogÄ«":6742,"vidham":6743,"saá¹ĥspar":6744,"ká¹Ľá¹£ya":6745,"vyaá¹ħg":6746,"Ġtarpa":6747,"pÄģrÅĽva":6748,"ĠÅĽaku":6749,"taka":6750,"rÄģha":6751,"ĠmaÃ±ju":6752,"Ġká¹Ľto":6753,"tasmÄģda":6754,"Ġyaduta":6755,"Ġparityajya":6756,"llÄ«":6757,"Ġcaret":6758,"pÅ«rá¹ĩÄģ":6759,"paá¹ħka":6760,"dayati":6761,"dÄģma":6762,"sve":6763,"tacca":6764,"yÄģvat":6765,"Ġviharati":6766,"virodhaá¸¥":6767,"Ġvaktum":6768,"á¸įu":6769,"rÅ«n":6770,"dhikaraá¹ĩam":6771,"uku":6772,"ĠprÄģá¹ĩo":6773,"jÃ±aá¹ĥ":6774,"mÄģru":6775,"syÄģt":6776,"tmajaá¸¥":6777,"Ġkartavya":6778,"rthÄģni":6779,"Ġsvargaá¹ĥ":6780,"mahÄ«":6781,"ÅĽubhÄģ":6782,"ÅĽvi":6783,"balo":6784,"Ġtade":6785,"stv":6786,"Ġdharmeá¹ĩa":6787,"lle":6788,"vyena":6789,"vatÄģá¹ĥ":6790,"citaá¸¥":6791,"ÅĽÄģnti":6792,"lÄģbha":6793,"ĠtÄģvada":6794,"nyÄģni":6795,"lyÄģá¹ĥ":6796,"vibhÅ«á¹£i":6797,"tÄģÅĽa":6798,"saá¹ĥsÄģ":6799,"bÄ«jÄģ":6800,"vahni":6801,"ĠsvarÅ«paá¹ĥ":6802,"vayo":6803,"samo":6804,"ĠdvÄ«":6805,"yantu":6806,"bhagavan":6807,"daÅĽyÄģá¹ĥ":6808,"kalyÄģ":6809,"ĠsahasraÅĽaá¸¥":6810,"Ġvastra":6811,"ĠtathÄģgatÄģ":6812,"ÅĽÄ«ta":6813,"dharmaá¸¥":6814,"saá¹ĥsparÅĽapratyayavedanÄģ":6815,"ÅĽaá¹ĥsÄģ":6816,"cai":6817,"yeyaá¹ĥ":6818,"ĠjagÄģ":6819,"vyÄģsa":6820,"varaá¹ĩa":6821,"Ġmataá¸¥":6822,"ĠyajÃ±e":6823,"dhÄģnya":6824,"vidhya":6825,"tera":6826,"deÅĽena":6827,"ĠjÄģtaá¸¥":6828,"sÅ«rya":6829,"Ġkli":6830,"tyapi":6831,"saá¹ĥbhavÄģt":6832,"muktaá¸¥":6833,"vy":6834,"manda":6835,"kÄģrtha":6836,"á¹£á¹Ńasya":6837,"koá¹Ń":6838,"ĠjÄģyante":6839,"Ġmuhuá¸¥":6840,"Ġdharmasya":6841,"ĠsudhÄģ":6842,"nakha":6843,"tyantÄģ":6844,"Ġdatta":6845,"dá¹Ľg":6846,"ĠcitrÄģ":6847,"tasminn":6848,"Ġadvai":6849,"Ġvaá¹ĩi":6850,"ĠetÄģni":6851,"ĠÅĽaraiá¸¥":6852,"ĠkÄģmaá¹ĥ":6853,"Ġkecid":6854,"Ġnimitte":6855,"tamaá¹ĥ":6856,"Ġpratisaá¹ĥ":6857,"graham":6858,"viÅĽeá¹£ya":6859,"ĠsiddhÄģnta":6860,"guá¹ĩaá¸¥":6861,"padasya":6862,"ukti":6863,"ĠbaddhvÄģ":6864,"mantrya":6865,"viá¹£ayaá¸¥":6866,"catvÄģri":6867,"sur":6868,"yinÄ«":6869,"Ġsp":6870,"Ġnirvi":6871,"tasyÄģpi":6872,"ĠÅĽabdasya":6873,"tÅ«ha":6874,"rataá¸¥":6875,"Ġacyu":6876,"lola":6877,"á¹ĩÄ«m":6878,"thÄ«":6879,"nantara":6880,"pravarta":6881,"á¹£á¹ŃhitÄģ":6882,"ĠsattÄģ":6883,"Ġkurvan":6884,"kuÅĽala":6885,"Ġantara":6886,"ttikÄģ":6887,"Ġsamayena":6888,"ĠsarvÄģkÄģra":6889,"Ġcaká¹£uá¹£Äģ":6890,"vatÄģra":6891,"katham":6892,"ĠvihÄģya":6893,"ĠparÄģá¹ĥ":6894,"ĠÅĽá¹Ľá¹ħgÄģ":6895,"Ġbahavo":6896,"yanam":6897,"á¹Ńá¹Ńi":6898,"dhyaá¸¥":6899,"nÄģmnÄģ":6900,"viá¹£ayo":6901,"pÄģramitÄģyÄģá¹ĥ":6902,"ĠÅĽaá¹ħkate":6903,"yasÄ«":6904,"Ġvika":6905,"praveÅĽa":6906,"rÅ«á¸į":6907,"vivikta":6908,"Ġaga":6909,"sminn":6910,"ĠuktÄģ":6911,"á¹ĩá¹ŃÄģ":6912,"bhyÄģma":6913,"saá¹ĥkhye":6914,"ká¹Ľá¹£":6915,"ĠÅĽrutam":6916,"Ġanartha":6917,"Ġmukhe":6918,"dan":6919,"daye":6920,"Ġyaká¹£a":6921,"vá¹Ľto":6922,"Ġbalam":6923,"taru":6924,"vido":6925,"mÄģnÄģá¹ĥ":6926,"syÄģm":6927,"Ġá¹£aá¹£á¹ŃhÄ«":6928,"prÄ«ti":6929,"Ġcittam":6930,"ĠmahÄģbÄģho":6931,"Ġpraha":6932,"miÅĽ":6933,"Ġkutra":6934,"ĠsenÄģ":6935,"ttu":6936,"ĠÅĽikha":6937,"Ãª":6938,"madhi":6939,"Ġprayojana":6940,"ĠicchÄģmi":6941,"cetasaá¸¥":6942,"iÅĽvarya":6943,"rabhya":6944,"kali":6945,"nive":6946,"trayÄģ":6947,"Ġpratiá¹£i":6948,"prayoge":6949,"ĠpÄģpÄģ":6950,"dÄ«nÄģ":6951,"ĠÅĽiá¹£ya":6952,"Ġgá¹Ľhaá¹ĥ":6953,"nandana":6954,"Ġniro":6955,"ĠrÄģmaá¹ĥ":6956,"masti":6957,"á¹£á¹Ńya":6958,"Ġsaá¹ĥhitÄģ":6959,"ĠcÄģbhi":6960,"pratijÃ±Äģ":6961,"ikasya":6962,"ĠkadÄģcid":6963,"Ġghoraá¹ĥ":6964,"Ġsadyaá¸¥":6965,"napi":6966,"Ġsutaá¸¥":6967,"dhÄ«nÄģá¹ĥ":6968,"navi":6969,"ĠyÄģvan":6970,"ĠdharmÄģá¸¥":6971,"ĠbÄ«jÄģ":6972,"raÅĽmi":6973,"ĠsanÄģta":6974,"ĠvidhÄģya":6975,"ĠnaivÄģ":6976,"ĠyogÄģ":6977,"hiá¹ĥsÄģ":6978,"varja":6979,"ĠkulÄģ":6980,"bahirdhÄģ":6981,"cci":6982,"á¹ĩyena":6983,"ĠsavitÄģ":6984,"Ġbhiá¹£a":6985,"dyam":6986,"ĠbhÄ«á¹£":6987,"ĠraÅĽmi":6988,"ĠsvÄģtma":6989,"sÅ«ká¹£ma":6990,"iru":6991,"yÄģvad":6992,"dityÄģ":6993,"Ġsamyaksaá¹ĥbodhau":6994,"tyatra":6995,"ntaÅĽ":6996,"rdham":6997,"ĠvÄ«ryaá¹ĥ":6998,"istu":6999,"toá¹£a":7000,"tpÄģdÄģ":7001,"vÄģraá¹ĥ":7002,"dhy":7003,"ĠpunarÄģ":7004,"nopasaá¹ĥ":7005,"Ġsvará¹ĩa":7006,"Ġprame":7007,"vá¹Ľtam":7008,"ĠsvabhÄģvaá¸¥":7009,"ĠbhÄģrga":7010,"pÄģyakauÅĽa":7011,"Ġvistareá¹ĩa":7012,"yaiá¸¥":7013,"maye":7014,"gatiá¹ĥ":7015,"kÄģá¹ĩÄģá¹ĥ":7016,"Ġvicitra":7017,"ĠnivÄģ":7018,"gniho":7019,"bhÄ«á¹£a":7020,"ĠpÄ«ta":7021,"ÅĽud":7022,"bhÄģgaá¹ĥ":7023,"Ġsvalaká¹£aá¹ĩa":7024,"Ġbhá¹ĽÅĽam":7025,"nÄģdya":7026,"ÅĽakya":7027,"Ġyam":7028,"yudha":7029,"Ġdaha":7030,"Ġkariá¹£yati":7031,"krÄ«á¸įÄģ":7032,"Ġhareá¸¥":7033,"bhaktÄģ":7034,"ĠvÄģja":7035,"Ġsarvaloka":7036,"ĠhutvÄģ":7037,"ĠpÄģp":7038,"samasta":7039,"kÄģli":7040,"Ġbhra":7041,"ĠprÄģptÄģ":7042,"Ġjyotir":7043,"janmÄģ":7044,"ĠdevyÄģ":7045,"gamat":7046,"Ġsamyaksaá¹ĥbuddha":7047,"ĠjÄģgra":7048,"Ġsá¹Ľá¹£á¹Ńi":7049,"á¹£iá¸¥":7050,"ĠnarmadÄģ":7051,"Ġpate":7052,"Ġkanaka":7053,"ÅĽuka":7054,"meveti":7055,"ĠitÄ«":7056,"ÅĽÅ«la":7057,"gambhÄ«":7058,"ĠdvitÄ«yaá¸¥":7059,"Ġvipre":7060,"Ġun":7061,"mÄģrge":7062,"khyaá¸¥":7063,"sÄģdhanam":7064,"ĠprajÃ±ÄģpÄģramitÄģá¹ĥ":7065,"Ġpraá¹ĩamya":7066,"Ġvyakti":7067,"sÄ«d":7068,"cetana":7069,"sarvatra":7070,"cÄģriá¹ĩaá¸¥":7071,"karot":7072,"dÄģnam":7073,"ĠgandhÄģ":7074,"yantaá¹ĥ":7075,"ĠprÄģyaÅĽ":7076,"ĠcÄģti":7077,"Ġpitaraá¹ĥ":7078,"Ġdviá¹£a":7079,"Ġsarveá¹£Äģm":7080,"stham":7081,"Ġghana":7082,"Ġcaraá¹ĩa":7083,"kÄģá¹ħká¹£a":7084,"Ġave":7085,"ĠÄģdau":7086,"jÄģpa":7087,"á¹Ńaá¹ħka":7088,"niru":7089,"ĠghÄģ":7090,"tado":7091,"Ġkaruá¹ĩÄģ":7092,"ĠsÄģrtha":7093,"ĠrÄģmaá¸¥":7094,"ĠsahasrÄģá¹ĩi":7095,"uka":7096,"Ġkapo":7097,"bhidhÄ«yate":7098,"prÄģg":7099,"yaká¹£a":7100,"ĠjvÄģ":7101,"kima":7102,"Ġpratyaká¹£aá¹ĥ":7103,"yamapi":7104,"nana":7105,"sabhÄģ":7106,"nidrÄģ":7107,"yeá¹£Äģá¹ĥ":7108,"Ġvetti":7109,"ĠprajÃ±Äģyate":7110,"yady":7111,"ĠbrÅ«maá¸¥":7112,"ĠÅĽivaá¸¥":7113,"ĠtathaivÄģ":7114,"Ġsaddharma":7115,"tumi":7116,"Ġbhuá¹ħkte":7117,"ĠjÄ«vasya":7118,"ĠvÄģyur":7119,"ÅĽuá¸¥":7120,"Ġjalaá¹ĥ":7121,"Ġá¹Ľte":7122,"ĠÄģtmanÄģ":7123,"ĠvÄģcaá¹ĥ":7124,"Ġpratiá¹£edhaá¸¥":7125,"iko":7126,"yase":7127,"Ġbahiá¸¥":7128,"tumarhati":7129,"dina":7130,"ped":7131,"ĠÅĽruta":7132,"ddhayÄģ":7133,"ĠsÅ«traá¹ĥ":7134,"nÄģny":7135,"mbÄģ":7136,"rdra":7137,"red":7138,"dumba":7139,"svÄģmi":7140,"ĠrevÄģ":7141,"rayÄģ":7142,"Ġeá¹£o":7143,"sudhÄģ":7144,"Ġká¹£ipet":7145,"Ġante":7146,"nÄ«yo":7147,"Ġbhá¹Ľgu":7148,"Ġnau":7149,"yujyate":7150,"ĠbhÄģska":7151,"Ġtadapi":7152,"dÄģharaá¹ĩa":7153,"á¹£ve":7154,"mani":7155,"rÄģmi":7156,"nopÄģ":7157,"kumÄģra":7158,"Ġviá¹£á¹ĩuá¸¥":7159,"utta":7160,"ttathÄģ":7161,"lamb":7162,"á¹ħkha":7163,"jÃ±Äģnena":7164,"pure":7165,"krÄģnti":7166,"dÄģn":7167,"mÄģtrasya":7168,"mantrayate":7169,"á¹£ir":7170,"sanam":7171,"teyaá¹ĥ":7172,"dá¹ĽÅĽyate":7173,"jalÄģ":7174,"dharaá¹ĥ":7175,"Ġpacet":7176,"hetur":7177,"ĠbhartÄģ":7178,"ĠyÅ«yaá¹ĥ":7179,"aá¹ħga":7180,"mÄģká¹£i":7181,"Ġmanta":7182,"sÄģd":7183,"idam":7184,"yasaá¹ĥ":7185,"saÃ±jÃ±Äģ":7186,"Ġbata":7187,"vacanÄģ":7188,"an":7189,"Ġaá¹ħgÄģ":7190,"daha":7191,"peká¹£ya":7192,"Ġguá¹ĩaá¸¥":7193,"karmÄģá¹ĩi":7194,"á¹£yam":7195,"pravá¹Ľt":7196,"Ġdadha":7197,"dharmeá¹ĩa":7198,"ĠdÅ«á¹£ayati":7199,"jyante":7200,"niá¹£pa":7201,"Ġvinir":7202,"Ġnirodha":7203,"samÄģpatti":7204,"ĠtatrÄģha":7205,"ĠpanthÄģ":7206,"prasÅ«":7207,"tÄ«rthe":7208,"Ġsarvair":7209,"yatanaá¹ĥ":7210,"bhaviá¹£yati":7211,"daÅĽo":7212,"ĠjÃ±Äģnasya":7213,"Ġantare":7214,"Ġyojayet":7215,"pÄģÅĽa":7216,"ĠvyÄģgh":7217,"rvai":7218,"rave":7219,"navÄģ":7220,"rÄģá¹£á¹Ń":7221,"jau":7222,"veá¹ĩi":7223,"jihvÄģ":7224,"ÅĽatatamo":7225,"Ġniá¹£i":7226,"Ġniá¹£aá¹ĩ":7227,"munÄģ":7228,"ĠprÄģpa":7229,"peká¹£i":7230,"Ġsambhava":7231,"kartavya":7232,"ĠviÅĽvaá¹ĥ":7233,"Ġaprame":7234,"jyata":7235,"tadu":7236,"á¹Ńho":7237,"praá¹ĩÄģ":7238,"trÄģá¹ĩÄģá¹ĥ":7239,"ĠprÄģga":7240,"ĠdevatÄģá¸¥":7241,"Ġvá¹ĽthÄģ":7242,"bÄģndha":7243,"laá¹ħkÄģrÄģ":7244,"ká¹£va":7245,"ĠjÄ«van":7246,"Ġgopa":7247,"tavi":7248,"paá¹ħ":7249,"á¹£asya":7250,"vá¹Ľd":7251,"ĠmahÄģtmanÄģ":7252,"Ġbhuva":7253,"ĠdvitÄ«ye":7254,"yayau":7255,"vabhÄģ":7256,"kava":7257,"Ġcatuá¸¥":7258,"Ġtadvad":7259,"spanda":7260,"ĠÃ":7261,"ĠbÄ«jaá¹ĥ":7262,"vaÅĽÄģt":7263,"loma":7264,"ÅĽÄģd":7265,"vyÄģpi":7266,"Ġdoá¹£o":7267,"siddhaye":7268,"rdi":7269,"irvi":7270,"rambhÄģ":7271,"ÅĽuci":7272,"vará¹ĩanaá¹ĥ":7273,"hÄģd":7274,"Ġadhva":7275,"ĠnÄģgÄģ":7276,"putraá¹ĥ":7277,"á¹£ito":7278,"ĠabhidhÄ«yate":7279,"teva":7280,"ĠdvijÄģ":7281,"Ġvá¹Ľká¹£Äģ":7282,"puá¹ĥga":7283,"devi":7284,"sthitiá¸¥":7285,"rÄģjaá¹ĥ":7286,"yeá¹ĩÄģ":7287,"Ġdhanur":7288,"Ġpibet":7289,"Ġbhaira":7290,"ĠpratipÄģdi":7291,"Ġyukto":7292,"Ġká¹£iptvÄģ":7293,"ĠÄģgne":7294,"sÄģdhyÄģ":7295,"darÅĽanena":7296,"Ġbhavitavyam":7297,"stÄ«r":7298,"rito":7299,"Ġprastu":7300,"pÄģva":7301,"vyÄģpaka":7302,"ĠhÄ«ti":7303,"bhÄģryÄģ":7304,"ĠjajÃ±e":7305,"Ġsmara":7306,"ĠadhunÄģ":7307,"á¹£at":7308,"Ġlabha":7309,"mÄģdÄģya":7310,"ĠviÅĽrÄģ":7311,"pradÄ«":7312,"yinaá¸¥":7313,"ĠpiÅĽÄģ":7314,"samá¹Ľ":7315,"ÅĽuddhaá¹ĥ":7316,"ĠÅĽabde":7317,"Ġsamucca":7318,"Ġapagata":7319,"Ġtamaá¸¥":7320,"Ġkatama":7321,"Ġagnim":7322,"ĠdevÄ«á¹ĥ":7323,"sÄģmarthya":7324,"ruá¹ĥ":7325,"roda":7326,"Ġkin":7327,"Ġbarhi":7328,"nupapatti":7329,"cchÄģyÄģ":7330,"tyuktaá¹ĥ":7331,"Ġripu":7332,"ÅĽuddhÄģ":7333,"mÄģdha":7334,"Ġnan":7335,"sitaá¹ĥ":7336,"á¹ĩitaá¹ĥ":7337,"ĠtÄģma":7338,"á¹ĩÄ«yam":7339,"ĠparamÄģtma":7340,"bhÄģvya":7341,"dhyata":7342,"ceá¹£á¹Ńi":7343,"ÅĽÅ«nyatayÄģ":7344,"hra":7345,"ntarama":7346,"dÄ«ti":7347,"mÄģnasaá¸¥":7348,"nupalabdhi":7349,"ká¹£aá¹ĩe":7350,"doá¹£aá¸¥":7351,"ĠtasmÄģda":7352,"jagmu":7353,"ĠmÄģsi":7354,"sÅ«danaá¸¥":7355,"Ġnaká¹£a":7356,"Ġbhadraá¹ĥ":7357,"Ġpratipat":7358,"nandÄģ":7359,"tpÄģdaá¸¥":7360,"Ġganta":7361,"tmakaá¸¥":7362,"Ġsaá¹ĥská¹Ľta":7363,"daká¹£iá¹ĩÄģ":7364,"Ġala":7365,"mÄģli":7366,"sutÄģ":7367,"yajÃ±Äģ":7368,"saiva":7369,"Ġvaram":7370,"Ġghá¹Ľta":7371,"Ġskandha":7372,"ÅĽyam":7373,"ÅĽas":7374,"kÄģyÄģ":7375,"ukha":7376,"jÃ±ena":7377,"Ġnetra":7378,"kÄģsa":7379,"Ġmala":7380,"rÄ«ci":7381,"ĠnÄģstÄ«":7382,"rasena":7383,"ĠdharmÄģá¹ĩÄģá¹ĥ":7384,"krÅ«":7385,"Ġtanna":7386,"yÄģtrÄģ":7387,"nujÃ±Äģ":7388,"syÄģva":7389,"kaá¹Ńu":7390,"ÅĽamya":7391,"Ġprapa":7392,"nÄ«ta":7393,"Ġkathama":7394,"yasmÄģ":7395,"ntÄ«ti":7396,"ucyate":7397,"Ġká¹ĽpÄģ":7398,"á¹£iá¹ĩaá¸¥":7399,"Ġvá¹ĽddhÄģ":7400,"tasyaiva":7401,"Ġpá¹Ľccha":7402,"á¹£á¹Ńhita":7403,"Ġyuddha":7404,"dhayaá¸¥":7405,"deho":7406,"ÅĽÄģla":7407,"Ġguá¹ĩÄģn":7408,"pathe":7409,"bodhÄģ":7410,"pyupa":7411,"mataá¹ĥ":7412,"kapo":7413,"Ġnaya":7414,"Ġdaá¹ĥ":7415,"ÅĽÅ«nyatÄģyÄģá¹ĥ":7416,"Ġahani":7417,"teá¹£Äģm":7418,"tyarthaá¹ĥ":7419,"nyat":7420,"lod":7421,"mÄ«la":7422,"Ġhetva":7423,"ĠdarÅĽanaá¹ĥ":7424,"Ġlikhi":7425,"prÄģptÄģ":7426,"Ġtá¹ĽtÄ«ya":7427,"bhaviá¹£ya":7428,"vaha":7429,"ÅĽinÄ«":7430,"ÅĽravaá¹ĩa":7431,"cakraá¹ĥ":7432,"petaá¹ĥ":7433,"kÄģraka":7434,"pratiá¹£edhaá¸¥":7435,"Ġhaá¹ĥsa":7436,"sp":7437,"mukhena":7438,"ĠsnÄģnaá¹ĥ":7439,"Ġveditavyam":7440,"vaiÅĽaá¹ĥpÄģyana":7441,"Ġviprati":7442,"prakÄģrÄģ":7443,"ĠgÅ«":7444,"Ġ@":7445,"Ġkavi":7446,"á¸įya":7447,"ĠgrÄ«":7448,"á¹ģ":7449,"nivarta":7450,"dhyante":7451,"ĠvaÅĽÄ«":7452,"tÅ«nÄģá¹ĥ":7453,"ĠbrÅ«yÄģt":7454,"ktas":7455,"gamÄģt":7456,"ÅĽÄģstre":7457,"puá¹Ńe":7458,"ĠmahÄģbhÄģga":7459,"Ġphaá¹Ń":7460,"padaá¸¥":7461,"dÄģv":7462,"ĠsarvajÃ±atÄģ":7463,"samaya":7464,"khilaá¹ĥ":7465,"rá¹£ayaá¸¥":7466,"Ġliá¹ħgÄģ":7467,"jvara":7468,"nija":7469,"puraá¸¥":7470,"Ġravi":7471,"ĠÅĽÄ«r":7472,"bhai":7473,"ÅĽÅ«nyatÄģá¹ĥ":7474,"mitraá¹ĥ":7475,"ĠcÄģva":7476,"Ġká¹Ľá¹£á¹ĩo":7477,"yukti":7478,"dvÄģra":7479,"ĠvÄ«ryavÄģn":7480,"cane":7481,"traá¸¥":7482,"ĠjÃ±eyam":7483,"jagat":7484,"sÄģká¹£i":7485,"Ġbhavato":7486,"tarau":7487,"ÅĽritÄģá¸¥":7488,"á¹ħguá¹£á¹Ńha":7489,"ndriyaá¹ĥ":7490,"ĠasyÄģá¸¥":7491,"rajaá¸¥":7492,"dhÄģraá¹ĩaá¹ĥ":7493,"pusta":7494,"ĠjalÄģ":7495,"Ġpariharati":7496,"dharm":7497,"vayaá¹ĥ":7498,"varte":7499,"kramÄģt":7500,"vrataá¹ĥ":7501,"nadÄ«vÄģ":7502,"á¹£yante":7503,"cati":7504,"Ġspha":7505,"Ġtubhyaá¹ĥ":7506,"samartha":7507,"Ġukto":7508,"ĠmÅ«rdhni":7509,"hau":7510,"vÄģso":7511,"á¹£itam":7512,"ghaá¹ŃÄģ":7513,"Ġbhiká¹£Å«":7514,"ndram":7515,"Ġsvataá¸¥":7516,"Ġvyaá¹ħgya":7517,"viÅĽeá¹£eá¹ĩa":7518,"Ġutpadyate":7519,"ndho":7520,"tapo":7521,"catuá¸¥":7522,"ĠpratÄ«ti":7523,"revÄģ":7524,"Ġche":7525,"ccho":7526,"vacane":7527,"apra":7528,"tirya":7529,"bhÄģá¹£ya":7530,"rÄģh":7531,"Ġanyasya":7532,"grahaá¹ĩÄģ":7533,"ĠapaÅĽya":7534,"ĠkÅ«á¹Ńa":7535,"ista":7536,"tayor":7537,"vadhÅ«":7538,"danti":7539,"ĠtataÅĽca":7540,"Ġjapet":7541,"ĠyathÄģkramam":7542,"dá¹Ľá¹£á¹Ńe":7543,"ĠstÅ«":7544,"á¹ĩÄ«ti":7545,"ĠpaÃ±cama":7546,"rÄģjaá¸¥":7547,"ĠpraviÅĽa":7548,"Ġparu":7549,"noda":7550,"Ġsarvasattva":7551,"Ġpuruá¹£e":7552,"ĠvivÄģ":7553,"mivÄģ":7554,"duryodha":7555,"vidhinÄģ":7556,"daká¹£iá¹ĩa":7557,"dÄģsÄ«":7558,"saá¹ĥyogÄģ":7559,"Ġmatiá¸¥":7560,"kasmÄģt":7561,"ÅĽrayam":7562,"sÅ«ká¹£":7563,"rddhi":7564,"ĠyajÃ±o":7565,"nayana":7566,"ĠasmÄģn":7567,"kÄģnu":7568,"yus":7569,"Ġrasaá¹ĥ":7570,"jitÄģá¸¥":7571,"ghaá¹Ńi":7572,"Ġyuddhaá¹ĥ":7573,"kÄ«rta":7574,"Ġbhagavann":7575,"irÄģ":7576,"kyam":7577,"vaiva":7578,"ĠparipÄģ":7579,"ĠanuttarÄģá¹ĥ":7580,"Ġsidhya":7581,"ĠdhyÄģtvÄģ":7582,"ĠchÄģyÄģ":7583,"bhedaá¹ĥ":7584,"Ġnirá¹ĩa":7585,"vyÄģpa":7586,"ĠanÅ«":7587,"ÅĽcitta":7588,"Ġagniá¹ĥ":7589,"Ġatas":7590,"vitÄģá¸¥":7591,"Ġbhadanta":7592,"ĠprÄģá¹ĩÄģn":7593,"raá¹ĩÄģni":7594,"grÄģhi":7595,"puá¹ĥsa":7596,"ĠtÄģÃ±":7597,"ÅĽiá¹£ya":7598,"ramahÄģ":7599,"ĠtasyÄģpi":7600,"Ġká¹£Ä«ra":7601,"ká¹£arÄģ":7602,"ĠnÄģnyathÄģ":7603,"not":7604,"ÅĽcatur":7605,"yamÄģá¹ĩÄģ":7606,"dvija":7607,"saá¹ĥyutam":7608,"dhÄģne":7609,"nyÄģyena":7610,"Ġdiká¹£u":7611,"vartata":7612,"manas":7613,"hÄģrÄ«":7614,"tÄģvat":7615,"Ġpayaá¸¥":7616,"Ġbhau":7617,"dhÄģtuá¸¥":7618,"muhÅ«r":7619,"thiá¸¥":7620,"ÅĽruta":7621,"ĠabhÅ«d":7622,"agnir":7623,"Ġevama":7624,"yamya":7625,"tathÄģca":7626,"Ġtayo":7627,"Ġmanma":7628,"ká¹£araá¹ĥ":7629,"Ġsthiti":7630,"ĠparÄģmá¹Ľ":7631,"peká¹£ate":7632,"ĠvinÄģÅĽa":7633,"rabdha":7634,"gaja":7635,"bhÄģá¹£Äģ":7636,"bale":7637,"ĠmÄģá¹ĥsa":7638,"yaja":7639,"evama":7640,"kalpya":7641,"ĠabravÄ«d":7642,"nityÄģ":7643,"ntato":7644,"Ġsvatantra":7645,"prÄģpto":7646,"kteá¸¥":7647,"skara":7648,"tadyathÄģ":7649,"ĠapramÄģ":7650,"niro":7651,"Ġkamala":7652,"netyarthaá¸¥":7653,"ĠjÄģtaá¹ĥ":7654,"ĠjÃ±Äģne":7655,"ĠkulaputrÄģ":7656,"Ġahar":7657,"ĠvarÄģnane":7658,"ĠnyÅ«":7659,"ĠmadhyÄģ":7660,"ĠÅĽiká¹£Äģ":7661,"divÄģ":7662,"meve":7663,"Ġraká¹£Äģ":7664,"tamapi":7665,"ĠdvÄģra":7666,"ĠdeÅĽayati":7667,"pitÄģá¸¥":7668,"bhÄģti":7669,"Ġityuk":7670,"ĠdharmÄģtmÄģ":7671,"kramo":7672,"rÄģs":7673,"Ġitare":7674,"dvÄģdaÅĽa":7675,"viÅĽeá¹£Äģt":7676,"ĠpÄģrthiva":7677,"Ġsnigdha":7678,"á¹ĩyaá¸¥":7679,"ttad":7680,"á¹£Ä«á¹ĩÄģá¹ĥ":7681,"krÄ«á¸įa":7682,"pÄģá¹Ńa":7683,"ĠsugrÄ«":7684,"vá¹ĽddhÄģ":7685,"Ġká¹Ľti":7686,"vratÄģ":7687,"ĠkadÄģci":7688,"Ġpratiá¹£á¹ŃhÄģpa":7689,"ĠaÅĽeá¹£a":7690,"ĠvÄģva":7691,"Ġmumu":7692,"Ġbodhisattvaá¸¥":7693,"cceti":7694,"tade":7695,"laká¹£ma":7696,"bhipre":7697,"Ġsaá¹ĥprati":7698,"vá¹Ľtaá¹ĥ":7699,"ĠjÄ«vo":7700,"Ġaca":7701,"syÄģpya":7702,"Ġsusaá¹ĥ":7703,"ĠÅĽabdÄģrtha":7704,"rabha":7705,"nÄģhaá¹ĥ":7706,"Ã±jaliá¸¥":7707,"Ġká¹£amÄģ":7708,"ĠrÄģká¹£asa":7709,"takÄģ":7710,"ĠsarvapÄģpa":7711,"Ġjagataá¸¥":7712,"ĠprajÄģnÄģti":7713,"prÄģptaá¹ĥ":7714,"Ġal":7715,"vina":7716,"Ġpraá¹ĩÄ«":7717,"ĠpÄģpÄ«":7718,"ratnaá¹ĥ":7719,"ĠgrahÄ«":7720,"tathatÄģ":7721,"ikena":7722,"iveti":7723,"ryathÄģ":7724,"gniá¸¥":7725,"bhyante":7726,"Ġmá¹Ľt":7727,"samudra":7728,"dharmya":7729,"ĠkÄģntÄģ":7730,"prÄģá¹ĩi":7731,"bhÄ«ma":7732,"ĠparamÄģá¹ĩu":7733,"ĠmaheÅĽvaraá¸¥":7734,"Ġprayacchati":7735,"locanaá¸¥":7736,"yÄģvÄģ":7737,"pratam":7738,"Ġná¹Ľá¹ĩÄģm":7739,"mÄģá¹ĩi":7740,"Ġdyau":7741,"ĠkÄģnta":7742,"pariá¹ĩÄģma":7743,"Ġbindu":7744,"Ġpá¹ĽthivÄ«á¹ĥ":7745,"bhinir":7746,"ĠÅĽaÅĽÄģ":7747,"pá¹Ľá¹£á¹Ńha":7748,"Ġyukti":7749,"Ġvrataá¹ĥ":7750,"Ġagniho":7751,"ĠanÄ«":7752,"Ġmedi":7753,"ĠkuÅĽalamÅ«":7754,"asaá¹ĥ":7755,"ĠÅĽuá¹£":7756,"dhÅ«pa":7757,"ĠpraviÅĽya":7758,"kuÅĽalamÅ«":7759,"yy":7760,"vikra":7761,"á¹£á¹ŃÄģnÄģá¹ĥ":7762,"vicitra":7763,"Ġnivartate":7764,"bhÅ«r":7765,"Ġviá¹£ayaá¸¥":7766,"Ġgaura":7767,"ghi":7768,"vila":7769,"cakrÄģ":7770,"nirodha":7771,"bhakta":7772,"metad":7773,"tasmÄģn":7774,"Ġdeyaá¹ĥ":7775,"udra":7776,"Ġvapuá¸¥":7777,"Ġbharatará¹£abha":7778,"ká¹£ye":7779,"citrÄģ":7780,"Ġsamartha":7781,"mÄ«yate":7782,"netrÄģ":7783,"lÄģyÄģá¹ĥ":7784,"ĠyajÃ±aá¹ĥ":7785,"gá¹ĽhÄ«tÄģ":7786,"ĠnarÄģdhipa":7787,"niá¹£edha":7788,"yudhiá¹£á¹Ńhira":7789,"irma":7790,"Ġsaá¹ĥsthÄģ":7791,"soma":7792,"mittÄģ":7793,"prÄģptaá¸¥":7794,"ĠyajÃ±asya":7795,"anyÄģ":7796,"Ġtiá¹£á¹Ńhanti":7797,"Ġmanasikar":7798,"nasaá¹ĥ":7799,"yÄģda":7800,"bhaktyÄģ":7801,"ĠmÅ«á¸įha":7802,"bodhinÄ«":7803,"atro":7804,"rasaá¸¥":7805,"Ġmayo":7806,"ntaro":7807,"stathaiva":7808,"tyeka":7809,"ĠÅĽaktiá¸¥":7810,"Ġkaunte":7811,"ĠÅĽaá¹ĥsa":7812,"tyupasthÄģ":7813,"rÅ«á¹ĩÄģá¹ĥ":7814,"grantha":7815,"Ġvanam":7816,"tasyÄģá¹ĥ":7817,"santÄģ":7818,"ĠsatÄģá¹ĥ":7819,"ĠsakalÄģ":7820,"tyÄģdau":7821,"Ġtyaja":7822,"yatrÄģ":7823,"á¹Ľá¹£i":7824,"ĠpradhÄģnaá¹ĥ":7825,"Ã±cu":7826,"vargaá¸¥":7827,"ndre":7828,"ĠmÄģhÄģt":7829,"Ġkiá¹ĥci":7830,"ntaramÄģha":7831,"Ġsadyo":7832,"ĠvidvÄģ":7833,"mitti":7834,"rvar":7835,"Ġgatir":7836,"ĠsutÄģ":7837,"ÅĽeá¹£e":7838,"bhÄģvÄģdi":7839,"ĠbhavitÄģ":7840,"ĠyojanÄģ":7841,"Ġkartavyaá¸¥":7842,"Ġviá¹£aá¹ĥ":7843,"maá¹ĩá¸įalam":7844,"sÄģmarthyÄģ":7845,"lyena":7846,"Ġval":7847,"dehi":7848,"ttadÄģ":7849,"Ġdari":7850,"sÄģmagrÄ«":7851,"Ġvá¹Ľtta":7852,"ÅĽabdaá¹ĥ":7853,"saá¹ĥskÄģrÄģ":7854,"Ġkulaputro":7855,"Ġgrahaá¹ĩam":7856,"ktu":7857,"caran":7858,"jas":7859,"ĠÅĽÅ«la":7860,"ĠpÅ«jÄģá¹ĥ":7861,"hato":7862,"Ġcyu":7863,"Ġamá¹Ľta":7864,"á¹ĩá¹Ń":7865,"Ġasiddha":7866,"vitaá¹ĥ":7867,"ĠvibhÄģva":7868,"ká¹£yaá¹ĥ":7869,"ká¹£yati":7870,"Ġrathaá¹ĥ":7871,"Ġpitur":7872,"ptau":7873,"ĠÅĽÄģrÄ«":7874,"Ġmá¹ĽgÄģ":7875,"Ġtiá¹£á¹Ńhe":7876,"Ġdvand":7877,"rvÄ«":7878,"ĠsÄģrva":7879,"yamÄģá¹ĩe":7880,"ĠsahakÄģri":7881,"paryantaá¹ĥ":7882,"Ġstriyaá¸¥":7883,"ranu":7884,"hÄģá¹ĥ":7885,"Ġyava":7886,"bhayam":7887,"Ġutpatti":7888,"ÅĽvarÄģá¸¥":7889,"tathÄģhi":7890,"padye":7891,"gatvÄģ":7892,"dÄģnÄ«m":7893,"Ġetasya":7894,"Ġsvam":7895,"vyÄģpya":7896,"ÅĽÅ«nyÄģ":7897,"ĠvÄģsanÄģ":7898,"hitasya":7899,"das":7900,"ĠmahÄģya":7901,"mantaá¸¥":7902,"Ġvacana":7903,"ĠviÅĽuddha":7904,"digdha":7905,"Ġvalla":7906,"ĠniyamÄģ":7907,"thitaá¹ĥ":7908,"cchanda":7909,"ĠÄ«ÅĽvara":7910,"Ġdvya":7911,"Ġvisar":7912,"Ġmahyaá¹ĥ":7913,"ĠkaÅĽya":7914,"dyamÄģna":7915,"Ġdá¹Ľá¹£á¹Ńo":7916,"Ġlabhet":7917,"vabhÄģsa":7918,"krÄģmati":7919,"Ġsaumya":7920,"Ġsru":7921,"á¹ĩá¸įena":7922,"ĠÅĽuddhaá¹ĥ":7923,"Ġsthitiá¸¥":7924,"Ġkariá¹£yÄģmi":7925,"ÅĽaila":7926,"veá¹£á¹Ńa":7927,"jÃ±Ä«":7928,"siddho":7929,"Ġjane":7930,"Ġupade":7931,"sambandhi":7932,"ĠprÄģpto":7933,"viha":7934,"dadÄģ":7935,"miÅĽra":7936,"ĠtÄģmra":7937,"ĠÅĽuciá¸¥":7938,"ĠasÄģv":7939,"niÅĽÄģ":7940,"vÄģsinaá¸¥":7941,"ĠsarasvatÄ«":7942,"tka":7943,"Ġbudhaá¸¥":7944,"brahmaá¹ĩo":7945,"ĠÅĽreá¹£á¹Ńha":7946,"daraá¸¥":7947,"ÅĽaÅĽ":7948,"ĠpravÄģ":7949,"Ġvaá¹ĥÅĽa":7950,"ĠkÄģka":7951,"Ġrau":7952,"paramÄģá¹ĩu":7953,"Ġamba":7954,"Ġkare":7955,"phalo":7956,"Ġvrrsá¹ŃÄ«":7957,"Ġsaro":7958,"Ġdyo":7959,"sutaá¸¥":7960,"kalpayet":7961,"kÄģlo":7962,"Ġyastu":7963,"á¹ħghri":7964,"ĠsahasrÄģ":7965,"Ġviá¹£á¹ĩuá¹ĥ":7966,"hatyÄģ":7967,"rÄģdhya":7968,"mÄģlya":7969,"Ġmaraá¹ĩaá¹ĥ":7970,"Ġvede":7971,"ÅĽraddhÄģ":7972,"ĠpÅ«jayet":7973,"ĠÅĽrÄģddha":7974,"Ġudya":7975,"saá¹ĥbhavaá¸¥":7976,"ĠÅĽÄģntÄģ":7977,"á¹£á¹Ńuá¹ĥ":7978,"dattvÄģ":7979,"Ġsveda":7980,"gatas":7981,"rudrÄģ":7982,"ĠÅĽÄģstre":7983,"gnaá¹ĥ":7984,"Ġdivaá¹ĥ":7985,"Ġpaká¹£Äģ":7986,"ĠsvÄģdhyÄģ":7987,"sukham":7988,"ÅĽÅ«nyatÄģyÄģ":7989,"rÄģgÄģ":7990,"Ã±cid":7991,"Ġheto":7992,"ĠmÅ«rdha":7993,"'m":7994,"vapi":7995,"ĠprÄģtaá¸¥":7996,"ÅĽur":7997,"rÅ«p":7998,"bhÄģvam":7999,"pattra":8000,"Ġmá¹Ľá¹£Äģ":8001,"trÄ«á¹ĥ":8002,"vÄģdinaá¸¥":8003,"Ġsahasraá¹ĥ":8004,"khena":8005,"saá¹ĥsthÄģ":8006,"ĠsthÄģna":8007,"pataye":8008,"ĠpÄģramitÄģ":8009,"ĠpÅ«rvokta":8010,"yasmin":8011,"Ġbhakta":8012,"ĠvÄģru":8013,"dehaá¸¥":8014,"ĠbÄģndha":8015,"bhujÄģ":8016,"dakaá¹ĥ":8017,"ĠyaÅĽaá¸¥":8018,"rthatvÄģt":8019,"viá¹£ayam":8020,"ĠcÅ«":8021,"tyÅ«":8022,"ĠvyÄģpa":8023,"tatrÄģpi":8024,"Ġcandrama":8025,"lÄģna":8026,"Ġdayi":8027,"ĠtÄģbhyÄģá¹ĥ":8028,"Ġghaá¹Ńo":8029,"ĠprajÄģyate":8030,"ĠÅĽÅ«nyatayÄģ":8031,"samanvitam":8032,"ĠtadyathÄģpi":8033,"vÃ¢":8034,"raká¹£Äģ":8035,"same":8036,"bhaja":8037,"ttataá¸¥":8038,"lite":8039,"ĠpÄģtra":8040,"ĠsvabhÄģvo":8041,"ĠvÄ«ká¹£ya":8042,"ĠmÄģnavaá¸¥":8043,"gami":8044,"ĠsamÅ«":8045,"ÅĽaá¹ħkyÄģ":8046,"Ġviá¹£á¹ĩoá¸¥":8047,"avÄģ":8048,"arthÄģ":8049,"ktya":8050,"ÅĽastra":8051,"ĠÅĽvÄģ":8052,"má¹ĽtÄģ":8053,"yukte":8054,"Ġdurma":8055,"pÅ«rvam":8056,"vayavÄģ":8057,"tarpa":8058,"niyata":8059,"ĠÅĽma":8060,"ĠÅĽatam":8061,"balam":8062,"dyaiá¸¥":8063,"ĠsÄ«tÄģ":8064,"ĠkuladuhitÄģ":8065,"ugha":8066,"ĠajÃ±Äģ":8067,"á¹£aá¹ĩaá¹ĥ":8068,"tvÄģya":8069,"ĠÄģyur":8070,"Ġjai":8071,"tasmai":8072,"Ġaná¹Ľ":8073,"tmÄģna":8074,"Ġvivar":8075,"á¹£Äģn":8076,"ÅĽÄģnÄģá¹ĥ":8077,"nteá¹£u":8078,"pÄ«ta":8079,"bhÄ«á¹£ma":8080,"devÄģnÄģá¹ĥ":8081,"ÅĽaktiá¸¥":8082,"Ġprabhá¹Ľti":8083,"ĠvaiÅĽÄģra":8084,"ĠsamÄģsÄģdya":8085,"Ġmuku":8086,"já¹Ľm":8087,"ddhá¹Ľ":8088,"rÄģtre":8089,"Ġkruddha":8090,"ĠvirÄģja":8091,"kulÄ«":8092,"ĠupaparÄ«":8093,"ĠÅĽakyam":8094,"ĠhÅ«á¹ĥ":8095,"á¹£aá¹£á¹Ńi":8096,"Ġmadhyam":8097,"hastÄģ":8098,"svapna":8099,"vistÄģ":8100,"nÄģna":8101,"dÄģtta":8102,"duá¸¥khaá¹ĥ":8103,"Ġbhá¹ĽÅĽaá¹ĥ":8104,"ĠhÄ«daá¹ĥ":8105,"sarvÄģkÄģrajÃ±atÄģ":8106,"hyena":8107,"stvaá¹ĥ":8108,"dalÄ«":8109,"hetoá¸¥":8110,"bhuá¸¥":8111,"Ġtrayaá¸¥":8112,"bhÅ«teá¹£u":8113,"vijÃ±Äģnam":8114,"bá¹Ľhas":8115,"kÄģvya":8116,"Ġvigata":8117,"Ġkana":8118,"met":8119,"ĠyÄģá¹ĥ":8120,"tvÄģá¹ĥ":8121,"manasÄģ":8122,"ĠprovÄģca":8123,"á¹£yÄģmÄ«ti":8124,"ĠhovÄģca":8125,"mapya":8126,"paká¹£o":8127,"dag":8128,"niryÄģ":8129,"á¹Ńika":8130,"Ġnaika":8131,"Ġhitam":8132,"sÅ«trÄģ":8133,"Ġindro":8134,"ĠÄģyuá¹£maÃ±":8135,"vija":8136,"gatÄģnÄģá¹ĥ":8137,"puá¹ĩyaá¹ĥ":8138,"nenaiva":8139,"sarvÄģn":8140,"ĠpurastÄģt":8141,"metadavocat":8142,"ĠÅĽÄģradvatÄ«putra":8143,"panaá¹ĥ":8144,"jasÄģ":8145,"ĠprakÄģra":8146,"Ġniyata":8147,"ĠuccÄģ":8148,"Ġtejaá¸¥":8149,"ÅĽá¹Ľá¹ħga":8150,"vyaá¹ħgya":8151,"Ġsarpa":8152,"ĠmÅ«laá¹ĥ":8153,"caraá¹ĩÄģ":8154,"Ġbhayam":8155,"dharmatÄģ":8156,"Ġná¹ĽpÄģ":8157,"candrÄģ":8158,"Ġdvayor":8159,"ĠmahÄģtejÄģ":8160,"ĠanÄģt":8161,"ĠvÄģyuá¸¥":8162,"dá¹Ľá¹£á¹Ńaá¹ĥ":8163,"Ġanvaya":8164,"Ġbhoá¸¥":8165,"ĠdhÄģrmi":8166,"Ġprathamo":8167,"hne":8168,"ĠÅĽivaá¹ĥ":8169,"ĠjarÄģma":8170,"Ġpratiá¹£edha":8171,"anta":8172,"ĠnirvÄģá¹ĩa":8173,"asmin":8174,"ĠÄģcÄģrya":8175,"ĠÅĽam":8176,"sikÄģ":8177,"ĠkÄģnti":8178,"yiá¹£ya":8179,"Ġjina":8180,"á¹£Å«pa":8181,"Ġbhadre":8182,"ĠÅĽaÅĽa":8183,"ĠhastÄģ":8184,"ĠyÄģá¸¥":8185,"Ġbhidyate":8186,"Ġprathame":8187,"tejasÄģ":8188,"ĠadvaidhÄ«":8189,"grataá¸¥":8190,"muku":8191,"Ġdharmam":8192,"dibhir":8193,"ttatra":8194,"Ġdá¹Ľá¹£á¹Ńe":8195,"pÅ«rvakaá¹ĥ":8196,"mÄģrthi":8197,"ĠÅĽodha":8198,"Ġbhagavantam":8199,"viÅĽat":8200,"yutaÅĽata":8201,"jÃ±Äģá¹ĥ":8202,"á¹£Äģá¹ĩa":8203,"Ġpratila":8204,"Ġbhagavad":8205,"Ġsphuá¹Ńam":8206,"samyak":8207,"vaÅĽa":8208,"Ġmaá¹ĥ":8209,"dÄģnÄ«":8210,"jÄģyata":8211,"badhyate":8212,"ÅĽiraá¸¥":8213,"Ġdhair":8214,"bhyarcya":8215,"kaá¹ĩá¹ŃhÄģ":8216,"vicÄģ":8217,"Ġpramu":8218,"vedha":8219,"Ġyuge":8220,"Ġbodhya":8221,"ĠpraÅĽÄģ":8222,"dÄģnena":8223,"ĠpÄģÃ±cÄģ":8224,"Ġbheá¹£a":8225,"Ġmithu":8226,"ĠlÄ«lÄģ":8227,"Ġdraá¹£á¹Ńuá¹ĥ":8228,"Ġindri":8229,"ĠkrÄ«á¸įÄģ":8230,"Ġyudhiá¹£á¹Ńhira":8231,"ĠlabdhvÄģ":8232,"caita":8233,"gatÄģn":8234,"jasya":8235,"Ġdhanam":8236,"Ġgá¹Ľhá¹ĩa":8237,"Ġyathoktaá¹ĥ":8238,"ktÄģni":8239,"ĠtathÄģgatasya":8240,"koá¹Ńa":8241,"ĠdhÄģma":8242,"ĠbrÄģhmaá¹ĩaá¸¥":8243,"ÅĽrÄ«á¸¥":8244,"ĠÃ£":8245,"ĠpitrÄģ":8246,"ĠjÃ±Äģpa":8247,"bodhya":8248,"nanva":8249,"ĠsÄģdhi":8250,"liá¹ħgaá¹ĥ":8251,"ĠpÄģtu":8252,"ĠrÄģjya":8253,"nimittÄģ":8254,"date":8255,"ĠvijÃ±ÄģnÄģ":8256,"Ġgatiá¹ĥ":8257,"Ġnirvá¹Ľ":8258,"yogataá¸¥":8259,"ĠrÄģghava":8260,"ĠnipÄģ":8261,"ĠvyÄģpÄģra":8262,"krÄģntaá¹ĥ":8263,"mÄģrgÄģ":8264,"Ġchando":8265,"ĠvaiÅĽvÄģna":8266,"yÄģsa":8267,"hÄģti":8268,"Ġtasyo":8269,"kÄģÅĽo":8270,"sthasya":8271,"ĠdhyÄģnaá¹ĥ":8272,"kasaá¹ĥ":8273,"traye":8274,"ciraá¹ĥ":8275,"Ġjagmu":8276,"ĠÅĽÅ«drÄģ":8277,"kurvanti":8278,"jha":8279,"tavÄģ":8280,"maiá¸¥":8281,"ĠkarÄģ":8282,"ruvÄģca":8283,"ĠmÄģtu":8284,"Ġtá¹Ľá¹ĩa":8285,"siddhÄģnta":8286,"Ġviá¹£":8287,"Ġetam":8288,"Ġdhatte":8289,"Ġvedha":8290,"Ġpit":8291,"myÄģá¹ĥ":8292,"nÃ¢":8293,"naÅĽca":8294,"mukte":8295,"Ġprema":8296,"kÄģnde":8297,"ĠÅĽarÄ«rÄģ":8298,"khyayÄģ":8299,"yastu":8300,"vá¹Ľká¹£Äģ":8301,"pratyayo":8302,"puruá¹£o":8303,"vartÄ«":8304,"á¹Ńam":8305,"Ġananya":8306,"Ġapare":8307,"ĠvijÃ±Äģnam":8308,"ÅĽukla":8309,"asyÄģ":8310,"vrÄģja":8311,"bhidhÄģna":8312,"má¹Ľdu":8313,"randh":8314,"khyam":8315,"sÄģdhar":8316,"á¹£á¹ĩÄ«á¹ĥ":8317,"ĠÅĽÄģstÄģ":8318,"dvayÄģ":8319,"ĠstrÄ«á¹ĩÄģá¹ĥ":8320,"bhÄģgya":8321,"bhá¹ĽtÄģá¹ĥ":8322,"cchinnÄģ":8323,"dare":8324,"ndÅ«":8325,"guá¹ĩÄģn":8326,"dÄ«ya":8327,"cyeta":8328,"vac":8329,"namiti":8330,"vidaá¸¥":8331,"caye":8332,"divyÄģ":8333,"á¹ĩitam":8334,"Ġityuktam":8335,"Ġsaá¹ĥsÄģre":8336,"Ġkaá¹ĩá¹Ńha":8337,"dÄģri":8338,"ká¹£ito":8339,"Ġkarmaá¹ĩo":8340,"sá¹Ľá¹£á¹Ńi":8341,"Ġpá¹ĽthivyÄģá¹ĥ":8342,"pratiá¹£edha":8343,"iá¹£ajya":8344,"Ġprahá¹Ľ":8345,"Ġprakaraá¹ĩa":8346,"bhÄģá¹ĥ":8347,"ĠparamÄģá¹ĥ":8348,"tapÄģ":8349,"ĠbhÄģve":8350,"Ġbuddhiá¸¥":8351,"mÅ«rti":8352,"nÄģmu":8353,"ĠprasÄ«da":8354,"á¸įhyÄģ":8355,"rÄ«m":8356,"siddhau":8357,"Ġprayatnena":8358,"ĠanÄģdi":8359,"Ġambu":8360,"Ġpatiá¸¥":8361,"Ġmaraá¹ĩa":8362,"kutaá¸¥":8363,"prÄģti":8364,"Ġupalab":8365,"ĠdÄģra":8366,"ĠbÄģá¹ĩa":8367,"ĠsÅ«ryo":8368,"Ġtapasvi":8369,"ĠkuÅĽala":8370,"ĠkvÄģpi":8371,"vare":8372,"tvat":8373,"puá¹ĩyÄģ":8374,"ĠprÄģá¹ĩaá¸¥":8375,"Ġná¹Ľtya":8376,"ratho":8377,"ĠgrÄģma":8378,"ĠsattvÄģá¸¥":8379,"mukhÄģni":8380,"Ġityevaá¹ĥ":8381,"ĠdvijottamÄģá¸¥":8382,"ĠpaÅĽÅ«n":8383,"á¹ĩá¹ĩa":8384,"mÄģsÄģ":8385,"pÄģdaá¹ĥ":8386,"Ġkaá¹Ńhi":8387,"Ġsarga":8388,"ĠvÄģkye":8389,"pá¹Ľthag":8390,"dram":8391,"vastra":8392,"Ġbah":8393,"Ã±janaá¹ĥ":8394,"Ġsthira":8395,"Ġtanni":8396,"pattir":8397,"sanna":8398,"rÄģdhi":8399,"stama":8400,"ĠmedhÄģ":8401,"ÅĽÄģrdÅ«la":8402,"sadá¹ĽÅĽa":8403,"viá¹£á¹ĩo":8404,"mida":8405,"ĠÄģla":8406,"moká¹£Äģ":8407,"Ġbhagavaá¹ĥ":8408,"Ġmantraá¹ĥ":8409,"ká¹£Ä«ra":8410,"Ġkratu":8411,"Ġvirodhaá¸¥":8412,"santa":8413,"Ġpula":8414,"lokasya":8415,"ddhar":8416,"Ġkarmaá¹ĩaá¸¥":8417,"rÅ«pÄģá¹ĩi":8418,"Ġmanasikaroti":8419,"garuá¸įa":8420,"dhanu":8421,"pÅ«rvakam":8422,"nandanaá¸¥":8423,"sari":8424,"cakÄģra":8425,"gara":8426,"Ġjayati":8427,"ĠuttarÄģ":8428,"tasyÄģá¸¥":8429,"dhÄģraá¹ĩÄ«":8430,"á¹ĩá¹Ńha":8431,"tÄģvad":8432,"Ġniá¹£pa":8433,"vyÄģdha":8434,"Ġká¹Ľá¹£á¹ĩaá¸¥":8435,"ĠÄģsÄ«d":8436,"aham":8437,"antaá¸¥":8438,"Ġayo":8439,"ĠsakhÄģ":8440,"vÄ«ryÄģ":8441,"Ġvaká¹£yamÄģá¹ĩa":8442,"Ġasá¹Ľja":8443,"niÅĽci":8444,"Ġpará¹£a":8445,"kut":8446,"ĠÅĽruteá¸¥":8447,"Ġprathamaá¸¥":8448,"cakre":8449,"yÄģÅĽca":8450,"viÅĽuddha":8451,"sÄģraá¹ĥ":8452,"medhÄģ":8453,"ĠhetunÄģ":8454,"rayet":8455,"Ġpuá¹ĩá¸įarÄ«":8456,"deÅĽya":8457,"ĠsÄģttvi":8458,"Ġvarja":8459,"ĠkÄģrye":8460,"pannÄģá¸¥":8461,"rtarÄģá¹£á¹Ń":8462,"nala":8463,"mitye":8464,"bhÄģn":8465,"lokam":8466,"bhÅ«tÄģá¸¥":8467,"rÅ«patayÄģ":8468,"sandhi":8469,"danam":8470,"nÄģmiti":8471,"dhyÄģá¹ĥ":8472,"ruddhaá¹ĥ":8473,"Ġpituá¸¥":8474,"manva":8475,"karaá¹ĩÄģt":8476,"janasya":8477,"Ġmukham":8478,"mupasaá¹ĥ":8479,"lbi":8480,"bhÄģk":8481,"ĠabhijÃ±Äģ":8482,"dÅ«ra":8483,"Ġtasminn":8484,"ĠjÄ«vitaá¹ĥ":8485,"janaá¸¥":8486,"Ġprayogaá¸¥":8487,"ká¹£atri":8488,"á¸įhu":8489,"tantrÄģ":8490,"ÅĽrita":8491,"Ġcatuá¹£":8492,"ĠkÄģryo":8493,"ĠkÄģru":8494,"sÅ«traá¹ĥ":8495,"ĠkÄģryasya":8496,"chanda":8497,"rkarÄģ":8498,"kasmÄģ":8499,"praÅĽa":8500,"paripÄģ":8501,"ĠyuvÄģ":8502,"lyaá¸¥":8503,"yart":8504,"yuktena":8505,"aneka":8506,"ÄģkÄģÅĽa":8507,"vali":8508,"kÄģriá¹ĩaá¸¥":8509,"ĠvasudhÄģ":8510,"nÄģnya":8511,"dhve":8512,"ĠjyÄģ":8513,"sambhava":8514,"pratyayaá¸¥":8515,"ĠpÄ«tvÄģ":8516,"maá¹ĩá¸įale":8517,"tÅ«n":8518,"am":8519,"vidu":8520,"ĠÄģpo":8521,"kuÃ±ja":8522,"ĠguhÄģ":8523,"mÅ«lÄģ":8524,"dhÄģraá¹ĩe":8525,"gá¹Ľhá¹ĩa":8526,"ĠÄģyuá¹£man":8527,"Ġida":8528,"ĠÄģho":8529,"ĠcÄģyaá¹ĥ":8530,"Ġupapadyate":8531,"Ġá¹£aá¸įÄģ":8532,"Ġvraje":8533,"ĠÄģgacchati":8534,"buddhe":8535,"Ġlaukika":8536,"pak":8537,"tÄ«nÄģm":8538,"ĠhitvÄģ":8539,"Ġmriyate":8540,"kuá¹£á¹Ńha":8541,"Ġmanaso":8542,"putrasya":8543,"Ġbhagavanta":8544,"ÅĽreá¹£á¹ŃhÄģ":8545,"Ġarhan":8546,"Ġalam":8547,"rÄģá¹Ń":8548,"nÄģnÄģm":8549,"tÄģrÄģ":8550,"Ġtasmi":8551,"baddhaá¹ĥ":8552,"tyÄģnÄģá¹ĥ":8553,"ÅĽeá¹£i":8554,"ÅĽivÄģ":8555,"pÄģdayati":8556,"Ġjite":8557,"Ġdhruvaá¹ĥ":8558,"Ġgrantha":8559,"hataá¹ĥ":8560,"vedo":8561,"ĠprÄģá¹ĩe":8562,"stana":8563,"ĠbhÅ«r":8564,"ccharÄ«":8565,"Ġcedaá¹ĥ":8566,"vacaá¸¥":8567,"ĠjanÄģrdanaá¸¥":8568,"stÄģn":8569,"Ġgamya":8570,"drÄģva":8571,"Ġá¹ħ":8572,"dÄģsa":8573,"ndya":8574,"sá¹Ľá¹£á¹Ńa":8575,"buddhiá¸¥":8576,"mukhÄģá¸¥":8577,"Ġsaced":8578,"Ġvandi":8579,"nÄ«yÄģt":8580,"Ġhaya":8581,"mohÄģ":8582,"Ġdá¹Ľá¹£á¹Ńam":8583,"tpannaá¹ĥ":8584,"á¸įaá¹ĥ":8585,"ĠyugÄģ":8586,"vacanÄģt":8587,"tamanasi":8588,"uttara":8589,"nanti":8590,"sakala":8591,"yojya":8592,"Ġdehaá¹ĥ":8593,"sthÄģnam":8594,"Ġagnau":8595,"ĠdarÅĽitam":8596,"cchabda":8597,"pÄģtre":8598,"ĠtÄģdÄģt":8599,"á¹ĩot":8600,"ĠvyÄģpya":8601,"ĠsÅ«taá¹ĥ":8602,"ĠÄģditya":8603,"tsya":8604,"á¹£ayÄģ":8605,"á¹£á¹Ńá¹Ľ":8606,"á¹ĩÄ«yaá¹ĥ":8607,"ĠvacanÄģt":8608,"tarka":8609,"granthi":8610,"ĠnÄģrÄģyaá¹ĩa":8611,"lukopa":8612,"bhasya":8613,"ukku":8614,"tyÄģya":8615,"ĠdattÄģ":8616,"Å«rya":8617,"Ġhata":8618,"ĠmÅ«rti":8619,"vadha":8620,"valÄ«":8621,"dik":8622,"yudhÄģ":8623,"bhÅ«á¸¥":8624,"rÅ«patvÄģt":8625,"buddhir":8626,"Ġkaromi":8627,"ntra":8628,"rÄģji":8629,"nÄģgÄģ":8630,"vartya":8631,"Ġhitaá¹ĥ":8632,"mÅ«á¹£Äģ":8633,"ĠdÄ«rghÄģ":8634,"Ġsrota":8635,"há¹Ľtaá¹ĥ":8636,"Ġsattve":8637,"Ġbuddho":8638,"rate":8639,"majja":8640,"kÄģrama":8641,"ÅĽeá¹£eá¹ĩa":8642,"Ġjagato":8643,"Ġbudhaiá¸¥":8644,"Ġsadeva":8645,"riá¸¥":8646,"prabham":8647,"ĠkiÃ±ca":8648,"Ġgovinda":8649,"ĠmahÄ«yate":8650,"tavo":8651,"ĠkÄģmÄģn":8652,"petya":8653,"cchan":8654,"parÄģmarÅĽa":8655,"ĠbhogÄģ":8656,"vrÄ«hi":8657,"raktÄģ":8658,"á¹ĩyate":8659,"gala":8660,"kÄģnÄģm":8661,"prabhÄģva":8662,"sÄģnÄģá¹ĥ":8663,"ĠsarvabhÅ«tÄģnÄģá¹ĥ":8664,"Ġpratisaá¹ĥyuk":8665,"ĠsvÄģtant":8666,"dgÄģ":8667,"muniá¸¥":8668,"vá¹Ľttam":8669,"ĠdarÅĽanÄģt":8670,"duá¸¥khi":8671,"ÅĽleá¹£a":8672,"Ġabhyupa":8673,"ĠsÄģdhÄģraá¹ĩa":8674,"ĠprÄģtar":8675,"Ġlauki":8676,"Ġpaá¹ĥca":8677,"dbhava":8678,"ĠvidhÄ«":8679,"ĠbhÅ«te":8680,"doá¹£o":8681,"Ġsarvaiá¸¥":8682,"ĠsvÄģdu":8683,"ghÄģti":8684,"Ġityanena":8685,"kÄ«á¹ĥ":8686,"ĠvyabhicÄģra":8687,"lma":8688,"tiÅĽaya":8689,"rÅ«á¸įhÄģ":8690,"sinÄ«":8691,"ÅĽrayaá¹ĥ":8692,"ktir":8693,"ĠevÄģnu":8694,"vatÄ«á¹ĥ":8695,"mupÄģdÄģya":8696,"Ġvaruá¹ĩa":8697,"ĠcÄģpa":8698,"svabhÄģvo":8699,"tvÄģdityarthaá¸¥":8700,"dÄģharaá¹ĩam":8701,"Ġgá¹Ľhá¹ĩÄ«":8702,"Ġkenacit":8703,"ĠÅĽaila":8704,"tataÅĽca":8705,"Ġbhaven":8706,"varjitaá¸¥":8707,"Ġcakraá¹ĥ":8708,"ÅĽramaá¹ĥ":8709,"tapaá¸¥":8710,"gatir":8711,"Ġdadh":8712,"á¹ĩika":8713,"Ġciki":8714,"bÄģá¹ĩa":8715,"bÄģdhi":8716,"ÅĽrutya":8717,"tatraiva":8718,"svÄģda":8719,"gÄ«ta":8720,"Ġpaurá¹ĩamÄģ":8721,"prayogÄģ":8722,"Ġtaddhi":8723,"ĠyÄģca":8724,"Ġsamar":8725,"manye":8726,"bhÄģvÄģditi":8727,"saptÄģ":8728,"kÄģs":8729,"ĠpraveÅĽa":8730,"ĠdÄ«ká¹£Äģ":8731,"siddhir":8732,"-\"":8733,"nÄģs":8734,"ttada":8735,"putreá¹ĩa":8736,"Ġdvayoá¸¥":8737,"Ġbodhyam":8738,"ĠÄģyuá¹£mÄģn":8739,"mamÄģ":8740,"ĠsamÄģdÄģ":8741,"ĠgopÄģ":8742,"yÅ«ra":8743,"yadvÄģ":8744,"Ġabhavan":8745,"prakÄģÅĽÄģ":8746,"ĠtÄģla":8747,"Ġkimu":8748,"ĠpratyayÄģ":8749,"khu":8750,"mÄģá¹ĩe":8751,"Ġcarma":8752,"dhÄ«r":8753,"pÄģte":8754,"tmÄģnam":8755,"ĠparameÅĽvara":8756,"saá¹ĥbandhi":8757,"Ġsamanvi":8758,"pratibandha":8759,"nirmi":8760,"mandi":8761,"tÄģnimittÄģ":8762,"virodhÄģt":8763,"Ġvaká¹£yate":8764,"kapha":8765,"Ġpak":8766,"bhaira":8767,"dhÄģtuá¹ĥ":8768,"jÄģto":8769,"rthama":8770,"ĠsÄģda":8771,"syÄģmaá¸¥":8772,"ĠpÄģá¹Ńhaá¸¥":8773,"ĠvÄģkyÄģrtha":8774,"Ġaupa":8775,"ká¹£iptaá¹ĥ":8776,"grahÄģya":8777,"dhyayana":8778,"Ġpá¹Ľth":8779,"nupapattiá¸¥":8780,"samanvitaá¸¥":8781,"ĠsarvÄģkÄģrajÃ±a":8782,"ĠupaparÄ«ká¹£ate":8783,"matÄģá¹ĥ":8784,"pamÄģ":8785,"vÄģá¹ħ":8786,"Ġsaca":8787,"á¹£ati":8788,"bhÄģgÄ«":8789,"vá¹Ľte":8790,"ĠpÄģdaá¸¥":8791,"ĠdadhÄģti":8792,"sru":8793,"ĠvirodhÄģ":8794,"diá¹£á¹Ńaá¹ĥ":8795,"devena":8796,"Ġhuá¹ĥ":8797,"hyÄģá¹ĥ":8798,"tpreká¹£Äģ":8799,"hÄģrya":8800,"Ġprameya":8801,"ĠgavÄģá¹ĥ":8802,"dá¹ĽÅĽyaá¹ĥ":8803,"rÅ«pÄģá¸¥":8804,"Ġvadati":8805,"gaura":8806,"Ġjyotiá¸¥":8807,"ĠvÄģha":8808,"gÄģyat":8809,"ÅĽikÄģ":8810,"guá¹ĩam":8811,"ĠpratyabhijÃ±Äģ":8812,"nyeva":8813,"dyota":8814,"uddha":8815,"nÄģrada":8816,"ĠviÅĽo":8817,"ĠpÄģÅĽa":8818,"Ġniá¹£edha":8819,"vyabhicÄģri":8820,"Ġá¹ħa":8821,"ĠabhÄģá¹£ata":8822,"nitÄģ":8823,"rite":8824,"kÄģna":8825,"Ġito":8826,"vartta":8827,"Ġpriyam":8828,"Ġdhá¹ĽtarÄģá¹£á¹Ń":8829,"gatau":8830,"á¹£aá¹ĩÄģ":8831,"kÄģlam":8832,"dhair":8833,"Ġteno":8834,"ĠlalÄģ":8835,"Ġnirvikalpa":8836,"ĠsukhÄ«":8837,"ĠÄģgataá¸¥":8838,"vyatireka":8839,"hatya":8840,"nÄģr":8841,"niá¹ĥ":8842,"Ġmadhyaá¹ĥ":8843,"dÄģne":8844,"tvamapi":8845,"ĠnirÅ«pa":8846,"Ġdaká¹£a":8847,"stasyÄģ":8848,"Ġetac":8849,"ĠapyÄģ":8850,"yeyam":8851,"bhÄģá¹£e":8852,"cchÅ«":8853,"hastha":8854,"Ġannam":8855,"Ġbhede":8856,"ĠdhÅ«r":8857,"sahi":8858,"bhÅ«á¹£aá¹ĩa":8859,"Ġcetana":8860,"ghnÄ«":8861,"Ġparamo":8862,"Ġgaá¹ħgÄģnadÄ«vÄģ":8863,"Ġpratisaá¹ĥyuktamanasi":8864,"asmÄģ":8865,"sneha":8866,"ropya":8867,"yuge":8868,"lÄģgha":8869,"tyÄģga":8870,"ká¹Ľtau":8871,"Ġpratibandha":8872,"kre":8873,"jaiá¸¥":8874,"diá¸¥":8875,"á¹ħgulÄ«":8876,"labdhÄģ":8877,"ĠsattvÄģn":8878,"ĠhotÄģ":8879,"rÄģjya":8880,"Ġyogaá¸¥":8881,"seno":8882,"Ġtriá¹ĥÅĽa":8883,"dhikaraá¹ĩe":8884,"bhiká¹£u":8885,"ĠvÄģá¹ĥ":8886,"Ġnirasya":8887,"saá¹ĥsar":8888,"lÄģd":8889,"Ġhrasva":8890,"Ġduá¸¥khe":8891,"ĠdharmÄģn":8892,"á¹ħkura":8893,"nimittam":8894,"ĠapagatasarvÄģkÄģrajÃ±atÄģ":8895,"kÄģlÄ«":8896,"Ġtviti":8897,"ĠkrodhÄģ":8898,"jale":8899,"thitÄģ":8900,"ddharmÄģ":8901,"Ġhavi":8902,"ĠavaÅĽyaá¹ĥ":8903,"navasthÄģ":8904,"yÄģca":8905,"Ġvibu":8906,"ĠbhadrÄģ":8907,"badh":8908,"nÄ«va":8909,"stÄģt":8910,"Ġkoá¹ŃÄ«":8911,"Ġprayatnataá¸¥":8912,"viá¹£á¹ŃÄģ":8913,"ttaro":8914,"Ġekasya":8915,"Ġvyavasthitaá¸¥":8916,"Ġcaturtha":8917,"á¹£veva":8918,"gamÄģá¸¥":8919,"ĠprabhÄģva":8920,"bhÄģgi":8921,"Ġsuto":8922,"ĠjÄģnu":8923,"Ġsá¹Ľja":8924,"ĠtÅ«á¹£á¹ĩÄ«":8925,"srÄģ":8926,"nat":8927,"Ġabhavad":8928,"gaiá¸¥":8929,"Ġsarvabuddha":8930,"ÅĽekha":8931,"Ġvaidi":8932,"ĠÅĽÄģr":8933,"ï¾":8934,"dá¹ĽÅĽyÄģ":8935,"Ġlaá¹ħkÄģ":8936,"Ġmá¹Ľta":8937,"ĠgÄģá¹ĥ":8938,"Ġnarakaá¹ĥ":8939,"Ġpratyaká¹£am":8940,"ÅĽravaá¹ĩÄģ":8941,"rÅ«piá¹ĩÄ«":8942,"kÄģá¹ĩá¸įa":8943,"prataá¹ĥ":8944,"hÄ«naá¹ĥ":8945,"cittam":8946,"ĠÅĽirasi":8947,"ká¹£etre":8948,"jaá¹ŃÄģ":8949,"dera":8950,"locanam":8951,"niva":8952,"ĠsvadhÄģ":8953,"tÄģmra":8954,"kalpaá¸¥":8955,"ĠgÄģrha":8956,"Ġsanta":8957,"ká¹£eta":8958,"vaÅĽÄģd":8959,"vÄģsaá¹ĥ":8960,"viÅĽrÄģ":8961,"á¹ĩaÅĽ":8962,"sÄģv":8963,"sÄģva":8964,"Ġraká¹£o":8965,"ĠÅĽakro":8966,"dvitÄ«ya":8967,"tá¹Ŀá¹ĩÄģá¹ĥ":8968,"ÅĽyan":8969,"timi":8970,"Ġnatu":8971,"dhÄģtau":8972,"ÅĽcarya":8973,"phulla":8974,"ĠvidyÄģt":8975,"mna":8976,"ttamaá¹ĥ":8977,"coda":8978,"ĠvÄģcyaá¹ĥ":8979,"ĠrÅ«pÄģá¹ĩi":8980,"priyaá¹ĥ":8981,"ĠgÄģyatrÄ«":8982,"mevo":8983,"ÅĽuá¹£":8984,"ĠyadvÄģ":8985,"kÄģrye":8986,"ityuktvÄģ":8987,"ĠpratÄ«tyasamu":8988,"tatva":8989,"sakta":8990,"uká¹Ľ":8991,"Ġjaá¹ŃÄģ":8992,"pÅ«rá¹ĩaá¹ĥ":8993,"ĠpÅ«rá¹ĩÄģ":8994,"stambha":8995,"Ġsakalaá¹ĥ":8996,"napeká¹£a":8997,"caraá¸¥":8998,"Ġanyatara":8999,"pÅ«rve":9000,"ĠÅĽivam":9001,"ĠÅĽuddho":9002,"adha":9003,"saiá¸¥":9004,"sattamÄģá¸¥":9005,"vidyu":9006,"pÄģnaá¹ĥ":9007,"pÄģá¹ĩá¸įa":9008,"mucya":9009,"ĠÅĽat":9010,"trÄģya":9011,"ĠyÄģtu":9012,"ĠprakÄģÅĽate":9013,"ndhya":9014,"vaÅĽi":9015,"sami":9016,"Ġpareá¹ĩa":9017,"sÄģha":9018,"ĠvyÅ«":9019,"ĠjanmÄģ":9020,"há¹Ľta":9021,"nyÄģdi":9022,"khaá¸į":9023,"ĠdhmÄģ":9024,"Ġtrailokya":9025,"ĠÅĽravaá¹ĩa":9026,"pathÄģ":9027,"rÄ«tyÄģ":9028,"Ġhira":9029,"Ġdraá¹£á¹Ńavyaá¸¥":9030,"Ġsaindha":9031,"ĠcÄģnupalambhayogena":9032,"rato":9033,"jano":9034,"bhaká¹£a":9035,"bahÅ«":9036,"ĠyÄģga":9037,"ĠyathÄģbhÅ«taá¹ĥ":9038,"Ġpitaro":9039,"ĠmÄģyayÄģ":9040,"ĠbhÅ«taá¹ĥ":9041,"vÄģp":9042,"Ġtebhyo":9043,"grahaá¹ĩena":9044,"ĠdhÄģraá¹ĩÄ«":9045,"Ġspaá¹£á¹Ńa":9046,"neá¸¥":9047,"Ġpure":9048,"Ġá¹Ľtu":9049,"jjvala":9050,"priyaá¸¥":9051,"ppalÄ«":9052,"hÄģpi":9053,"Ġaru":9054,"nivá¹Ľt":9055,"ĠÅĽli":9056,"ĠkalpÄģ":9057,"tanma":9058,"naká¹£a":9059,"Ġniras":9060,"ciki":9061,"Ġgatam":9062,"ĠgÄģr":9063,"bhrÄģnti":9064,"Ġabruvan":9065,"samuccaya":9066,"nÄģrÄ«":9067,"manaso":9068,"datto":9069,"dityata":9070,"Ġvará¹£Äģá¹ĩi":9071,"jjana":9072,"ravaá¸¥":9073,"Ġraá¹ĩa":9074,"ĠabhidhÄģ":9075,"pÄģsanÄģ":9076,"spho":9077,"tayoá¸¥":9078,"rahita":9079,"Ġprau":9080,"ĠÄģsthÄģya":9081,"duá¹£á¹Ńa":9082,"ĠvaiÅĽva":9083,"dvÄģdaÅĽÄģ":9084,"Ġsantu":9085,"tiÅĽa":9086,"ĠsÄģva":9087,"Ġgaru":9088,"ĠlajjÄģ":9089,"jÃ±aval":9090,"Ġdik":9091,"varjitam":9092,"tÄģnimittÄģpraá¹ĩi":9093,"',":9094,"ntÄģá¹ĥ":9095,"phe":9096,"layaá¸¥":9097,"ká¹£ayaá¹ĥ":9098,"Ġbalava":9099,"Ġparataá¸¥":9100,"Ġtá¹ĽtÄ«yaá¹ĥ":9101,"ndriyÄģá¹ĩÄģá¹ĥ":9102,"ĠcetanÄģ":9103,"Ġyajeta":9104,"tsar":9105,"patyÄģ":9106,"ĠnidhÄģya":9107,"Ġetau":9108,"bhÄģvÄģda":9109,"ĠkramÄģ":9110,"Ġsukhaduá¸¥kha":9111,"grÄģhaka":9112,"Ġbhaviá¹£yasi":9113,"vidÄģá¹ĥ":9114,"tus":9115,"cite":9116,"tatre":9117,"tadevaá¹ĥ":9118,"pratipaká¹£a":9119,"Ġbhagavat":9120,"sthitau":9121,"Ġpraká¹Ľte":9122,"Ġvaktavyaá¹ĥ":9123,"nakti":9124,"cÄģá¹ĥ":9125,"Ġkusuma":9126,"hetor":9127,"nmatta":9128,"Ġdivase":9129,"ĠyaÅĽasvi":9130,"yÄģpi":9131,"á¹ĩyÄģt":9132,"tasyo":9133,"koÅĽa":9134,"ĠsvÄģrtha":9135,"ktÄģnÄģá¹ĥ":9136,"jvÄģlÄģ":9137,"gamaá¹ĥ":9138,"ĠvikÄģra":9139,"saá¹ĥveda":9140,"meru":9141,"nyasta":9142,"suto":9143,"Ġvaide":9144,"Ġcihni":9145,"ĠpaÃ±camÄ«":9146,"cur":9147,"ÅĽaá¹ħki":9148,"ĠcatvÄģro":9149,"ubha":9150,"Ġtaá¹ĩá¸įu":9151,"ÅĽarÄģ":9152,"ĠnirÅ«":9153,"Ġniá¹£á¹ŃhÄģ":9154,"ĠrÄģmasya":9155,"ĠÅĽÅ«nyaá¹ĥ":9156,"ndhyÄģ":9157,"vá¹Ľá¹£á¹Ńi":9158,"ĠpÄģka":9159,"ĠtÄ«ká¹£á¹ĩa":9160,"mÄģnopa":9161,"grahÄģt":9162,"ÅĽarÄ«raá¹ĥ":9163,"ĠÅĽaktir":9164,"Ġnopapadyate":9165,"gdhe":9166,"yÃ¢":9167,"haret":9168,"santi":9169,"dhyan":9170,"ĠprÄģá¹ħ":9171,"ĠmahÄģmune":9172,"rambhe":9173,"peta":9174,"bÄģdhÄģ":9175,"Ġná¹Ľpo":9176,"manuá¹£ya":9177,"Ġmatsya":9178,"Ġnimittaá¹ĥ":9179,"takÄ«":9180,"ĠkÄģli":9181,"ĠdharmaparyÄģ":9182,"bhiprÄģyaá¸¥":9183,"ĠparyÄģyeá¹ĩa":9184,"Ġbhaviá¹£yatÄ«ti":9185,"Ġsamyaksaá¹ĥbodhim":9186,"âĢ":9187,"Ġadhaá¸¥":9188,"á¸įhe":9189,"Ġsaá¹ĥbandhaá¸¥":9190,"dvÄģre":9191,"hÅ«ya":9192,"Ġadhiá¹£á¹ŃhÄģ":9193,"Ġvaká¹£ye":9194,"piÅĽÄģ":9195,"ĠsurÄģá¸¥":9196,"ĠbhrÅ«":9197,"tÄģvatÄģ":9198,"dhiá¹£á¹ŃhÄģna":9199,"Ġvibhuá¸¥":9200,"ï¾±":9201,"veá¹£á¹Ńi":9202,"Ġkathayanti":9203,"ĠÅĽubhaá¹ĥ":9204,"ĠbhrÄģtÄģ":9205,"niÅĽcaya":9206,"Ġsiddhiá¸¥":9207,"Ġkaru":9208,"Ġkanda":9209,"yuktasya":9210,"samyag":9211,"nati":9212,"vÄģka":9213,"Ġsapat":9214,"dhmÄģ":9215,"cchÄ«":9216,"Ġtimi":9217,"kalpaá¹ĥ":9218,"kÄģá¹ħká¹£i":9219,"gro":9220,"mudÄģ":9221,"ĠmahÄģpurÄģá¹ĩe":9222,"ghrÄģ":9223,"ÅĽrute":9224,"psu":9225,"Ġmagha":9226,"heto":9227,"ĠtÄģv":9228,"Ġpratyayaá¸¥":9229,"ĠskandhÄģ":9230,"dhyu":9231,"veá¹£i":9232,"Ġvá¹Ľttaá¹ĥ":9233,"ÅĽramÄģ":9234,"ĠpÅ«rvavad":9235,"ĠcaturdaÅĽa":9236,"dvÄ«pa":9237,"Ġtre":9238,"á¹ĥá¹£i":9239,"manta":9240,"Ġaá¹ĩu":9241,"Ġkhaá¹ĥ":9242,"ĠdyÄģvÄģ":9243,"sÄģmÄģnyÄģ":9244,"Ġekena":9245,"ntika":9246,"ĠsarvatathÄģgata":9247,"ĠtathÄģhi":9248,"Ġguhya":9249,"khyÄģá¹ĥ":9250,"Ġkimartham":9251,"vÄģntara":9252,"rÅ«patÄģ":9253,"ÅĽyanti":9254,"paryavasÄģ":9255,"gup":9256,"vantya":9257,"dyupa":9258,"sarveá¹£Äģá¹ĥ":9259,"martha":9260,"rÄģtri":9261,"Ġpratyupa":9262,"karmaá¹ĩo":9263,"idÄģnÄ«á¹ĥ":9264,"staá¸¥":9265,"Ġprama":9266,"ĠprakÄģreá¹ĩa":9267,"ĠkÄģá¹£á¹Ńha":9268,"sure":9269,"bhyaÅĽca":9270,"vaiá¹£á¹ĩa":9271,"padyeta":9272,"ĠkÄģryaá¸¥":9273,"ĠvyÄģkhyÄģtam":9274,"ssa":9275,"rÄģmaá¸¥":9276,"Ġnaivaá¹ĥ":9277,"tvasyÄģ":9278,"yitavyaá¹ĥ":9279,"á¹ĩenÄģ":9280,"ktayaá¸¥":9281,"dhyÄģnÄģ":9282,"dyÄģni":9283,"sevi":9284,"khyÄģtaá¹ĥ":9285,"Ġprasanna":9286,"taila":9287,"ĠpurastÄģd":9288,"vet":9289,"pÄģp":9290,"cÄģreá¹ĩa":9291,"samÄģnÄģ":9292,"rthÄģn":9293,"paras":9294,"Ġsadaiva":9295,"bhyam":9296,"Ġehi":9297,"Ġsamut":9298,"vrate":9299,"samudrÄģ":9300,"ĠbhÄ«á¹£ma":9301,"ĠdhÄ«mataá¸¥":9302,"dá¹Ľá¹£á¹ŃÄģnta":9303,"Ġparasparaá¹ĥ":9304,"Ġityupa":9305,"Ġbhagi":9306,"ner":9307,"ĠniÅĽ":9308,"Ġguá¹ĩo":9309,"sphuá¹Ńa":9310,"Ġtiryag":9311,"yatha":9312,"Ġkhi":9313,"ĠmÄģnÄģ":9314,"nnÄģma":9315,"viá¸įa":9316,"tÄģnÄģm":9317,"Ġbhavad":9318,"vyaktaá¹ĥ":9319,"Ġbadh":9320,"dhyai":9321,"ĠlokÄģnÄģá¹ĥ":9322,"ĠdvÄģbhyÄģá¹ĥ":9323,"á¹ħgeá¹£u":9324,"llo":9325,"Ġnandi":9326,"saá¹ĥbhave":9327,"ká¹£epaá¸¥":9328,"rathe":9329,"ĠbuddhÄģnÄģá¹ĥ":9330,"Ġkanya":9331,"ruha":9332,"ĠÄģkÄģÅĽÄģ":9333,"guá¹ĩÄģá¸¥":9334,"ĠlokÄģá¸¥":9335,"ÅĽraye":9336,"ĠsvÄģá¹ĥ":9337,"ĠtÄ«v":9338,"Ġviá¹£á¹ĩor":9339,"Ġá¹ĩi":9340,"Ġahi":9341,"rÄģjyaá¹ĥ":9342,"ĠprasiddhÄģ":9343,"cchasi":9344,"ĠkathitÄģ":9345,"kuryÄģt":9346,"dadarÅĽa":9347,"layo":9348,"Ġvipro":9349,"nuá¹£a":9350,"Ġjapa":9351,"tathe":9352,"ĠjÄģga":9353,"yattu":9354,"Ġnirmi":9355,"ĠkÄ«rta":9356,"kla":9357,"Ġpapraccha":9358,"kÄ«rá¹ĩaá¹ĥ":9359,"ĠdarÅĽitaá¸¥":9360,"tsnÄģ":9361,"tulyaá¹ĥ":9362,"dhikÄģri":9363,"vará¹ĩo":9364,"Ġká¹£aá¹ĩÄģt":9365,"Ġvanaspa":9366,"ÅĽaá¹ħkyÄģha":9367,"dbhavÄģ":9368,"ĠaÃ±ja":9369,"dhim":9370,"stro":9371,"ĠvartamÄģna":9372,"bhedÄģd":9373,"triá¹ĥÅĽad":9374,"patrÄģ":9375,"Ġpraja":9376,"rÄ«ti":9377,"ĠnÄģhaá¹ĥ":9378,"pratisaá¹ĥyuk":9379,"bhoá¸¥":9380,"ĠrÅ«pÄģdi":9381,"Ġbrahme":9382,"sattayÄģ":9383,"yÄģnti":9384,"ĠviÅĽÄģá¹ĥ":9385,"ĠsÄģmÄģnÄģdhikara":9386,"mante":9387,"ĠtanÅ«":9388,"ĠbahÅ«ni":9389,"Ġnakha":9390,"Ġpanna":9391,"Ġmali":9392,"ĠÅĽrau":9393,"Ġniyoja":9394,"prÄģdur":9395,"dravyaá¹ĥ":9396,"ĠÅĽiÅĽu":9397,"stviti":9398,"ĠmÅ«á¹£Äģ":9399,"Ġjanayati":9400,"Ġveditavyaá¸¥":9401,"arju":9402,"Ġviveka":9403,"bdhaá¸¥":9404,"dyÄģá¹ĥ":9405,"ĠyaÅĽca":9406,"Ġdada":9407,"taso":9408,"durÄģ":9409,"tropa":9410,"Ġmanas":9411,"Ġevameva":9412,"ÅĽabdÄģrtha":9413,"Ġpuroá¸įÄģ":9414,"Ä«ÅĽvara":9415,"ĠimÄģ":9416,"pradam":9417,"dÄģm":9418,"ÅĽrayo":9419,"visma":9420,"niveÅĽa":9421,"ĠvÄģá¹ħ":9422,"ĠyÄģvada":9423,"vartante":9424,"mÅ«le":9425,"ĠmÅ«tra":9426,"Ġharim":9427,"Ġsamyaksaá¹ĥbuddhÄģ":9428,"viveka":9429,"vyatirikta":9430,"vivÄģ":9431,"dartha":9432,"Ġitthaá¹ĥ":9433,"ĠnaÅĽyati":9434,"puá¸¥":9435,"há¹Ľá¹ĩu":9436,"ĠjÄģte":9437,"sevÄģ":9438,"dharmasya":9439,"ÅĽritam":9440,"Ġprasajyeta":9441,"niÅĽcayaá¸¥":9442,"Ġsaá¹ĥyuge":9443,"lpaá¹ĥ":9444,"ĠkaÅĽca":9445,"reá¸¥":9446,"ĠÄģp":9447,"ĠÄģsan":9448,"ká¹£etraá¹ĥ":9449,"ĠbÄģdhi":9450,"Ġamá¹Ľtaá¹ĥ":9451,"snigdha":9452,"ĠsaÃ±jÃ±Äģ":9453,"guhya":9454,"ĠdeveÅĽa":9455,"ptasya":9456,"bhyupagame":9457,"deÅĽÄģt":9458,"ĠatrÄģha":9459,"gal":9460,"ĠnÄģmadheyaá¹ĥ":9461,"bandhaá¹ĥ":9462,"Ġghá¹Ľtaá¹ĥ":9463,"mabhisaá¹ĥ":9464,"mÄģhÄģtmya":9465,"bhyupagamÄģt":9466,"svarga":9467,"Ġaá¹ĩ":9468,"jÃ±Äģpa":9469,"sÄģdhane":9470,"dÄģhá¹Ľtam":9471,"Ġhiá¹ĥsÄģ":9472,"ĠtÅ«rá¹ĩaá¹ĥ":9473,"mapa":9474,"bhadrÄģ":9475,"bhavena":9476,"Ġeá¹£Äģm":9477,"rambhaá¸¥":9478,"yitavyam":9479,"prÄģá¹ĩo":9480,"yamÄģha":9481,"sata":9482,"sato":9483,"Ġaká¹£i":9484,"tÄģsÄģá¹ĥ":9485,"Ġicchati":9486,"miá¹£a":9487,"tyaiva":9488,"numÄģnÄģ":9489,"ĠdayÄģ":9490,"ĠhitÄģ":9491,"Ġyoge":9492,"yuktÄģá¸¥":9493,"ĠmandÄģ":9494,"nupapatte":9495,"atÄ«":9496,"mÄģyÄģá¹ĥ":9497,"ĠÅĽyÄģma":9498,"pratyaká¹£Äģ":9499,"Ġtattvataá¸¥":9500,"Ġvá¹Ľttiá¸¥":9501,"Ġbrahmeti":9502,"ÅĽyÄģma":9503,"Ġprasan":9504,"ĠsÄģdá¹ĽÅĽya":9505,"prÄģdhÄģ":9506,"ĠagnÄ«":9507,"rdhe":9508,"mahaá¹ĥ":9509,"bara":9510,"cÄģraá¹ĥ":9511,"yantre":9512,"vidhÄģna":9513,"Ġcaitat":9514,"ĠsamyakprahÄģ":9515,"samavÄģyi":9516,"yaÅĽo":9517,"caritaá¹ĥ":9518,"pÄģtraá¹ĥ":9519,"ĠyathÄģnyÄģ":9520,"jih":9521,"Ġpiá¹ĩá¸įÄģ":9522,"ikadeÅĽa":9523,"Ġtvi":9524,"ntarasya":9525,"Ġmahato":9526,"Ġpreta":9527,"ĠlokadhÄģtau":9528,"tapusta":9529,"Ġada":9530,"carma":9531,"pite":9532,"ĠÅĽreá¹£á¹ŃhÄģ":9533,"ĠpÄģrÅĽve":9534,"vanta":9535,"Ġkruddho":9536,"dÄ«ká¹£Äģ":9537,"ĠlÄģgha":9538,"ĠprajÃ±a":9539,"nyÄģsaá¸¥":9540,"bÄģhya":9541,"ĠjagannÄģ":9542,"ĠprÄģptam":9543,"ĠkuÅĽalaá¹ĥ":9544,"vibhÄģge":9545,"gram":9546,"vicÄģra":9547,"Ġtasthau":9548,"ĠsvÄģheti":9549,"ĠjÃ±eyaá¸¥":9550,"kleÅĽÄģ":9551,"Ġpravá¹Ľttiá¸¥":9552,"tpatteá¸¥":9553,"yatu":9554,"cito":9555,"á¹£á¹ŃakÄģ":9556,"bhÅ«yate":9557,"á¹£á¹ŃÄģn":9558,"jÄ«vÄģ":9559,"bhrÄģnta":9560,"ĠdrÄģ":9561,"á¹ĩÄģnu":9562,"á¹ħko":9563,"ĠÅĽarÄģ":9564,"Ġsvara":9565,"ná¹Ľtya":9566,"Ġmantreá¹ĩa":9567,"nyeti":9568,"Ġharir":9569,"Ġnarake":9570,"á¹£yÄģma":9571,"prakaraá¹ĩa":9572,"heá¹ĩa":9573,"jÃ±ÄģtvÄģ":9574,"ĠmahÄģkaruá¹ĩÄģ":9575,"peá¹£u":9576,"ĠsamÄģdÄģya":9577,"Ġvratam":9578,"ndÄģá¹ĥ":9579,"prastu":9580,"bhiá¹£i":9581,"saá¹ĥbhÄģ":9582,"ĠkÄģmi":9583,"cÄģrÄģt":9584,"mantraá¹ĥ":9585,"Ġkrame":9586,"Ġvardhate":9587,"gaga":9588,"bhiru":9589,"Ġunna":9590,"ĠsÄģtya":9591,"Ġgaruá¸įa":9592,"kalma":9593,"naikÄģnti":9594,"ĠvijÃ±Äģyate":9595,"Ġpuá¹ĥsÄģá¹ĥ":9596,"hlÄģda":9597,"ĠprÄģtipadi":9598,"sakhÄ«":9599,"Ġsauk":9600,"gamam":9601,"á¸įhi":9602,"ĠdeÅĽi":9603,"kintu":9604,"lukÄģ":9605,"ÅĽritaá¹ĥ":9606,"tyena":9607,"Ġkaraá¹ĩaá¹ĥ":9608,"nÄ«ye":9609,"á¹£uá¸¥":9610,"ÅĽuÅĽrÅ«":9611,"Ġá¹Ľtvi":9612,"Ġsaká¹ĽdÄģ":9613,"á¹£yaá¸¥":9614,"dayaá¹ĥ":9615,"á¸įhaá¸¥":9616,"jÄģnu":9617,"ĠÅĽaÅĽva":9618,"syÄģdetat":9619,"kartuá¹ĥ":9620,"ĠprÄģptaá¸¥":9621,"Ġekaika":9622,"viá¹£ayatvÄģt":9623,"ĠbalavÄģn":9624,"Ġá¸¥":9625,"vikalpÄģ":9626,"Ġtana":9627,"dÄģnÄģ":9628,"ĠsarvatrÄģ":9629,"tmana":9630,"bÄģhyÄģ":9631,"dattaá¹ĥ":9632,"caká¹£ate":9633,"gaá¹ĩe":9634,"Ġsumaha":9635,"raá¹ĩaá¸¥":9636,"ĠyajÃ±aá¸¥":9637,"psitam":9638,"matra":9639,"lÄģla":9640,"ĠÅĽeá¹£Äģ":9641,"vadi":9642,"kalaá¹ĥ":9643,"Ġpaá¹ħka":9644,"á¹£á¹Ńhena":9645,"ĠkasyÄģ":9646,"á¹ħgala":9647,"ĠanupÄģyakauÅĽa":9648,"Ġjagati":9649,"Ġuttama":9650,"ĠprÄģmÄģá¹ĩyaá¹ĥ":9651,"yuá¹£maÃ±":9652,"ĠsatyÄģá¹ĥ":9653,"sÄģnu":9654,"ĠÅĽarva":9655,"yitavyaá¸¥":9656,"Ġdá¹Ľá¹£á¹Ń":9657,"ratnÄģ":9658,"Ġnyaset":9659,"ĠdeveÅĽi":9660,"Ġbhartá¹Ľ":9661,"Ġgagana":9662,"Ġapo":9663,"vibhrama":9664,"Ġchu":9665,"ĠnÄģyaá¹ĥ":9666,"Ġsupar":9667,"tveti":9668,"Ġdaká¹£iá¹ĩaá¹ĥ":9669,"Ġtá¹ĽtÄ«ye":9670,"ĠpratÄģpavÄģn":9671,"prakaraá¹ĩe":9672,"dÄģnava":9673,"Ġkaraá¹ĩÄģ":9674,"Ġpratisaá¹ĥvi":9675,"ĠÅĽaktyÄģ":9676,"ĠbrÄģhmaá¹ĩasya":9677,"kurute":9678,"Ġsaá¹ĥhitÄģyÄģá¹ĥ":9679,"nada":9680,"syÄģbhi":9681,"ĠjagrÄģha":9682,"Ġtatheti":9683,"á¹ĩá¸įala":9684,"cchru":9685,"Ġghora":9686,"mÄģnÄ«":9687,"laghu":9688,"ĠsÄģha":9689,"ĠtathÄģca":9690,"Ġtatro":9691,"ÅĽÅ«nyam":9692,"ĠbrÄģhmaá¹ĩe":9693,"Ġmadhuraá¹ĥ":9694,"skandhÄģ":9695,"ĠsanÄģtanaá¸¥":9696,"ayam":9697,"pai":9698,"mÄģá¹ĩo":9699,"lekhÄģ":9700,"ĠÅĽÄģstraá¹ĥ":9701,"Ġasad":9702,"Ġkalpate":9703,"ĠÅĽrÄģddhaá¹ĥ":9704,"Ġdharaá¹ĩÄ«":9705,"ĠmanÄģ":9706,"Ġmeru":9707,"kÄģrikÄģ":9708,"laká¹£aá¹ĩasya":9709,"Ġapye":9710,"Ġmardayet":9711,"skÄģnde":9712,"Ġasam":9713,"viÅĽÄģ":9714,"ĠnatvÄģ":9715,"Ġkaiva":9716,"ĠkÄģÃ±cana":9717,"Ġsamprati":9718,"pÅ«rveá¹ĩa":9719,"lambya":9720,"tarÄģá¹ĥ":9721,"viÅĽÄģra":9722,"ukÅ«":9723,"tÄ«ha":9724,"dÄ«pikÄģ":9725,"Ġviá¹£ama":9726,"Ġbhuvana":9727,"vasati":9728,"Ġsvayameva":9729,"Ġgacchet":9730,"Ġaka":9731,"Ġmatta":9732,"pravá¹Ľtta":9733,"bhÄģgo":9734,"likhi":9735,"dharmÄģá¸¥":9736,"Ġvrata":9737,"dyutiá¸¥":9738,"ĠÅĽÅ«nyatÄģnimittÄģpraá¹ĩi":9739,"dvitÄ«ye":9740,"Ġniyataá¹ĥ":9741,"Ġghaá¹ŃÄģdi":9742,"pÄģdo":9743,"ĠÅĽloka":9744,"kecit":9745,"hÄ«nÄģ":9746,"á¹ŃakÄģ":9747,"ÅĽabdÄģt":9748,"namapi":9749,"utpa":9750,"paá¹Ń":9751,"Ġcaá¹ĩá¸įÄģ":9752,"ká¹£ati":9753,"phalÄģni":9754,"Ġsmá¹Ľtiá¸¥":9755,"ĠnÄ«lÄģ":9756,"cchrutvÄģ":9757,"Ġindraá¸¥":9758,"Ġasati":9759,"dhyÄģtmi":9760,"Ġcihnitapusta":9761,"Ġsyan":9762,"lobha":9763,"tyÄģn":9764,"ĠsvarÅ«pÄģ":9765,"kenÄģ":9766,"ĠparameÅĽvaraá¸¥":9767,"ĠcetasÄģ":9768,"Ġprayujyate":9769,"tÃ¢":9770,"rathaá¹ĥ":9771,"Ġpraka":9772,"praya":9773,"jÃ±Äģya":9774,"puras":9775,"ryasya":9776,"tveno":9777,"ĠÅĽrutyÄģ":9778,"vivaká¹£Äģ":9779,"mÄģtya":9780,"lÄģha":9781,"jÃ±Äģá¸¥":9782,"gÄģá¹ĥ":9783,"ĠparipÅ«ra":9784,"yÄģtmÄģ":9785,"ĠanuttarÄģyÄģá¹ĥ":9786,"ĠÅĽikhÄģ":9787,"Ġká¹£aá¹ĩam":9788,"sthale":9789,"ĠprajÃ±ÄģpÄģramitÄģyÄģ":9790,"iÅĽvaryaá¹ĥ":9791,"ĠabhiprÄģyaá¸¥":9792,"ĠmahÄģyaÅĽÄģá¸¥":9793,"Äģnanda":9794,"ĠÅĽriyÄģ":9795,"ĠsarvapÄģ":9796,"Ġraká¹£i":9797,"tvenaiva":9798,"ghno":9799,"Ġmanuá¹£yÄģá¹ĩÄģá¹ĥ":9800,"vÄģá¹ĩi":9801,"ĠvikalpÄģ":9802,"thÄģá¹ĥ":9803,"hetva":9804,"ĠmÄģsa":9805,"ÅĽira":9806,"sopa":9807,"parÄģá¸¥":9808,"Ġmanasaá¸¥":9809,"Ġprokto":9810,"ĠdvitÄ«yo":9811,"Ġasty":9812,"gá¹Ľhá¹ĩÄ«":9813,"Ġvyatireka":9814,"ktuá¹ĥ":9815,"care":9816,"ĠvidhÄģna":9817,"ĠcÄģsau":9818,"Ġhaste":9819,"Ġcitraá¹ĥ":9820,"Ġgovi":9821,"bodhe":9822,"puruá¹£aá¸¥":9823,"Ġvastuni":9824,"Ġyudhiá¹£á¹Ńhiraá¸¥":9825,"samaá¸¥":9826,"á¹Ńhaá¹ĥ":9827,"vedaá¹ĥ":9828,"saá¹ĥsarga":9829,"ketu":9830,"ĠjÃ±Äģnena":9831,"yÄ«ta":9832,"niá¸¥sá¹Ľ":9833,"Ġpaá¹ħ":9834,"á¹ĩÄģva":9835,"ĠkÄģá¹£á¹ŃhÄģ":9836,"ÅĽiká¹£Äģ":9837,"Ġlaká¹£ya":9838,"Ġveá¹ĩu":9839,"ÅĽrame":9840,"bhuvaá¸¥":9841,"rtheá¹£u":9842,"cchra":9843,"dhá¹Ľk":9844,"ĠvijÃ±Äģya":9845,"Ġká¹£udra":9846,"ĠniÅĽamya":9847,"ddhaá¸¥":9848,"litam":9849,"ĠmahÄģvÄ«":9850,"ká¹£Äģnti":9851,"Ġtisá¹Ľ":9852,"vidhÄģá¸¥":9853,"Ġcaranti":9854,"ÅĽÄģnaá¹ĥ":9855,"ĠmahÄģprÄģ":9856,"smaran":9857,"karmasu":9858,"caká¹£uá¸¥":9859,"saindha":9860,"Ġjagha":9861,"cÄģpa":9862,"udga":9863,"pÄģdÄģnaá¹ĥ":9864,"ĠgirÄģ":9865,"tvaiva":9866,"Ġsomo":9867,"stÄģd":9868,"Ġgautama":9869,"vaktra":9870,"Ġvadet":9871,"ĠlokadhÄģtuá¹£u":9872,"gÄģm":9873,"vor":9874,"ttiá¸¥":9875,"viá¹£aá¸¥":9876,"Ġkarmaá¹ĩÄģá¹ĥ":9877,"Ġpraká¹Ľtiá¸¥":9878,"Ġpurataá¸¥":9879,"Ġanti":9880,"nubhÄģva":9881,"yutÄģ":9882,"ĠetÄģn":9883,"ĠcÄģna":9884,"svasti":9885,"vÄģcaka":9886,"ĠsarvÄģrtha":9887,"ĠÅĽreá¹£á¹Ńhi":9888,"tvÄģva":9889,"jÄģnÄģá¹ĥ":9890,"Ġyuva":9891,"sthÄ«":9892,"Ġkopa":9893,"ĠdhÄģrtarÄģá¹£á¹Ń":9894,"Ġkalau":9895,"mÄģnuá¹£Äģ":9896,"gma":9897,"Ġid":9898,"ĠgavÄģ":9899,"Ġupadi":9900,"nirvá¹Ľ":9901,"ÅĽeá¹£aá¸¥":9902,"ntÄģt":9903,"janaka":9904,"mÄģtro":9905,"vÄģá¹ĥs":9906,"Ġbibha":9907,"balÄģt":9908,"Ġartham":9909,"ĠnavÄģ":9910,"Ġnaá¹£á¹Ńa":9911,"ĠdÄģnava":9912,"pÄ«á¸įÄģ":9913,"vidhÄģnaá¹ĥ":9914,"Ġsiddhaá¸¥":9915,"ĠsnÄģna":9916,"Ġká¹£Ä«raá¹ĥ":9917,"Ġkuladuhi":9918,"gyaá¹ĥ":9919,"yaÃ±":9920,"naká¹£atra":9921,"nÄģthaá¸¥":9922,"lekha":9923,"Ġabhipre":9924,"Ġká¹£aá¹ĩaá¹ĥ":9925,"kÄģÅĽam":9926,"vijÃ±ÄģnÄģ":9927,"mÄģda":9928,"jÄģmi":9929,"irna":9930,"Ġkinna":9931,"á¹ħgasya":9932,"ĠmuktvÄģ":9933,"carÄ«":9934,"tula":9935,"Ġpaká¹£aá¸¥":9936,"uko":9937,"ĠsÄģdhye":9938,"ĠmÄģni":9939,"mantreá¹ĩa":9940,"gandharvÄģ":9941,"caká¹£ur":9942,"Ġratham":9943,"alaá¹ĥ":9944,"pyo":9945,"á¹ĩama":9946,"Ġjalam":9947,"parivar":9948,"Ġgá¹Ľham":9949,"karmaá¹ĩaá¸¥":9950,"Ġpraká¹Ľtir":9951,"Ġugra":9952,"Ġsaá¹ĥsa":9953,"ĠjÄ«vaá¸¥":9954,"ĠsÄģdhanaá¹ĥ":9955,"nasÄģ":9956,"vÄģji":9957,"nÄģrtham":9958,"ritÄģá¸¥":9959,"riá¹ĩÄ«":9960,"Ġsuvar":9961,"ÅĽobhÄģ":9962,"sarvam":9963,"maá¹ĩá¸įalaá¹ĥ":9964,"ĠekÄģdaÅĽa":9965,"Ġsaá¹ħkhyÄģ":9966,"om":9967,"karÄģá¸¥":9968,"jaá¹ħga":9969,"Ġhavir":9970,"ĠbÄģá¹£pa":9971,"samÄģpat":9972,"Ġmá¹Ľtyur":9973,"spha":9974,"ĠkuÃ±ja":9975,"ĠcÄģhaá¹ĥ":9976,"Ġdhanuá¸¥":9977,"svabhÄģvaá¸¥":9978,"Ġvyapadi":9979,"nteti":9980,"Ġsthita":9981,"Ġmahará¹£i":9982,"gacchanti":9983,"kaÅĽca":9984,"gantu":9985,"yugÄģ":9986,"jÃ±ÄģnÄģt":9987,"ÅĽÄģstraá¹ĥ":9988,"ramÅ«":9989,"ĠcikÄ«r":9990,"jitya":9991,"Ġarci":9992,"ĠupÄģya":9993,"ĠÅĽreá¹£á¹Ńhaá¹ĥ":9994,"chÄģyÄģ":9995,"sÄģhasryÄģá¹ĥ":9996,"Ġvivá¹Ľá¹ĩoti":9997,"paye":9998,"Ġpraká¹£Äģ":9999,"ĠimÄģm":10000,"sÄģrtha":10001,"Ġniá¹£a":10002,"jÃ±Äģta":10003,"vá¹ĽndÄģ":10004,"Ġdevadatta":10005,"Ġhoma":10006,"hataá¸¥":10007,"rÄģtrÄģ":10008,"rÄģá¹ĩÄģm":10009,"pÄģsya":10010,"tvarÅ«pa":10011,"ĠnÄģá¸įÄ«":10012,"Ġrajaá¸¥":10013,"Ġciram":10014,"Ġruda":10015,"dá¹Ľá¹£á¹Ńiá¸¥":10016,"ĠparasparÄģ":10017,"greá¹ĩa":10018,"malaá¹ĥ":10019,"dabhi":10020,"ĠsÄģpi":10021,"ĠgacchÄģ":10022,"kinÄ«":10023,"sÄ«ta":10024,"Ġmadhyama":10025,"vasiá¹£á¹Ńhaá¸¥":10026,"Ġvimá¹Ľ":10027,"dhÅ«r":10028,"pÄģyÄģ":10029,"ĠÄģpaá¸¥":10030,"ká¹£ayam":10031,"lamÅ«la":10032,"Ġyoá¹£i":10033,"Ġyuá¹£ma":10034,"tavye":10035,"Ġká¹£aya":10036,"cchedÄģ":10037,"viÅĽeá¹£aá¹ĥ":10038,"yogyatÄģ":10039,"kurvan":10040,"ravya":10041,"Ġsato":10042,"Ġprakaraá¹ĩÄģ":10043,"á¹ĩÄ«yaá¸¥":10044,"Ġvarca":10045,"smaraá¹ĩa":10046,"ĠparamÄģtmÄģ":10047,"ĠsÄģá¹ĥkhya":10048,"matam":10049,"viÅĽve":10050,"Ġvinya":10051,"ĠtÄģrÄģ":10052,"ĠvairÄģg":10053,"budhya":10054,"Ġuttaraá¹ĥ":10055,"Ġbibhra":10056,"ĠÅĽrad":10057,"Ġprayojanaá¹ĥ":10058,"vur":10059,"bhiprÄģya":10060,"ayama":10061,"Ġnair":10062,"praá¹ĩÄ«":10063,"ĠsÄģvi":10064,"ĠcÄģha":10065,"hastaá¹ĥ":10066,"Ã±jarÄ«":10067,"á¹Ŀá¹ĩÄģá¹ĥ":10068,"Ġgrahaá¹ĩaá¹ĥ":10069,"ardha":10070,"ká¹Ľtir":10071,"dhyÄģyasya":10072,"Ġvá¹ĽndÄģ":10073,"vá¹Ľttaá¸¥":10074,"bdhi":10075,"indrÄģ":10076,"kac":10077,"Ġsahi":10078,"jasaá¸¥":10079,"Ġvismi":10080,"mbara":10081,"ĠabhÄģvasvabhÄģva":10082,"ĠpaÅĽcime":10083,"bdhaá¹ĥ":10084,"dhikam":10085,"cÄģla":10086,"tasÅ«":10087,"tá¹Ľá¹ĩa":10088,"ĠÅĽÄģntaá¹ĥ":10089,"Ġdevair":10090,"Ġká¹£ayaá¹ĥ":10091,"Ġkalpyate":10092,"Ġbhiká¹£ur":10093,"Ġsiddhiá¹ĥ":10094,"ÅĽyo":10095,"Ġtapta":10096,"bhayo":10097,"Ġraghu":10098,"manuá¹£yÄģ":10099,"sveda":10100,"saá¹ħg":10101,"ĠÄģÅĽritya":10102,"ryayÄģ":10103,"prÄģyaÅĽ":10104,"Ġsanto":10105,"ĠÄ«ÅĽvaraá¸¥":10106,"nÄģyaka":10107,"Ġvidhivat":10108,"ÅĽaye":10109,"lalÄģ":10110,"ĠvistÄģ":10111,"Ġkathya":10112,"tÄ«n":10113,"Ġjape":10114,"Ġgá¹Ľhá¹ĩÄģ":10115,"vallÄ«":10116,"paÅĽyan":10117,"âĢĺ":10118,"ananta":10119,"ghya":10120,"stÄģá¸¥":10121,"ĠavyÄģ":10122,"cchat":10123,"Ġagha":10124,"viÅĽya":10125,"rudhi":10126,"ĠkÄģá¹ħ":10127,"ÅĽiá¹£á¹Ńa":10128,"Ġceha":10129,"sambandhena":10130,"ÅĽaktir":10131,"vÄģhanaá¸¥":10132,"ĠpitÄģmahaá¸¥":10133,"ĠcandrÄģ":10134,"ĠpÄģti":10135,"Ġyatnena":10136,"myaham":10137,"tpra":10138,"pÄģri":10139,"ká¹£vÄģ":10140,"rodhena":10141,"bhÄģv":10142,"ÅĽvari":10143,"manto":10144,"Ġtadartha":10145,"cchede":10146,"Ġsantaá¸¥":10147,"ĠbruvÄģ":10148,"Ġasthi":10149,"gatyÄģ":10150,"ká¹£aá¹ĩÄģt":10151,"lito":10152,"Ġguá¹ĩÄ«":10153,"Ġroga":10154,"ĠtathatÄģ":10155,"Ġprayokta":10156,"mayam":10157,"ÅĽate":10158,"mityucyate":10159,"Ġvaiva":10160,"ĠvÄģnara":10161,"ĠpÄģá¹Ńa":10162,"dhyÄģye":10163,"ĠÅĽuÅĽrÅ«":10164,"ĠbrÄģhmaá¹ĩaá¹ĥ":10165,"Ġhariá¹ĥ":10166,"kÄģmasya":10167,"pratiá¹£edhÄģ":10168,"ĠsÄģya":10169,"Ġrajo":10170,"ká¹£Äģya":10171,"ĠvyÄģkhye":10172,"myayÄģ":10173,"Ġkasyaci":10174,"Ġpratiá¹£á¹ŃhÄģpya":10175,"ĠrevÄģkhaá¹ĩá¸įe":10176,"andha":10177,"tave":10178,"ĠpayasÄģ":10179,"ĠyadÄ«":10180,"Ġyayuá¸¥":10181,"ĠkanyÄģá¹ĥ":10182,"cÄģre":10183,"ttika":10184,"ravam":10185,"ĠdÄ«yate":10186,"ÅĽarÄ«rÄģ":10187,"ĠpÄģá¹ĩá¸įava":10188,"Ġkhalva":10189,"ĠprakÄ«rtitaá¸¥":10190,"rajo":10191,"thavÄģ":10192,"ĠpatÄģ":10193,"ĠkatamÄģ":10194,"Ġetada":10195,"ĠraktÄģ":10196,"Ġarca":10197,"ttham":10198,"ĠvinaÅĽyati":10199,"ĠkasmÄģd":10200,"nedaá¹ĥ":10201,"ĠcÄģnyÄģ":10202,"tantraá¹ĥ":10203,"pÅ«rvavihÄģra":10204,"Ġviá¹£ayo":10205,"vardhanam":10206,"bhiprÄģyeá¹ĩa":10207,"Ġsaho":10208,"pradaá¸¥":10209,"á¸įhyaá¹ĥ":10210,"Ġdagdha":10211,"tpattau":10212,"Ġtribhir":10213,"Ġcoda":10214,"ĠrÄģjÄģnam":10215,"ĠÅĽraddhayÄģ":10216,"Ġvivaká¹£ita":10217,"vyÄģghra":10218,"saÅĽ":10219,"saÃ±":10220,"vÄģtÄģ":10221,"Ġvimala":10222,"Ġuru":10223,"ĠkÄģni":10224,"ĠsamÄģso":10225,"ĠmÅ«á¸įhÄģ":10226,"cetanÄģ":10227,"ĠbÄģlapriyÄģ":10228,"tapÄģá¸¥":10229,"ravo":10230,"varu":10231,"Ġadhvar":10232,"dehaá¹ĥ":10233,"bhÅ«yo":10234,"bhÅ«tvÄģ":10235,"sed":10236,"sarvapÄģpa":10237,"garbhe":10238,"Ġariá¹ĥ":10239,"imaá¹ĥ":10240,"Ġgaá¹ĥ":10241,"ĠtÄģr":10242,"ĠtÄģny":10243,"ĠprajÄģpati":10244,"Ġcainaá¹ĥ":10245,"Ġpretya":10246,"Ġsvarge":10247,"Ġboddha":10248,"prÄģptau":10249,"ĠrÄģghavaá¸¥":10250,"Ġpoá¹£a":10251,"ĠayÄģ":10252,"vikÄģrÄģ":10253,"dhayo":10254,"Ġyadva":10255,"nirdeÅĽaá¸¥":10256,"ĠsthÄģá¹ĩu":10257,"Ġguá¹ĩaiá¸¥":10258,"ĠkevalÄģ":10259,"tastasya":10260,"dá¹Ľá¹£á¹ŃyÄģ":10261,"aja":10262,"Ġsyu":10263,"Ġpravá¹Ľtta":10264,"roma":10265,"liá¹ĥ":10266,"ĠvaiÅĽya":10267,"ĠÅĽive":10268,"sÄ«á¹ĥ":10269,"Ġliá¹ħgam":10270,"rtÄģ":10271,"uktÄģ":10272,"Äģrya":10273,"nasyÄģ":10274,"ká¹Ľtasya":10275,"Ġkalpe":10276,"Ġdrava":10277,"prÄģptiá¸¥":10278,"Ġuttare":10279,"ĠindrÄģ":10280,"gaá¹ĩaiá¸¥":10281,"prathama":10282,"thena":10283,"uke":10284,"liá¹ħgi":10285,"yathe":10286,"Ġyaduktaá¹ĥ":10287,"ÅĽruteá¸¥":10288,"ĠgautamÄ«":10289,"ĠdhÄ«mÄģn":10290,"caranti":10291,"ĠrÄģká¹£asÄģ":10292,"ĠsaptamÄ«":10293,"haran":10294,"tithi":10295,"syam":10296,"ĠÅĽyÄģmÄģ":10297,"cco":10298,"ĠÅĽatÄģ":10299,"barhi":10300,"pratibimba":10301,"Ġcetaá¸¥":10302,"Ġvega":10303,"ĠÅĽabdena":10304,"ĠÅĽrÄ«mad":10305,"Ġmadhura":10306,"ĠgrahÄģ":10307,"ĠbrÅ«te":10308,"niyamaá¸¥":10309,"kamala":10310,"ĠpradarÅĽi":10311,"ĠpÄģhi":10312,"ĠpÄģtraá¹ĥ":10313,"ĠbhÄģnu":10314,"vÄģdino":10315,"Ġvajraá¹ĥ":10316,"tpÄģdya":10317,"sÄģmarthyÄģt":10318,"aparÄģ":10319,"taá¹ħga":10320,"á¹ħkÄģrÄģ":10321,"cira":10322,"pur":10323,"bhÅ«d":10324,"irvÄģ":10325,"ÅĽoá¹£a":10326,"ĠdevaputrÄģ":10327,"ĠdÄģha":10328,"Ġarthi":10329,"há¹ĽdayÄģ":10330,"jijÃ±ÄģsÄģ":10331,"nanya":10332,"bhimÄģna":10333,"ká¹ĽtÄģá¹ĥ":10334,"ÅĽeá¹£u":10335,"ĠtÄģsu":10336,"dheyam":10337,"Ġsindhu":10338,"pÅ«rá¹ĩe":10339,"Ġá¹£aá¹£á¹Ńi":10340,"ĠbalÄģt":10341,"Ġharer":10342,"Ġdhenu":10343,"ĠjÄģnanti":10344,"hat":10345,"rÄģgya":10346,"ĠmahÄģdeva":10347,"pratipat":10348,"ĠjÄ«vitam":10349,"krÄģnto":10350,"ĠdarÅĽanÄģ":10351,"Ġantareá¹ĩa":10352,"Ġspanda":10353,"veá¹ĩikabuddha":10354,"vaÅĽya":10355,"ÅĽnute":10356,"ĠvadhÅ«":10357,"nÄ«tÄģ":10358,"ÅĽirÄģ":10359,"há¹Ľt":10360,"ĠbÄģdhÄģ":10361,"tantrya":10362,"ĠhutÄģÅĽa":10363,"ĠadhyÄģtmabahirdhÄģ":10364,"Ġvastva":10365,"ĠsÅ«tram":10366,"parame":10367,"Ġmithaá¸¥":10368,"ĠrÄģká¹£ase":10369,"gaá¹ĩá¸įa":10370,"ĠkamalÄģ":10371,"Ġbale":10372,"Ġabhiá¹£i":10373,"ĠevÄģyaá¹ĥ":10374,"ÅĽrÄ«mÄģrkaá¹ĩá¸įeya":10375,"ká¹£Ä«á¹ĩa":10376,"ĠmÄģrgÄģ":10377,"dhvaá¹ĥsa":10378,"Ġkaá¹ĩá¹Ńhe":10379,"styÄģ":10380,"rikta":10381,"lÄģsa":10382,"ĠhatÄģ":10383,"poá¹£a":10384,"janaiá¸¥":10385,"ĠsamudrÄģ":10386,"ĠdarÅĽanam":10387,"ĠhÄ«na":10388,"tiá¹£á¹Ńhe":10389,"cayaá¸¥":10390,"prastÄģ":10391,"ĠÄģÅĽÄģ":10392,"ĠÄģgama":10393,"ĠvÄģrÄģá¹ĩa":10394,"ĠpÄģde":10395,"ĠrÄģgÄģ":10396,"ĠpratipÄģdya":10397,"tadva":10398,"Ġuttaram":10399,"pÅ«jayet":10400,"ĠbravÄ«mi":10401,"ekaá¹ĥ":10402,"sraá¸¥":10403,"vikramaá¸¥":10404,"rÅ«pÄ«":10405,"Ġuktas":10406,"dhyeta":10407,"ĠyajÃ±am":10408,"Ġvasan":10409,"ĠniyatÄģ":10410,"ĠÅĽikhi":10411,"gnaye":10412,"ĠviprÄģá¸¥":10413,"Ġdroá¹ĩa":10414,"Ġsaá¹ĥgrÄģme":10415,"vino":10416,"ĠsÄģr":10417,"Ġsuma":10418,"jÃ±asya":10419,"kila":10420,"nirdeÅĽa":10421,"Ġsmá¹ĽtyupasthÄģ":10422,"ĠÅĽarÄ«ram":10423,"mahará¹£a":10424,"viraha":10425,"yuá¹£mÄģn":10426,"á¹Ńena":10427,"yoÅĽca":10428,"ÅĽvasya":10429,"ĠpÅ«jya":10430,"kvacit":10431,"Ġkimarthaá¹ĥ":10432,"Ġbá¹Ľhat":10433,"Ġatat":10434,"rÄģj":10435,"mÄģvÄģ":10436,"á¸įhya":10437,"syÄģn":10438,"Ġsarvaá¸¥":10439,"ĠmÄģdhu":10440,"ĠsamÄģnÄģ":10441,"ká¹£obha":10442,"tasaá¹ĥ":10443,"Ġsaká¹Ľt":10444,"midam":10445,"tÄ«re":10446,"ĠkÄģmaá¸¥":10447,"Ġtulyaá¹ĥ":10448,"ĠdvÄģtriá¹ĥÅĽa":10449,"Ġsaga":10450,"tÄģsu":10451,"Ġyaj":10452,"Ġsaá¹ĥkhye":10453,"Ġpratiyogi":10454,"Ġvá¹Ľtra":10455,"ĠpadmÄģ":10456,"Ġmaá¹ĩá¸įalaá¹ĥ":10457,"ĠvividhÄģni":10458,"ttam":10459,"nirÄ«":10460,"lÄģbhe":10461,"tman":10462,"dá¹Ľá¸įha":10463,"grahaá¹ĩÄģt":10464,"dhvajaá¸¥":10465,"tarat":10466,"Ġtyakta":10467,"KAIII":10468,"payo":10469,"piá¹ĩá¸įÄģ":10470,"baddho":10471,"vará¹£aá¹ĥ":10472,"ĠsarvakÄģma":10473,"ryÄģdÄģ":10474,"manyu":10475,"Ġtribhiá¸¥":10476,"ghÄģtÄģ":10477,"ĠmÄģá¹ĥsaá¹ĥ":10478,"Ġtailaá¹ĥ":10479,"praviÅĽya":10480,"ĠapramÄģá¹ĩa":10481,"nÄģsÄģ":10482,"gatÄģá¹ĥ":10483,"labhya":10484,"balaá¸¥":10485,"devatÄģá¸¥":10486,"Ġanyena":10487,"Ġapraá¹ĩi":10488,"ĠbhÅ«mir":10489,"tirikta":10490,"plava":10491,"rthatÄģ":10492,"lÄģya":10493,"ĠetÄģá¹ĥ":10494,"puá¹ĩá¸įarÄ«":10495,"Ġanto":10496,"ĠsanÄģtanam":10497,"tÄģtparya":10498,"saraá¸¥":10499,"ÅĽayam":10500,"Ġnaká¹£atra":10501,"Ġyatas":10502,"ĠyÄģvaj":10503,"ĠÅĽakyÄģ":10504,"bhidhÄģnaá¹ĥ":10505,"tÄģvacchedaka":10506,"Ġá¹Ńha":10507,"sauk":10508,"tatheti":10509,"ĠyuddhÄģ":10510,"Ġtrayas":10511,"padmÄģ":10512,"Ġgrahaá¹ĩa":10513,"dvitÄ«yaá¹ĥ":10514,"graheá¹ĩa":10515,"ikya":10516,"kru":10517,"Äģyur":10518,"á¹£á¹ĩe":10519,"vÄģsaá¸¥":10520,"layam":10521,"Ġvihara":10522,"tvÄģbhÄģvÄģt":10523,"Ġpratyabhi":10524,"ĠÅĽoá¹£a":10525,"ĠÅĽá¹Ľá¹ĩoti":10526,"puruá¹£e":10527,"parÄ«ká¹£Äģ":10528,"ÅĽye":10529,"vÄģdena":10530,"daká¹£a":10531,"Ġvidhya":10532,"rohe":10533,"á¹£Äģdi":10534,"gÄģra":10535,"ĠsarvabhÅ«ta":10536,"gotra":10537,"ĠphalÄģni":10538,"Ġekasmin":10539,"Ġtaila":10540,"ĠvijÃ±eyÄģ":10541,"Ġabha":10542,"Ġmataá¹ĥ":10543,"yugaá¹ĥ":10544,"suá¹£u":10545,"guhÄģ":10546,"pá¹Ľá¹£á¹Ńhe":10547,"Ġputram":10548,"punara":10549,"Ġchandasi":10550,"carÄģ":10551,"tÄģá¸įa":10552,"ÅĽakra":10553,"kÄģá¹£á¹Ńha":10554,"Ġpala":10555,"Ġkaá¹Ń":10556,"ĠsÄģmÄģnyÄģ":10557,"ĠpÄģca":10558,"Ġbhavantu":10559,"Ġanubhava":10560,"mitro":10561,"rÅ«pÄģá¹ĥ":10562,"guá¹ĩair":10563,"Ġcaitad":10564,"Ġasaá¹ĥkhye":10565,"ÄģtmÄģnaá¹ĥ":10566,"papÄģta":10567,"á¹ĩyÄģá¸¥":10568,"Ġpuá¹Ńa":10569,"Ġevopa":10570,"ttaraá¸¥":10571,"puá¹ŃÄģ":10572,"kuca":10573,"yÄģmya":10574,"dá¹Ľá¹£á¹Ńir":10575,"aga":10576,"ghena":10577,"hnu":10578,"mayi":10579,"ĠvikÄģrÄģ":10580,"ĠtÄģá¸įa":10581,"petÄģ":10582,"Ġsiddho":10583,"ĠruddhvÄģ":10584,"peká¹£aá¹ĥ":10585,"ratnasamuccaya":10586,"candana":10587,"ÅĽvo":10588,"sÄģdhÄģra":10589,"Ġsaá¹ĥdhyÄģ":10590,"syÄģrtha":10591,"kulaá¸¥":10592,"yino":10593,"psara":10594,"tebhyo":10595,"praká¹Ľta":10596,"ĠrÄģdhÄģ":10597,"Ġtatkasya":10598,"Ġpratipatti":10599,"ĠtrisÄģhas":10600,"ghÄģtaá¸¥":10601,"ĠevÄģsya":10602,"dharmÄģá¹ĩÄģá¹ĥ":10603,"ká¹Ľts":10604,"ĠbahÅ«n":10605,"hriyate":10606,"vÄģdyÄģ":10607,"Ġtajja":10608,"Ġvisá¹Ľ":10609,"Ġpatim":10610,"Ġkaá¹ŃÄģ":10611,"bhita":10612,"lopaá¸¥":10613,"Ġgaá¹ĩe":10614,"hyÄģá¸¥":10615,"ĠatÄ«va":10616,"nukÅ«":10617,"tal":10618,"Ġcaá¹ĩá¸įa":10619,"uká¹£a":10620,"pariá¹£á¹ŃÄģ":10621,"dvÄģraá¹ĥ":10622,"Ġá¹£aá¹£á¹Ń":10623,"siddhiá¹ĥ":10624,"bhrÄģtá¹Ľ":10625,"Ġanyonya":10626,"ĠprakÄģrÄģ":10627,"Ġsamava":10628,"ÅĽubhe":10629,"vratam":10630,"vÄģkyam":10631,"ĠkuÅĽalÄģ":10632,"saá¹ĥyuktaá¸¥":10633,"hantÄģ":10634,"kaÅĽi":10635,"ĠaÅĽru":10636,"hima":10637,"ĠvibhÄģga":10638,"praha":10639,"ĠvÄģtha":10640,"ká¹£ayaá¸¥":10641,"yamÄģnam":10642,"Ġhyu":10643,"mÄģrgeá¹ĩa":10644,"bhá¹Ľtaá¸¥":10645,"ÅĽrÄ«r":10646,"nanve":10647,"anyatra":10648,"Ġpitá¹Ŀn":10649,"ida":10650,"dari":10651,"ÅĽayena":10652,"Ġnabhaá¸¥":10653,"Ġkava":10654,"bhinnaá¹ĥ":10655,"ĠvÄģco":10656,"ĠutÄģ":10657,"á¹£á¹Ńadyum":10658,"kartu":10659,"ÅĽarÄ«re":10660,"tsÄģha":10661,"ĠkutaÅĽcid":10662,"Ġviá¹ĥÅĽati":10663,"Bh":10664,"hno":10665,"ĠkapÄģ":10666,"ká¹Ľtiá¹ĥ":10667,"dundu":10668,"ĠcodanÄģ":10669,"viÅĽiá¹£á¹ŃÄģ":10670,"Ġanupalambha":10671,"Ġnagaraá¹ĥ":10672,"ĠÅĽÄ«lapÄģramitÄģ":10673,"Ġgaá¹ħgÄģnadÄ«vÄģlukopa":10674,"sahitaá¹ĥ":10675,"lakaá¹ĥ":10676,"ĠidÄģnÄ«m":10677,"ĠvidÄģ":10678,"pradaá¹ĥ":10679,"Ġhita":10680,"Ġvyakta":10681,"Ġkathaya":10682,"smara":10683,"Ġtadava":10684,"ĠÄģrabhya":10685,"avidyÄģ":10686,"vaká¹£yÄģmi":10687,"Ã±Äģ":10688,"Ġmame":10689,"sÄģmÄģnÄģdhikara":10690,"á¹ĩitÄģ":10691,"trÄģha":10692,"Ġavyayam":10693,"vyÅ«ha":10694,"sattamaá¸¥":10695,"dagdha":10696,"Ġsaá¹ĥna":10697,"ĠmÄģá¹ĩava":10698,"ĠbhÄģsva":10699,"ká¹£ite":10700,"ĠbÄģdhyate":10701,"ÅĽÅ«nyaá¹ĥ":10702,"Ġsomaá¹ĥ":10703,"ĠkenÄģpi":10704,"gamane":10705,"Ġstuti":10706,"ÄģcÄģ":10707,"Ġprakar":10708,"ĠmÄģlÄģ":10709,"Ġram":10710,"ĠtatraivÄģ":10711,"Ġprathamam":10712,"ĠmÄģnasaá¹ĥ":10713,"ĠputrÄģn":10714,"parÄģyaá¹ĩaá¸¥":10715,"ĠvicÄģraá¹ĩÄģ":10716,"sadá¹ĽÅĽÄģ":10717,"Ġaji":10718,"ĠvicÄģrya":10719,"Ġkaku":10720,"pyanu":10721,"laká¹£aá¹ĩena":10722,"tavyÄģá¸¥":10723,"Ġgarbhe":10724,"anÄģdi":10725,"ĠasyÄģá¹ĥ":10726,"ĠpapÄģta":10727,"ĠÄģdya":10728,"dhÄģma":10729,"Ġsupra":10730,"ĠcÄģtma":10731,"janana":10732,"nandi":10733,"Ġgaur":10734,"vyatirekÄģ":10735,"Ġvipulaá¹ĥ":10736,"ĠtÄģtparya":10737,"ĠanupÄģyakauÅĽalena":10738,"yamu":10739,"talam":10740,"mathÄģ":10741,"rÄģtram":10742,"Ġkhu":10743,"ÅĽanÄģ":10744,"nekÄģ":10745,"homa":10746,"Ġjahi":10747,"á¹£eya":10748,"ĠÅĽrotum":10749,"catvÄģriá¹ĥÅĽa":10750,"Äģdau":10751,"rathaá¸¥":10752,"á¹£viti":10753,"riá¹ĩaá¸¥":10754,"ÅĽcatu":10755,"parihÄģ":10756,"ĠviÅĽeá¹£ya":10757,"ĠdÄģnapÄģramitÄģ":10758,"ĠbhagavÄģá¹ĥs":10759,"ĠkÄģÅĽyapa":10760,"jyaá¸¥":10761,"Ġsajja":10762,"kÄģá¹ĩá¸įe":10763,"pratye":10764,"pÄģtaá¹ĥ":10765,"Ġraká¹£Äģá¹ĥ":10766,"ĠjÃ±Äģnama":10767,"ĠpaÃ±cadaÅĽa":10768,"ĠvÄ«ro":10769,"ĠupÄģsa":10770,"Ġputrasya":10771,"Ġgandhaá¹ĥ":10772,"Ġpatati":10773,"Ġyugapat":10774,"Ġká¹£ipram":10775,"mag":10776,"Ġsaty":10777,"nugraha":10778,"gÄģtra":10779,"ĠpratipÄģ":10780,"Ġsamabhi":10781,"ceá¹£á¹ŃÄģ":10782,"Ġpunarapi":10783,"Ġsphura":10784,"skanda":10785,"yyaá¹ĥ":10786,"sadá¹ĽÅĽaá¹ĥ":10787,"Ġive":10788,"Ġnipu":10789,"á¹£Äģt":10790,"Ġsvasya":10791,"ĠmahÄģbhÄģgÄģ":10792,"ĠtathÄģgataá¸¥":10793,"ká¹£ipati":10794,"Ġityasya":10795,"nandaá¹ĥ":10796,"ĠÅĽreyo":10797,"paá¹ŃÄģ":10798,"Ġastra":10799,"hinÄ«":10800,"Ã±cÄ«":10801,"ramya":10802,"ká¹£ip":10803,"Ġpitaraá¸¥":10804,"siddhiriti":10805,"ĠkurvÄģ":10806,"Ġpriyaá¸¥":10807,"Ġdeveá¹£u":10808,"ĠkeÅĽavaá¸¥":10809,"kapÄģá¹Ńhaá¸¥":10810,"payitvÄģ":10811,"Ġpravarti":10812,"Ġpaca":10813,"dÄģtÄģ":10814,"ĠvasÄģ":10815,"ÅĽcaryaá¹ĥ":10816,"ĠabhÅ«á¹£i":10817,"brÄģhmaá¹ĩÄģ":10818,"ĠpÄģá¹ĩinÄģ":10819,"ÅĽÄģdi":10820,"bhÅ«tas":10821,"kuá¹Ńi":10822,"Ġyogaá¹ĥ":10823,"Ġyogya":10824,"lÄ«yate":10825,"Ġjagatpa":10826,"dharmÄģn":10827,"Ġsaumi":10828,"kroÅĽa":10829,"pasaá¹ĥ":10830,"Ġsanna":10831,"mekÄģ":10832,"meghÄģ":10833,"kiÃ±ci":10834,"snÄģtvÄģ":10835,"prasÄģdÄģ":10836,"Ġvirodhi":10837,"Ġicchasi":10838,"naivÄģ":10839,"Ġvidha":10840,"ĠÄģvantya":10841,"Ġvá¹Ľtaá¸¥":10842,"dhÄ«yata":10843,"Ã±jate":10844,"manasi":10845,"Ġbimba":10846,"daká¹£iá¹ĩe":10847,"catuá¹£":10848,"Ġvasuá¹ĥ":10849,"ĠtrayodaÅĽa":10850,"panti":10851,"viá¹£á¹Ńo":10852,"daÅĽaá¸¥":10853,"Ġviá¹£á¹ĩa":10854,"Ġvari":10855,"á¹£Äģmapi":10856,"vá¹Ľta":10857,"yannÄģha":10858,"parigrahaá¸¥":10859,"ghÅ«":10860,"deÅĽam":10861,"ĠvÄģcam":10862,"ĠvibhÄģá¹£Äģ":10863,"sthÅ«la":10864,"tto":10865,"Ġprayoge":10866,"yoÅĽ":10867,"yutam":10868,"ĠmÄģká¹£i":10869,"ĠpÄģtÄģ":10870,"ĠrÄģmeá¹ĩa":10871,"ÅĽita":10872,"karaá¹ĩena":10873,"ĠpaÅĽyet":10874,"vadati":10875,"á¹£á¹Ńum":10876,"ĠpÄģramÄģrthi":10877,"natti":10878,"mudÄ«":10879,"ĠÅĽayyÄģ":10880,"kÄģrair":10881,"pyata":10882,"ĠÅĽÄģm":10883,"vantu":10884,"samÄģsa":10885,"pÄģdau":10886,"Ġpraká¹ĽtyÄģ":10887,"Ġgauá¹ĩa":10888,"ĠmÅ«rdhÄģ":10889,"ĠgandharvÄģ":10890,"ĠkÄģraá¹ĩena":10891,"dattaá¸¥":10892,"ĠvÄ«ryam":10893,"mÄ«r":10894,"Ġrathe":10895,"pratiá¹£á¹Ńhi":10896,"ĠjÃ±Äģta":10897,"ĠvyÄģsa":10898,"Ġyatnataá¸¥":10899,"Ġtrividhaá¹ĥ":10900,"Ġmaithi":10901,"Ġpuruá¹£Äģrtha":10902,"ĠtÅ«á¹£á¹ĩÄ«á¹ĥ":10903,"irva":10904,"itada":10905,"ÅĽayaá¹ĥ":10906,"kÄģyo":10907,"Ġvipaká¹£a":10908,"pÄģsÄģ":10909,"bhÄģnu":10910,"ĠmahÄģna":10911,"hasti":10912,"Ġmunir":10913,"Ġvá¹Ľá¹£Äģ":10914,"samÄģpatta":10915,"jÃ±eya":10916,"dharmeá¹£u":10917,"ĠmadhurÄģ":10918,"pyan":10919,"paca":10920,"Ġsamo":10921,"prada":10922,"raá¹ĩÄģd":10923,"Ġgotra":10924,"ĠvÄ«rÄģ":10925,"Ġgurur":10926,"sarasva":10927,"saá¹ĥÅĽaya":10928,"nyatara":10929,"stau":10930,"trikÄģ":10931,"ĠanumÄģna":10932,"yamÄģá¹ĩaá¹ĥ":10933,"Ġphalgu":10934,"Ġhá¹Ľá¹£á¹Ńa":10935,"vÄģá¹ĥÅĽ":10936,"khet":10937,"ĠcÅ«rá¹ĩa":10938,"ktÄģá¹ĥ":10939,"krodhÄģ":10940,"ĠÅĽlaká¹£":10941,"tvÄģdya":10942,"Ġpuá¹Ńe":10943,"ĠkÄģye":10944,"tireva":10945,"ĠÅĽrutÄģ":10946,"Ġká¹£etraá¹ĥ":10947,"Ġadi":10948,"dantÄģ":10949,"ĠÄģlokya":10950,"syÄģd":10951,"sthÄģá¸¥":10952,"cittaá¸¥":10953,"Ġdvijottama":10954,"indro":10955,"Ġvidhu":10956,"Ã±je":10957,"ká¹Ľtena":10958,"Ġlag":10959,"tpara":10960,"Ġpá¹Ľá¹£á¹Ńa":10961,"popa":10962,"rthÄģnu":10963,"sann":10964,"viá¹£ayatvaá¹ĥ":10965,"ĠÅĽrotraá¹ĥ":10966,"vatÄ«r":10967,"Ġká¹Ľá¹£á¹ĩasya":10968,"Ġniyamaá¸¥":10969,"ĠprakÄ«rtitÄģá¸¥":10970,"yyÄģá¹ĥ":10971,"Äģgne":10972,"Ġvire":10973,"veÅĽma":10974,"Ġmarma":10975,"Ġvanda":10976,"ĠpÄģya":10977,"Ġhavya":10978,"Ġvá¹Ľá¹ĩÄ«":10979,"Ġdrau":10980,"Ġsaá¹ĥÅĽayo":10981,"ĠprÄ«tyÄģ":10982,"Ġpurato":10983,"Ġspá¹ĽÅĽa":10984,"Ġupadeká¹£yanti":10985,"hÃ¢":10986,"gasya":10987,"ĠviruddhÄģ":10988,"pramukhÄģ":10989,"ĠÄģya":10990,"Ġniyu":10991,"ÅĽitaá¸¥":10992,"sambhavaá¸¥":10993,"Ġmunayo":10994,"ĠmantrÄ«":10995,"sravÄģ":10996,"jagad":10997,"anna":10998,"varaá¸¥":10999,"mutpÄģda":11000,"ĠmahÄģtmanÄģm":11001,"kuá¹ĥ":11002,"koca":11003,"yamÄģá¹ĩo":11004,"yÅ«tha":11005,"Ġdharmeá¹£u":11006,"Ġnyaveda":11007,"Ġjyeá¹£á¹Ńha":11008,"pyam":11009,"Ġaá¹ħgÄ«":11010,"Ġbhavanto":11011,"kÄģraá¹ĩÄģt":11012,"Ġanyaá¹ĥ":11013,"ĠvÄ«raá¸¥":11014,"Ġsatyapi":11015,"ĠÅĽete":11016,"ĠnyÄģyena":11017,"ajÄģ":11018,"kÄģlaá¸¥":11019,"Ġproktaá¸¥":11020,"ĠmÄģrge":11021,"prabha":11022,"Ġucyante":11023,"á¹£Äģd":11024,"ĠpÄģtre":11025,"ĠparivÄģ":11026,"Ġupasaá¹ħkhyÄģ":11027,"ÅĽÄ«lÄģ":11028,"ĠprajÄģnÄģá¹ĥ":11029,"Ġutsa":11030,"ĠsaptadhÄģ":11031,"Ġmitho":11032,"kruddha":11033,"cchÄģdya":11034,"bhedasya":11035,"ĠpÄ«á¸įa":11036,"Ġarthasya":11037,"gdhÄģva":11038,"sraá¹ĥ":11039,"Ì¥":11040,"harÄ«":11041,"hÄģr":11042,"mÄģse":11043,"dadhe":11044,"midama":11045,"dhÄģnena":11046,"Ġraktaá¹ĥ":11047,"subhÅ«tir":11048,"vyaktÄģ":11049,"yenaiva":11050,"Ġbrahmavarca":11051,"ĠkathayÄģmi":11052,"Ġpratyave":11053,"ĠpaÃ±cadhÄģ":11054,"Ġmoká¹£o":11055,"darÅĽÄ«":11056,"ĠpÄģrthivaá¸¥":11057,"bahir":11058,"kurvÄ«ta":11059,"ĠbhÄģá¹£ate":11060,"Ġpraá¹ĩÄģ":11061,"Ġtriá¸¥":11062,"ĠjitvÄģ":11063,"Ġpriyata":11064,"ĠmahÄ«patiá¸¥":11065,"Ġká¹£Ä«á¹ĩa":11066,"ĠrÄģjann":11067,"sÄģrÄģ":11068,"Ġpusta":11069,"ĠkÄģkut":11070,"nÄ«lÄģ":11071,"vÄ«ryaá¹ĥ":11072,"ĠÅĽoca":11073,"puruá¹£aá¹ĥ":11074,"pÄģdÄģne":11075,"ĠekÄģÅĽÄ«ti":11076,"gocaraá¸¥":11077,"cyaá¹ĥ":11078,"rÄģdhÄģ":11079,"Ġvihitaá¹ĥ":11080,"Ġtattvam":11081,"laá¹ĥkÄģra":11082,"svayam":11083,"ĠcidÄģ":11084,"khaá¸¥":11085,"sarvathÄģ":11086,"cched":11087,"vidhiá¹ĥ":11088,"ryÄģt":11089,"ĠprastÄģ":11090,"Ġpaá¹Ńhe":11091,"diá¹£á¹Ńa":11092,"pÄģtaá¸¥":11093,"kará¹ĩÄģ":11094,"á¹£yata":11095,"ÅĽrau":11096,"Ġbhagavati":11097,"tÄģvapi":11098,"Ġká¹£atriyÄģ":11099,"á¹£á¹Ńhas":11100,"cikÄ«r":11101,"guá¹ĩena":11102,"bhuva":11103,"ĠdÅ«re":11104,"Ġtyajet":11105,"ĠrÄģjÃ±Äģá¹ĥ":11106,"bhÄģá¹ĩá¸įa":11107,"ĠnÄģmÄģni":11108,"ĠÅĽarma":11109,"lope":11110,"ĠkirÄ«":11111,"á¹ĩor":11112,"vacanena":11113,"á¹£Ä«t":11114,"bhá¹Ľta":11115,"dyuti":11116,"ntareá¹£u":11117,"kÄģryam":11118,"pratÄ«tya":11119,"Ġparameá¹£á¹Ńhi":11120,"ĠvedÄģnta":11121,"Ġnimittam":11122,"ÅĽamanaá¹ĥ":11123,"Ġtapodha":11124,"yitavyÄģá¸¥":11125,"dÄģyÄģ":11126,"ĠÅĽacÄ«":11127,"ĠkÄģvyÄģ":11128,"Ġtatre":11129,"ĠveÅĽma":11130,"Ġkará¹£a":11131,"ĠÅĽabdaá¹ĥ":11132,"jÄ«vaá¹ĥ":11133,"vÄģkyÄģrtha":11134,"druma":11135,"snÄģnaá¹ĥ":11136,"priye":11137,"ÅĽayyÄģ":11138,"Ġmari":11139,"mito":11140,"heá¹£u":11141,"vargÄģ":11142,"ĠrÄģjÃ±a":11143,"stasmÄģ":11144,"darÅĽayati":11145,"darÅĽanÄģd":11146,"sÅ«yÄģ":11147,"mÄģrgaá¹ĥ":11148,"duá¸¥khe":11149,"vaktrÄģ":11150,"ĠsÄģmÄģnyaá¹ĥ":11151,"divi":11152,"mini":11153,"ĠÄģste":11154,"deyaá¹ĥ":11155,"ĠnÄģsty":11156,"Ġvyayo":11157,"ĠdÄ«pta":11158,"ntareá¹ĩÄģ":11159,"ĠsÅ«ryÄģ":11160,"Ġparvata":11161,"ĠviparÄ«ta":11162,"vaÅĽena":11163,"ĠaÅĽak":11164,"Ġprakalpayet":11165,"parÄģmar":11166,"upasaá¹ĥ":11167,"ĠbhÄģvayet":11168,"dÄģharaá¹ĩaá¹ĥ":11169,"ĠaÅĽvinÄģ":11170,"kvaci":11171,"ghá¹Ľta":11172,"Ġmaitreya":11173,"ĠsrotaÄģ":11174,"gatama":11175,"Ġkho":11176,"Ġprakaá¹Ńa":11177,"ĠprajayÄģ":11178,"Ġit":11179,"Ġvahati":11180,"ĠvÄģso":11181,"balÄ«":11182,"prÄģrtha":11183,"sattvo":11184,"ĠsvÄģmÄ«":11185,"ÅĽrutyÄģ":11186,"ĠbhÅ«miá¹ĥ":11187,"Ġrocate":11188,"iá¹£Äģá¹ĥ":11189,"mÄģá¹ĩaá¸¥":11190,"thau":11191,"Ġvipa":11192,"mite":11193,"bhÅ«tena":11194,"Ġkimapi":11195,"ĠdaÅĽasu":11196,"Ġcitte":11197,"ĠavÄģpnuyÄģt":11198,"ĠbhagavÄģnÄģha":11199,"gdhÄģvabodhinÄ«":11200,"rÄģjena":11201,"nibhÄģ":11202,"devyÄģ":11203,"Ġdhau":11204,"Ġharati":11205,"ĠsamastÄģ":11206,"Ġká¹£atra":11207,"Ġsamyaksam":11208,"ikÄģnti":11209,"ĠbhÅ«tale":11210,"snÄģna":11211,"ĠyasyÄģá¸¥":11212,"Ġbahavaá¸¥":11213,"jahÄģra":11214,"tyau":11215,"rucyate":11216,"Ġrajju":11217,"ĠcÄģtu":11218,"Ġhataá¸¥":11219,"kalpena":11220,"ká¹£epÄģ":11221,"pÄ«á¹Ńha":11222,"Ġná¹Ľá¹ĩÄģá¹ĥ":11223,"siddhaá¸¥":11224,"bhyupe":11225,"ĠanenÄģ":11226,"ĠparamÄģrthataá¸¥":11227,"kapÄģla":11228,"Ġsvo":11229,"jaá¸įa":11230,"trair":11231,"Ġpalla":11232,"Ġyathaiva":11233,"ĠsÄģyaá¹ĥ":11234,"ĠmÄģtaraá¹ĥ":11235,"ĠbaddhÄģ":11236,"ĠbhÅ«teá¹£u":11237,"vá¹Ľtto":11238,"cchÄģda":11239,"kÄ«rá¹ĩÄģ":11240,"tapasÄģ":11241,"samanvÄģ":11242,"cyuta":11243,"Ġdoá¹£Äģá¸¥":11244,"mÄģá¹£a":11245,"mÄģmi":11246,"tulyÄģ":11247,"ĠÄģnu":11248,"ĠniyÄģma":11249,"Ġsutam":11250,"yÄģá¹ĥÅĽ":11251,"kÄģraiá¸¥":11252,"budhyate":11253,"parayÄģ":11254,"jed":11255,"ĠÅĽrÄ«skÄģnde":11256,"ĠpÅ«rvÄģn":11257,"lambanaá¹ĥ":11258,"ĠsiddhÄģnte":11259,"Ġsaká¹ĽdÄģgÄģmi":11260,"ĠcihnitapustakapÄģá¹Ńhaá¸¥":11261,"gdho":11262,"hatvÄģ":11263,"palaá¹ĥ":11264,"paham":11265,"kanya":11266,"ĠsantÄģ":11267,"teno":11268,"Ġtasye":11269,"veá¹ĩu":11270,"Ġkatamaá¸¥":11271,"ká¹Ľá¹£á¹ŃÄģ":11272,"tmako":11273,"Ġanuttamam":11274,"Ġmahará¹£ayaá¸¥":11275,"Ġbhuvaá¸¥":11276,"kuÅĽalÄģ":11277,"bhÅ«miá¹ĥ":11278,"ĠvidhÄģnena":11279,"ĠvÄģsudeva":11280,"pahÄģ":11281,"cama":11282,"gaha":11283,"ĠcaÃ±ca":11284,"dire":11285,"ĠmahÄģsu":11286,"svabhÄģvena":11287,"mÄģnatvÄģt":11288,"gá¹ĽhÄ«to":11289,"kathanaá¹ĥ":11290,"ntÄ«á¹ĥ":11291,"Ġasminn":11292,"kapÄģlaá¹ĥ":11293,"ĠabhÄģvo":11294,"ĠasÄ«ti":11295,"dhanur":11296,"rogÄģ":11297,"bhÄģgaá¸¥":11298,"rthakriyÄģ":11299,"Ġká¹Ľmi":11300,"há¹ĽtÄģ":11301,"Ġlocanam":11302,"Ġdraá¹£á¹ŃÄģ":11303,"gá¹ĽhÄ«tvÄģ":11304,"evÄģ":11305,"smÄ«":11306,"á¹ĩeva":11307,"ĠatrÄģpi":11308,"á¹Ľte":11309,"mÄģsaá¹ĥ":11310,"Ġvihita":11311,"Ġsaá¹ĥyogÄģ":11312,"kurvÄģ":11313,"ĠpratibhÄģsa":11314,"ĠsamÄģá¸¥":11315,"sarvajÃ±a":11316,"Ġphale":11317,"Ġom":11318,"bhauti":11319,"há¹Ľdayaá¹ĥ":11320,"ĠdhyÄģnapÄģramitÄģ":11321,"Ġká¹£ÄģntipÄģramitÄģ":11322,"carita":11323,"lati":11324,"kÄģyÄģá¹ĥ":11325,"Ġbhavatya":11326,"dyÄģna":11327,"mÄģnau":11328,"ratnama":11329,"Ġká¹Ľtsnaá¹ĥ":11330,"lpi":11331,"pyati":11332,"darÄģ":11333,"Ġpratibimba":11334,"ĠyÄģda":11335,"ĠpÅ«rveá¹ĩa":11336,"sahasreá¹ĩa":11337,"palabhya":11338,"Ġpreá¹£a":11339,"Ġdivauka":11340,"yajÃ±o":11341,"savi":11342,"mÄģdhu":11343,"yec":11344,"ĠÄģbhÄģ":11345,"ĠnÄģdhi":11346,"ĠkilÄģ":11347,"Ġvyapade":11348,"rÅ«pÄģya":11349,"ĠmaheÅĽvaram":11350,"Ġniyamena":11351,"rÄģcaram":11352,"patan":11353,"dÄģr":11354,"vattvaá¹ĥ":11355,"budvÄ«":11356,"ĠviÅĽiá¹£yate":11357,"dvitÄ«yÄģ":11358,"ĠekÄģÅĽÄ«tisÄģhasryÄģá¹ĥ":11359,"ivopa":11360,"mno":11361,"ĠadhvÄģ":11362,"tÄģr":11363,"ntarÄ«":11364,"ÅĽÄģni":11365,"Ġratho":11366,"ĠmahÄģyÄģnaá¹ĥ":11367,"ĠmahÄģpurÄģá¹ĩa":11368,"yita":11369,"parÄģnta":11370,"Ġdravi":11371,"Ġaparo":11372,"deÅĽanÄģ":11373,"Ġyathokta":11374,"ĠyogyatÄģ":11375,"ramahÄģsÄģhas":11376,"Ġ`":11377,"paá¹ĩá¸įi":11378,"Ġpla":11379,"ÅĽaÅĽi":11380,"layet":11381,"ĠnÄģyikÄģ":11382,"ÅĽitam":11383,"pariá¹ĩa":11384,"mantha":11385,"Ġsmaran":11386,"Ġutsá¹Ľjya":11387,"ĠÅĽÄ«laá¹ĥ":11388,"ĠgaurÄ«":11389,"ĠvajrÄģ":11390,"dÄ«rghÄģ":11391,"Ġká¹£atriya":11392,"ala":11393,"nanÄģ":11394,"ĠprayogÄģ":11395,"Ġkac":11396,"ĠÄģyata":11397,"tÄ«ya":11398,"Ġgira":11399,"Ġsvato":11400,"tasye":11401,"kará¹£aá¸¥":11402,"Ġyudhya":11403,"cakrame":11404,"cintayat":11405,"ĠvÄ«ryapÄģramitÄģ":11406,"asau":11407,"kye":11408,"ttame":11409,"kart":11410,"Ġpramucyate":11411,"Ġvine":11412,"tyaktvÄģ":11413,"Ġubhe":11414,"ĠbhavatÄģá¹ĥ":11415,"Ġcaivam":11416,"Ġmantro":11417,"Ġviá¹£am":11418,"mÄģá¹ĥsaá¹ĥ":11419,"ĠÅĽeá¹£aá¹ĥ":11420,"ĠpÄ«taá¹ĥ":11421,"tpattir":11422,"pÄģtaka":11423,"Ġtattat":11424,"grya":11425,"ityevaá¹ĥ":11426,"rdhvaá¹ĥ":11427,"yasmÄģt":11428,"carati":11429,"muá¹£á¹Ńi":11430,"Ġjano":11431,"ĠprÄģá¹ĩÄģá¸¥":11432,"sarge":11433,"parÄģÅĽara":11434,"tyor":11435,"ucca":11436,"ĠarÄģ":11437,"á¹ŃvÄģ":11438,"Ġita":11439,"Ġnipati":11440,"Ġdá¹ĽÅĽyÄģ":11441,"Ġparatra":11442,"ĠsthÄģlÄ«":11443,"Ġpareá¹£Äģá¹ĥ":11444,"Ã±jaliá¹ĥ":11445,"ĠÄģvantyakhaá¹ĩá¸įe":11446,"tkará¹£a":11447,"mÄģá¹ĩÄģá¸¥":11448,"Ġsutaá¹ĥ":11449,"ĠcÄģtur":11450,"ĠanantÄģ":11451,"cchedo":11452,"ĠÅĽriyaá¹ĥ":11453,"Ġcatasraá¸¥":11454,"khas":11455,"Ġastv":11456,"Ġsatye":11457,"tÄģtmÄģ":11458,"reá¹ĩu":11459,"yika":11460,"Ġparigá¹Ľhá¹ĩÄģti":11461,"ĠlatÄģ":11462,"ĠgÄģm":11463,"Ġhá¹Ľá¹£Ä«":11464,"Ġguruá¹ĥ":11465,"ĠviÅĽvam":11466,"Ġsiddhir":11467,"ktÄ«":11468,"Ġkart":11469,"deá¹£a":11470,"ĠbhÅ«ya":11471,"ĠanvÄģ":11472,"bÄģlÄģ":11473,"Ġmá¹Ľtaá¹ĥ":11474,"Ġbhiká¹£o":11475,"ghne":11476,"Ġsphurati":11477,"gá¹ĽhÄ«taá¹ĥ":11478,"guruá¸¥":11479,"Ġdaitye":11480,"Ġká¹Ľá¹£á¹ĩe":11481,"ĠÅĽleá¹£ma":11482,"Ġupasaá¹ħkhyÄģnam":11483,"svÄģn":11484,"pÄģrthi":11485,"ĠÄģyuá¸¥":11486,"á¹£Äģya":11487,"Ġhato":11488,"Ġyojana":11489,"Ġpá¹Ľá¹£á¹Ńo":11490,"ĠniÅĽcayaá¸¥":11491,"ĠvicitrÄģ":11492,"ĠaÅĽÄģ":11493,"ĠsakÄģÅĽÄģ":11494,"kalpita":11495,"Ġaparaá¸¥":11496,"ĠbrÄģhmaá¹ĩam":11497,"Ġgá¹ĽhÄ«ta":11498,"pÄģsate":11499,"pÄģramiteyaá¹ĥ":11500,"Ġvivikta":11501,"yaÅĽa":11502,"viparyÄģ":11503,"á¹£aá¸įa":11504,"Ġvitar":11505,"Ġyaccha":11506,"syÄģtma":11507,"Ġsugata":11508,"ĠraÃ±ja":11509,"suta":11510,"ĠsvarÅ«peá¹ĩa":11511,"soá¸¥":11512,"deÅĽakÄģla":11513,"Ġroma":11514,"gandho":11515,"ÄģsÄ«":11516,"hanta":11517,"tÄģbhyÄģá¹ĥ":11518,"ĠbrÄģh":11519,"Ġgataá¹ĥ":11520,"ĠmÄģma":11521,"kulo":11522,"ĠbhÄģryÄģá¹ĥ":11523,"ĠlabdhÄģ":11524,"doá¹£aá¹ĥ":11525,"Ġkartu":11526,"ĠdiÅĽa":11527,"ná¹Ľpa":11528,"ĠbhoktÄģ":11529,"pattiá¹ĥ":11530,"ĠsamantÄģt":11531,"stvÄģ":11532,"tyava":11533,"á¹ĩÄģmapi":11534,"dhikÄģre":11535,"saá¹ĥkalpa":11536,"puá¹ħga":11537,"á¹£ur":11538,"cÄģma":11539,"ĠanayÄģ":11540,"vaikal":11541,"yojayati":11542,"vivarjitaá¸¥":11543,"Ġbá¹Ľhaspatiá¸¥":11544,"jÄ«rá¹ĩa":11545,"riá¹ĥ":11546,"ĠvastrÄģ":11547,"ĠÄģrÅ«pya":11548,"nusÄģreá¹ĩa":11549,"ĠjaghÄģna":11550,"ĠrÄģjye":11551,"vÄ«ti":11552,"bheta":11553,"reá¹ĩaiva":11554,"ĠnÄģmarÅ«pa":11555,"ĠbÄģhye":11556,"ĠÄģhava":11557,"Ġavagamyate":11558,"ĠhrÄ«":11559,"virodhe":11560,"Ġbuddhe":11561,"ĠprÄģdurbhÄģvo":11562,"bhinive":11563,"tatasta":11564,"rapra":11565,"gaá¹ĩÄģá¸¥":11566,"janyÄģ":11567,"dhare":11568,"pÄģá¹Ńha":11569,"dhÄģrmi":11570,"dvayasya":11571,"ĠdiÅĽam":11572,"ĠasmÄģbhir":11573,"ĠjagÄģda":11574,"ĠapÅ«rva":11575,"ĠviparyÄģ":11576,"tÄ«rya":11577,"ĠmÄģse":11578,"grahasthÄģ":11579,"Ġparato":11580,"ĠdharmatÄģ":11581,"á¹ħgÄģnÄģá¹ĥ":11582,"ĠtÄ«vra":11583,"ÅĽá¹Ľá¹ĩ":11584,"Ġimam":11585,"Ġviá¸įa":11586,"ĠkÄģpi":11587,"Ġkub":11588,"keli":11589,"ĠdhÄģrÄģ":11590,"bhá¹Ľt":11591,"gamyÄģ":11592,"dhá¹ĽtarÄģá¹£á¹Ń":11593,"Ġdraá¹£á¹Ńum":11594,"ĠkaÅĽcana":11595,"tayaiva":11596,"Ġsakhe":11597,"ĠvihitÄģ":11598,"jÄģte":11599,"Ġsaá¹ĥcintya":11600,"subha":11601,"viá¹£aá¹ĥ":11602,"Ġkarmasu":11603,"ĠtadabhÄģve":11604,"Ġbhavitumarhati":11605,"viÅĽeá¹£aá¹ĩam":11606,"Ġindu":11607,"paramparÄģ":11608,"ĠÅĽiká¹£itavyaá¹ĥ":11609,"ĠpaÅĽavo":11610,"tayaá¹ĥ":11611,"rÄģmo":11612,"Ġdvaya":11613,"dhará¹£a":11614,"Ġnivá¹Ľtti":11615,"Ġdadá¹Ľ":11616,"vadanti":11617,"ĠkÄģlasya":11618,"ĠÅĽukra":11619,"catura":11620,"Ġprayaccha":11621,"ĠbharadvÄģ":11622,"mÄģneá¹£u":11623,"Ġyatta":11624,"saá¹ĥdhi":11625,"Ġgaveá¹£i":11626,"á¹ĩÄ«ká¹Ľtya":11627,"Ġdura":11628,"ĠsitÄģ":11629,"ĠÅĽaknoti":11630,"ĠprajÄģpatir":11631,"prema":11632,"ĠkathÄģá¹ĥ":11633,"tá¹ĽtÄ«ya":11634,"tumarhasi":11635,"Ġatro":11636,"ĠvimÄģna":11637,"sÄģro":11638,"varmÄģ":11639,"ĠanujÃ±Äģ":11640,"Ġadhikaá¹ĥ":11641,"ĠÄģgaccha":11642,"ĠÅĽÅ«nyam":11643,"Ġvaktá¹Ľ":11644,"tarhi":11645,"rÄģje":11646,"nÄģv":11647,"tÄģram":11648,"rivÄģ":11649,"ĠmadÄģ":11650,"tyanena":11651,"Ġniyo":11652,"nddhe":11653,"litaá¸¥":11654,"kuá¹ħku":11655,"kÄģrakaá¸¥":11656,"Ġanuvartate":11657,"sÅ«ca":11658,"ÅĽrutaá¹ĥ":11659,"nupalambha":11660,"ĠviÅĽeá¹£aá¹ĩam":11661,"Ġnityaá¸¥":11662,"Ġrasasya":11663,"ÅĽrÄģddha":11664,"gocare":11665,"ĠkhyÄģtaá¹ĥ":11666,"Ġsamyaksaá¹ĥbodhimabhisaá¹ĥ":11667,"rba":11668,"vÄģdaá¹ĥ":11669,"niyamo":11670,"ĠmadÄ«":11671,"Ġkaá¹ĥsa":11672,"bhimÄģni":11673,"Å«rdha":11674,"jina":11675,"Ġguá¸įa":11676,"Ġvará¹£e":11677,"Ġpunarva":11678,"ĠtrayÄģá¹ĩÄģá¹ĥ":11679,"á¹£á¹Ńeá¹£u":11680,"ĠmÄģnavÄģá¸¥":11681,"sadbhÄģva":11682,"ĠpitÄģmaha":11683,"Ġbaliá¹ĥ":11684,"nyÅ«":11685,"rhÄģ":11686,"bhrÄģn":11687,"Ġnayana":11688,"Ġvadhya":11689,"tvamupa":11690,"ká¹£aá¹ĩi":11691,"Ġsvayama":11692,"ĠpinÄģ":11693,"Ġpiá¹£á¹ŃvÄģ":11694,"dvayena":11695,"vyoma":11696,"bhartá¹Ľ":11697,"Ġvaruá¹ĩo":11698,"Ġplava":11699,"ĠvaÅĽa":11700,"bhaye":11701,"ĠsudÄģru":11702,"Ġsvalpa":11703,"Ġparivar":11704,"tÄģá¹ĥÅĽ":11705,"Ġbhiká¹£Äģ":11706,"Ġapsu":11707,"ityeva":11708,"mra":11709,"nyu":11710,"pyaá¸¥":11711,"varam":11712,"saptam":11713,"kaá¹Ń":11714,"caá¹ĩá¸įÄģ":11715,"nidhi":11716,"ĠparayÄģ":11717,"lÄ«na":11718,"karaiá¸¥":11719,"ĠprÄģpno":11720,"ĠsthÄģnam":11721,"ĠsthÄģvara":11722,"pará¹ĩÄ«":11723,"ÅĽreá¹£á¹Ńhaá¹ĥ":11724,"ĠkleÅĽÄģ":11725,"paÃ±cÄģÅĽa":11726,"bdho":11727,"tpi":11728,"Ġ(":11729,"ĠmayÅ«":11730,"prabho":11731,"dhÄģraá¹ĩam":11732,"ĠkÄģcit":11733,"Ġduá¹£á¹ŃÄģ":11734,"Ġvegena":11735,"ĠjÃ±Äģti":11736,"Ġbodhisatva":11737,"ĠhetvÄģ":11738,"Ġsaá¹ĥspá¹Ľ":11739,"á¹£oá¸įaÅĽa":11740,"dÅ«r":11741,"yatÄ«":11742,"rahitÄģ":11743,"satyam":11744,"vikrama":11745,"viruddhÄģ":11746,"nÄģá¸įÄ«":11747,"Ġyair":11748,"prayogaá¸¥":11749,"hurÄģ":11750,"ĠprÄģÅĽ":11751,"Ġpitara":11752,"ĠÅĽuka":11753,"bhuvana":11754,"Ġpratyava":11755,"Ġbhoktá¹Ľ":11756,"gaá¹ĩair":11757,"ÅĽravaá¹ĩÄģt":11758,"Ġlekha":11759,"janita":11760,"ĠcÅ«rá¹ĩaá¹ĥ":11761,"tÄģnÄģgata":11762,"tatta":11763,"tÄģyai":11764,"prÄģpa":11765,"ĠbhÅ«yÄģ":11766,"ĠmukhÄģ":11767,"Ġkoá¹Ń":11768,"ĠmahatÄ«":11769,"bim":11770,"ĠanityÄģ":11771,"ĠaÅĽnute":11772,"gocaram":11773,"ĠpraÅĽna":11774,"há¹ĩe":11775,"un":11776,"maraá¹ĩa":11777,"á¹ĩyu":11778,"vÄģru":11779,"ĠamÅ«":11780,"darÄ«":11781,"Ġtatasta":11782,"ukhÄģ":11783,"Ġgul":11784,"kiÃ±cit":11785,"karmaá¹ĩÄģm":11786,"tpÄģdaá¹ĥ":11787,"jÄģtayaá¸¥":11788,"laukika":11789,"dhama":11790,"pÄģto":11791,"ĠvÄģm":11792,"ĠmÄģla":11793,"ĠhanÅ«":11794,"siddham":11795,"phalasya":11796,"garbho":11797,"ĠpaÅĽyasi":11798,"Ġvasati":11799,"haraá¸¥":11800,"riá¹ĩÄģ":11801,"Ġvidur":11802,"kuá¹ŃÄ«":11803,"pratibhÄģsa":11804,"Ġbahubhir":11805,"vyavahÄģrÄģ":11806,"ĠkeÅĽava":11807,"Äģsa":11808,"ĠdyÅ«":11809,"ĠimÄģni":11810,"Ġyaká¹£Äģ":11811,"ĠÅĽlo":11812,"ĠÄģÅĽraya":11813,"ĠÄģÅĽrama":11814,"Ġsaá¹ĥkalpa":11815,"Ġtatsarvaá¹ĥ":11816,"Ġpratipadya":11817,"há¹Ľtam":11818,"Ġyogo":11819,"dvaha":11820,"Ġá¹Ľá¹£Ä«":11821,"ĠasmÄģkam":11822,"ĠtrÄ«n":11823,"kliá¹£á¹Ńa":11824,"ĠdyÄģvÄģpá¹ĽthivÄ«":11825,"rasti":11826,"Ġsaci":11827,"ĠdatvÄģ":11828,"gÄģmÄ«":11829,"dud":11830,"ĠparihÄģ":11831,"Ġhra":11832,"ĠsarvÄģá¹ĥ":11833,"guá¹ĩaiá¸¥":11834,"ĠyuktyÄģ":11835,"ĠbhÄģvayati":11836,"Ġgandho":11837,"dreá¹ĩa":11838,"yacca":11839,"á¹£mi":11840,"vÄģd":11841,"hitya":11842,"nila":11843,"prau":11844,"sÄģdá¹ĽÅĽya":11845,"prÄģk":11846,"dhÅ«ta":11847,"ĠpurÄģá¹ĩa":11848,"ĠkriyÄģá¸¥":11849,"ÅĽatair":11850,"ĠmÄģhÄģtmyaá¹ĥ":11851,"vÄģrÄģ":11852,"Ġsadya":11853,"prameya":11854,"tvamu":11855,"Ġucch":11856,"ĠsarvabhÅ«tÄģ":11857,"Ġdviguá¹ĩaá¹ĥ":11858,"dvidhÄģ":11859,"á¹ĩá¸įikÄģ":11860,"Ġbá¹Ľhad":11861,"ityatra":11862,"saá¹ħka":11863,"vihita":11864,"dhayÄģ":11865,"pÄģlo":11866,"ĠÄģpnuyÄģt":11867,"ĠcÃ¢":11868,"Ġunma":11869,"ĠsÄģmÄģ":11870,"ndrÄģdi":11871,"Ġkuá¹Ńi":11872,"Ġrahasya":11873,"ÅĽiá¹£á¹Ń":11874,"Ġlopaá¸¥":11875,"laká¹£ayati":11876,"sthair":11877,"jÃ±eyaá¹ĥ":11878,"Ġpreká¹£ya":11879,"Ġká¹ĽtavÄģn":11880,"Ġpuá¹£pÄģ":11881,"vÄģcyÄģ":11882,"ddhyÄģ":11883,"masi":11884,"vÄģce":11885,"Ġnarma":11886,"mekha":11887,"kuto":11888,"Ġhaviá¹£Äģ":11889,"bhuvÄģ":11890,"ĠbhittvÄģ":11891,"Ġdaká¹£iá¹ĩena":11892,"ĠÅĽataÅĽo":11893,"nirvÄģá¹ĩa":11894,"ĠpaÅĽavaá¸¥":11895,"kter":11896,"tse":11897,"ÅĽriyÄģ":11898,"saká¹Ľ":11899,"matta":11900,"rir":11901,"Ġitaá¸¥":11902,"diká¹£u":11903,"tvami":11904,"ĠbhaktÄģ":11905,"barha":11906,"dyasya":11907,"Ġtrir":11908,"Ġtiro":11909,"rÄģá¹ĥÅĽ":11910,"Ġvidhivad":11911,"ĠuddiÅĽya":11912,"bhramÄģ":11913,"Ġvirudhyate":11914,"Ġá¹Ńa":11915,"ĠaÄģ":11916,"vite":11917,"Ġprasu":11918,"ĠharÄ«":11919,"ĠyÄģjÃ±aval":11920,"ká¹£epo":11921,"mÄ«ty":11922,"Ã±janam":11923,"Ġbhojanaá¹ĥ":11924,"ĠnityaÅĽaá¸¥":11925,"etac":11926,"sap":11927,"satvaá¹ĥ":11928,"ĠaÅĽvÄģ":11929,"Ġvimukti":11930,"vá¹Ľnda":11931,"mÄģnas":11932,"ntÄģnÄģá¹ĥ":11933,"ghnaá¸¥":11934,"Ġsamutpa":11935,"Ġsmá¹ĽtvÄģ":11936,"puá¹£paá¹ĥ":11937,"tÄ«ká¹£á¹ĩa":11938,"kalyÄģá¹ĩa":11939,"yasmÄģd":11940,"kaá¹ĩá¸įÅ«":11941,"tÄģyÄģm":11942,"Ġká¸·":11943,"Ġpatir":11944,"tvÄģtta":11945,"hetavaá¸¥":11946,"Ġbhavan":11947,"ĠÅĽrutya":11948,"Ġagnaye":11949,"pará¹ĩa":11950,"Ġpriyo":11951,"skandhe":11952,"maá¹ĩá¸įi":11953,"á¹£aá¹£á¹Ń":11954,"ĠpradÄ«pa":11955,"Ġmadh":11956,"sÄģre":11957,"Ġká¹Ľá¹ĩu":11958,"parihÄģra":11959,"Ġvarjayet":11960,"ÅĽrayÄģá¸¥":11961,"ĠÅĽivo":11962,"ĠhrÄ«á¹ĥ":11963,"drÄģká¹£Ä«":11964,"Ġnedaá¹ĥ":11965,"kÄģriá¹ĩÄ«":11966,"ĠjÃ±eya":11967,"Ġkenacid":11968,"Ġkaá¹ĩá¹Ńa":11969,"Ġsaá¹ĥskÄģrÄģá¸¥":11970,"á¹ĥÅĽaá¹ĥ":11971,"rÄģmÄģ":11972,"Ġpramo":11973,"ĠsÄģdhyaá¹ĥ":11974,"ĠcÄģrtha":11975,"há¹Ľá¹£á¹Ńa":11976,"ÅĽubhaá¹ĥ":11977,"Ġvá¹Ľko":11978,"viá¹£ayasya":11979,"ĠprÄģpti":11980,"vidhÄģya":11981,"ĠdhÄģrayet":11982,"ĠdaityÄģ":11983,"ĠrajanÄ«":11984,"Ġjanmani":11985,"Ġlebhe":11986,"ĠcatvÄģraá¸¥":11987,"ĠbÄģdhaka":11988,"ĠkumÄģro":11989,"ĠÅĽiká¹£itavyam":11990,"inam":11991,"pter":11992,"patraá¹ĥ":11993,"rÄģgo":11994,"Ġprasá¹Ľ":11995,"ĠpramadÄģ":11996,"Ġmá¹ĽtÄģ":11997,"patinÄģ":11998,"ĠjanakÄģ":11999,"pÄģramitÄģá¹ĥ":12000,"Ġtoya":12001,"ĠlaukikÄģ":12002,"ĠbhÄ«mase":12003,"payÄģ":12004,"vimo":12005,"rÄģtma":12006,"Ġvala":12007,"ĠÄģgatÄģ":12008,"saá¹ĥsá¹Ľ":12009,"ÅĽcatvÄģ":12010,"Ġanir":12011,"vivar":12012,"á¹Ľta":12013,"ĠÅĽlokaá¸¥":12014,"romÄģ":12015,"ká¹£aram":12016,"ĠnÄģsÄģ":12017,"Ġbhaveyuá¸¥":12018,"vaiyart":12019,"mithu":12020,"padÄģni":12021,"vÄģkyena":12022,"ĠdharmÄģdharma":12023,"Ġdhá¹Ľti":12024,"laá¹ħkÄģraá¸¥":12025,"ĠprÄģpnuvanti":12026,"ĠjijÃ±ÄģsÄģ":12027,"yÄģc":12028,"Ġcare":12029,"ĠviveÅĽa":12030,"Ġvilokya":12031,"Ġpatiá¹ĥ":12032,"Ġjaá¹Ńha":12033,"pariá¹£":12034,"Ġceá¹£á¹ŃÄģ":12035,"nÄģtho":12036,"bhá¹Ľtya":12037,"darpa":12038,"ĠpadÄģrthÄģ":12039,"mla":12040,"rahitaá¹ĥ":12041,"yÄģmapi":12042,"Ġadharma":12043,"daÅĽaá¹ĥ":12044,"kÄģru":12045,"diÅĽati":12046,"dhÄģtva":12047,"Ġlau":12048,"ĠdÄģri":12049,"kratu":12050,"rÄģá¹ĥsi":12051,"Ġtá¹ĽtÄ«yaá¸¥":12052,"Ġbhiká¹£uá¸¥":12053,"etÄģni":12054,"gÄ«r":12055,"ttva":12056,"vastrÄģ":12057,"napa":12058,"ĠÄģyÄģti":12059,"ĠkÄģmo":12060,"thiá¹ĥ":12061,"Ġcinti":12062,"Ġkarme":12063,"ĠjagatÄ«":12064,"bodhaá¸¥":12065,"gamanÄģ":12066,"virodho":12067,"Ġubhayam":12068,"Ġacin":12069,"vica":12070,"mÄģtmÄģnaá¹ĥ":12071,"pÄģpÄģ":12072,"ká¹ĽtÄģni":12073,"má¹Ľtam":12074,"ĠdiÅĽaá¹ĥ":12075,"ĠpaÃ±cabhiá¸¥":12076,"ĠbhogÄģn":12077,"cchinnaá¹ĥ":12078,"ĠmahÄ«á¹ĥ":12079,"ara":12080,"vibhÄģva":12081,"ÅĽana":12082,"ĠyasyÄģá¹ĥ":12083,"ĠnipÄģta":12084,"Ġsvaccha":12085,"Ġpratipaká¹£a":12086,"prÄģga":12087,"ká¹£Äģra":12088,"kalpyate":12089,"dhÄ«ta":12090,"samam":12091,"ĠbÄģdhate":12092,"Ġakhilaá¹ĥ":12093,"ĠphÄģ":12094,"ĠÅĽlÄģ":12095,"ĠvÄģci":12096,"Ġnityo":12097,"ÅĽeá¹£o":12098,"Ġpratipatta":12099,"Ġparito":12100,"nnaraá¸¥":12101,"ĠmadhyamÄģ":12102,"Ġvasuá¹ĥdharÄģ":12103,"rvo":12104,"caÃ±ca":12105,"ĠmatÄģá¸¥":12106,"Ġtenopasaá¹ĥ":12107,"bhÅ«tiá¸¥":12108,"ĠcÄģká¹£u":12109,"vá¹Ľtteá¸¥":12110,"sÄģdhanÄģ":12111,"ĠÅ«rdhvam":12112,"mÄģyayÄģ":12113,"prasÄģdena":12114,"prÄģmÄģá¹ĩyaá¹ĥ":12115,"gÅ«á¸įha":12116,"pyeta":12117,"nÄģdaá¹ĥ":12118,"nim":12119,"jagrÄģha":12120,"bhyetya":12121,"ĠÄģcÄģra":12122,"dhÄģtvÄģ":12123,"ĠvÄģÃ±cha":12124,"neyaá¹ĥ":12125,"muhuá¸¥":12126,"nÄ«taá¹ĥ":12127,"á¹ĩiá¹ĥ":12128,"ĠprÄģsÄģ":12129,"ĠprÄģvá¹Ľ":12130,"ĠsvabhÄģvÄģ":12131,"Ġkimiti":12132,"leti":12133,"guá¸įa":12134,"á¹£itÄģá¸¥":12135,"Ã±cati":12136,"kará¹£o":12137,"Ġkautu":12138,"devÄģya":12139,"Ġdivaá¸¥":12140,"kriyÄģá¹ĥ":12141,"jÃ±ire":12142,"ĠutthÄģya":12143,"patÄģkÄģ":12144,"Ġpuraská¹Ľtya":12145,"mÄģnopameya":12146,"varma":12147,"vipÄģka":12148,"mÄģá¹ĩasya":12149,"Ġsavya":12150,"Ġsaá¹ħg":12151,"ĠkrÄģma":12152,"Ġvivardha":12153,"jÄģtaá¸¥":12154,"ĠmÄģga":12155,"Ġramate":12156,"yiá¹£yÄģmaá¸¥":12157,"smÄģra":12158,"rthyÄģ":12159,"treá¹ĩÄģ":12160,"Ġabhiá¹£e":12161,"vidhÄģnena":12162,"ĠavÄģpnoti":12163,"prathamaá¹ĥ":12164,"vilÄģsa":12165,"ÅĽatam":12166,"kÄģlena":12167,"Ġteá¹£Äģma":12168,"ĠvelÄģ":12169,"Ġpiá¹ħga":12170,"ghyaá¹ĥ":12171,"Ġmoká¹£aá¹ĥ":12172,"gÄ«tha":12173,"ĠmadhunÄģ":12174,"Ġapyu":12175,"Ġpuá¹£paá¹ĥ":12176,"ĠprayÄģti":12177,"ĠpraÅĽasyate":12178,"tape":12179,"daá¹ĩá¸įÄģ":12180,"Ġvadha":12181,"bhiká¹£a":12182,"saá¹ĥtÄģ":12183,"ĠmahÄģbala":12184,"dyataá¸¥":12185,"Ġpariá¹£va":12186,"Ġbodhisattvaá¹ĥ":12187,"ĠvÄģcyÄģ":12188,"ĠkuryÄģn":12189,"vidyÄģá¹ĥ":12190,"maitrÄ«":12191,"Ġpravartante":12192,"brÅ«hi":12193,"vaÅĽaá¹ĥ":12194,"tÄģdÄģt":12195,"ĠprakÄģÅĽÄģ":12196,"Ġvidheya":12197,"Ġyati":12198,"sÄģdhi":12199,"ĠÅĽanair":12200,"tÄģá¹ĥs":12201,"á¹ĩod":12202,"Ġekatra":12203,"ĠbrÄģhmaá¹ĩÄģn":12204,"mÅ«rdha":12205,"ĠsamÄģsataá¸¥":12206,"Ġah":12207,"Ġpraty":12208,"ĠÄģcaret":12209,"lotpala":12210,"Ġbalena":12211,"Ġsukho":12212,"syetyarthaá¸¥":12213,"ĠÅĽrÄģvakabhÅ«mau":12214,"rÃ¢":12215,"valoka":12216,"katvÄģd":12217,"ĠajÃ±Äģna":12218,"Ġasaá¹ĥská¹Ľta":12219,"vire":12220,"ÅĽcandra":12221,"nÄģmeva":12222,"stvi":12223,"ĠparÄģá¹ħ":12224,"kautu":12225,"tyuktvÄģ":12226,"ndriyam":12227,"Ġmá¹Ľtyuá¹ĥ":12228,"Ġlubdha":12229,"payanti":12230,"cayo":12231,"nÄģÅĽi":12232,"dhÄģrya":12233,"stara":12234,"doá¹£e":12235,"Ġbubhu":12236,"ĠgrÄģhyÄģ":12237,"ĠprasannÄģ":12238,"ĠÅĽriyam":12239,"ÅĽobhitam":12240,"atyanta":12241,"pyante":12242,"rcÄģ":12243,"kaphÄģ":12244,"Ġsadá¹ĽÅĽa":12245,"Ġprakaraá¹ĩaá¹ĥ":12246,"vará¹ĩe":12247,"Ġsvata":12248,"stan":12249,"stapa":12250,"jikÄģ":12251,"ĠbÄģhÅ«":12252,"caká¹£uá¹£Äģ":12253,"Ġbhajate":12254,"ĠsthÄģpayitvÄģ":12255,"ggu":12256,"thita":12257,"ĠjayÄģ":12258,"Ġhaviá¸¥":12259,"ĠkoÅĽa":12260,"Ġcoktam":12261,"vadattÄģ":12262,"Ġtiá¹£á¹Ńhan":12263,"ĠÅĽrotri":12264,"Ġsaá¹ĥprakÄģÅĽa":12265,"parÄģyaá¹ĩÄģá¸¥":12266,"Ġpitá¹Ŀá¹ĩÄģá¹ĥ":12267,"kuryÄģd":12268,"lyÄģdi":12269,"pava":12270,"á¹£ad":12271,"pÄģá¹£Äģá¹ĩa":12272,"ĠvaktÄģ":12273,"ĠpratikÅ«":12274,"dyÄģd":12275,"Ġmunayaá¸¥":12276,"bhÄģvÄģcca":12277,"Ġliá¹ħ":12278,"Ġdaká¹£iá¹ĩÄģá¹ĥ":12279,"Ġmitraá¹ĥ":12280,"Ġkramaá¸¥":12281,"Ġsiá¹ĥhÄģ":12282,"svará¹ĩa":12283,"viá¹£á¹Ńaá¸¥":12284,"Ġbhaiá¹£ajya":12285,"bhÄģsaá¸¥":12286,"ĠvÄģtÄģ":12287,"Ġkulaá¹ĥ":12288,"Ġbhavat":12289,"ĠtathÄģgate":12290,"ĠdharÄģ":12291,"hÄ«á¹ĥ":12292,"khyÄģnaá¹ĥ":12293,"sthala":12294,"Ġityapi":12295,"Ġmanuá¸¥":12296,"Ġevainaá¹ĥ":12297,"ĠmahÄģbalÄģá¸¥":12298,"cÅ«á¸įÄģ":12299,"ĠtrisÄģhasramahÄģsÄģhas":12300,"Ġad":12301,"Ġadá¹Ľá¹£á¹Ńa":12302,"ĠsmÄģ":12303,"Ġnas":12304,"Ġnabho":12305,"bhart":12306,"jÄģtasya":12307,"rÄ«á¹£a":12308,"sito":12309,"juá¸¥":12310,"Ġvartante":12311,"nvitaá¸¥":12312,"Ġkaunteya":12313,"rhas":12314,"sphÄģ":12315,"Ġatu":12316,"syaá¸¥":12317,"Ġpaká¹£Ä«":12318,"ĠÅĽyÄģ":12319,"tyÄģm":12320,"ÅĽÄģsana":12321,"dyadi":12322,"hÄ«yate":12323,"há¹Ľdi":12324,"Ġvá¹ĽttÄģ":12325,"samar":12326,"Ġmukto":12327,"ĠasmÄ«ti":12328,"há¹Ľdaye":12329,"Ġpaá¹Ńhati":12330,"ĠabhÄģvaá¸¥":12331,"daitya":12332,"Ġsaj":12333,"teta":12334,"Ġmajja":12335,"meá¹£Äģ":12336,"mudra":12337,"ĠkÄģm":12338,"ĠtadabhÄģva":12339,"yÄģny":12340,"vyavahÄģraá¸¥":12341,"ĠsvargÄģ":12342,"vartinaá¸¥":12343,"rá¹ĩava":12344,"Ġdhá¹ĽtvÄģ":12345,"ĠaÅĽvi":12346,"Ġprayayau":12347,"paramÄģrtha":12348,"ĠsarvÄģkÄģrajÃ±atÄģyÄģá¸¥":12349,"kana":12350,"ĠpradeÅĽe":12351,"yeyuá¸¥":12352,"ĠÄģsu":12353,"ĠevÄģn":12354,"Ġtula":12355,"thito":12356,"Ġvyaktaá¹ĥ":12357,"kÄģÅĽasya":12358,"Ġá¹Ľá¹£iá¸¥":12359,"ĠÄģtmane":12360,"bhedataá¸¥":12361,"ĠvartamÄģnÄģ":12362,"ĠviÅĽeá¹£e":12363,"Ġrajata":12364,"Ġprabhum":12365,"ĠyathÄģnyÄģyaá¹ĥ":12366,"rÄģnu":12367,"á¹ĩayÄģ":12368,"dhanÄģ":12369,"saá¹ĥvÄģda":12370,"saá¹ĥjaya":12371,"ĠnÄģyaka":12372,"sindhu":12373,"ĠmahÄģyÄģ":12374,"ĠmeghÄģ":12375,"parasya":12376,"Ġrudro":12377,"cÄ«yate":12378,"Ġtapas":12379,"Ġvaktavya":12380,"Ġprayojayet":12381,"ĠkumÄģrÄ«":12382,"nacÄģ":12383,"paÅĽa":12384,"kÄģÃ±ca":12385,"Ġviá¹£u":12386,"Ġrasena":12387,"pratyaká¹£aá¹ĥ":12388,"ĠnÄ«ca":12389,"Ġcatuá¹£pa":12390,"dvaita":12391,"Ġcetasi":12392,"ĠbhÄģvÄģnÄģá¹ĥ":12393,"Ã±jalir":12394,"ĠmahÄģrathaá¸¥":12395,"dakam":12396,"nÄģthÄģ":12397,"Ġcaritaá¹ĥ":12398,"ĠsÄģrdham":12399,"ÅĽikhi":12400,"ká¹£iptÄģ":12401,"má¹Ľte":12402,"ká¹£uá¸¥":12403,"ÅĽriyaá¹ĥ":12404,"rÅ«peá¹ĩÄģ":12405,"ĠgrÄģhyaá¹ĥ":12406,"ktum":12407,"badhya":12408,"ramba":12409,"ĠbhÄģvaá¹ĥ":12410,"dhyÄģdi":12411,"ĠpÅ«rá¹ĩaá¹ĥ":12412,"kasyacit":12413,"mahÄģpurÄģá¹ĩe":12414,"khilÄģ":12415,"panne":12416,"Ġroda":12417,"ĠratnÄģ":12418,"rhataá¸¥":12419,"ĠvidyÄģá¹ĥ":12420,"ĠpÄģá¹ĩá¸įavÄģ":12421,"Ġnamaste":12422,"siá¹ĥhÄģ":12423,"ĠpratyekabuddhabhÅ«mau":12424,"Ġjitendriyaá¸¥":12425,"ptiá¸¥":12426,"jaghÄģna":12427,"ĠprajÃ±apti":12428,"Ġvaká¹£a":12429,"dhÄģva":12430,"kunta":12431,"ká¹£iti":12432,"paricchedaá¸¥":12433,"ĠbrahmacÄģri":12434,"darÅĽanaá¸¥":12435,"viá¹£ayaka":12436,"ĠjÃ±eyo":12437,"ĠvyÄģkhyÄģsyÄģmaá¸¥":12438,"Ġghá¹Ľtam":12439,"ĠbhÄģvÄģbhÄģva":12440,"ĠbhavatÄ«ty":12441,"Äģpo":12442,"ĠsahitÄģ":12443,"ĠcakrÄģ":12444,"jair":12445,"Ġpaá¹Ńu":12446,"lÄģbhaá¸¥":12447,"ĠetÄģá¸¥":12448,"ĠÅĽaÅĽÄ«":12449,"tyÄģt":12450,"ĠsÄģrdha":12451,"pudga":12452,"á¹£á¹Ńaka":12453,"ĠtathÄģvidha":12454,"vrajyÄģ":12455,"ĠsÄģdhanÄģ":12456,"Ġdattam":12457,"Ġvikalpaá¸¥":12458,"tá¹ĽtÄ«yÄģ":12459,"naá¹£á¹Ńa":12460,"dharam":12461,"yecca":12462,"ĠÄģkará¹ĩya":12463,"ghaá¹ĩá¹ŃÄģ":12464,"Ġyuyu":12465,"Ġrudraá¸¥":12466,"ĠrÅ«pasya":12467,"ĠmÄģrgaá¹ĥ":12468,"prÄģmÄģá¹ĩyÄģ":12469,"Ġmartya":12470,"Ġpratiá¹£á¹Ńhitam":12471,"aÅĽ":12472,"nasa":12473,"ĠasurÄģ":12474,"ĠimÄģn":12475,"tyajya":12476,"mudga":12477,"vann":12478,"spaá¹£á¹Ńa":12479,"ĠjananÄ«":12480,"ĠkÄģraka":12481,"ĠkÄģraá¹ĩe":12482,"mÅ«rdh":12483,"stÄ«rá¹ĩa":12484,"Ġmaithu":12485,"uá¹£adhi":12486,"dbhuta":12487,"ire":12488,"Ġaá¹ħku":12489,"Ġavoca":12490,"Ġkramo":12491,"ĠÄģjya":12492,"lokyaá¹ĥ":12493,"ĠsarvakuÅĽalamÅ«":12494,"Ġsuá¹£á¹Ńhu":12495,"Ġban":12496,"Ġsaman":12497,"kÄģraá¹ĩe":12498,"kampÄģ":12499,"bhojana":12500,"ĠprÄģpyate":12501,"Ġcaturthe":12502,"vajrÄģ":12503,"Ġyajate":12504,"Ġpatitaá¹ĥ":12505,"ĠmaitrÄ«":12506,"ĠÄģtmeti":12507,"bruvan":12508,"Ġreva":12509,"matir":12510,"kareá¹ĩa":12511,"viprÄģ":12512,"lajjÄģ":12513,"janÄ«":12514,"Ġgaá¹ĩá¸įa":12515,"Ġkuá¹ħku":12516,"vyapadeÅĽa":12517,"triphalÄģ":12518,"Ġcety":12519,"tyekabuddha":12520,"ĠevÄģtra":12521,"bodho":12522,"ĠmadhusÅ«":12523,"á¹ħgulaá¹ĥ":12524,"ĠviÅĽvasya":12525,"ĠsÅ«ryaá¸¥":12526,"ĠÅĽatakra":12527,"ĠdhiyÄģ":12528,"ĠkÅ«rma":12529,"Ġyugapad":12530,"lkÄģ":12531,"yeda":12532,"dhÄģraá¹ĥ":12533,"Ġpuram":12534,"Ġtebhyaá¸¥":12535,"dÄ«na":12536,"Ġsamaá¸¥":12537,"ĠjÄģtir":12538,"tantu":12539,"jÃ±eyÄģ":12540,"Ġmadhyato":12541,"etaduktaá¹ĥ":12542,"ĠvidyayÄģ":12543,"Ġpracaká¹£ate":12544,"ĠvrÄ«hi":12545,"Ġbibharti":12546,"ptÄģá¸¥":12547,"manti":12548,"Ġape":12549,"tÄģdá¹ĽÅĽa":12550,"bhÄģsaá¹ĥ":12551,"nyad":12552,"á¹ĩir":12553,"ndrÄģá¸¥":12554,"yiá¹£yate":12555,"má¹ĽgÄģ":12556,"á¹ĩoá¸¥":12557,"kÄģrakam":12558,"kilÄģ":12559,"Ġmuá¹£á¹Ńi":12560,"ĠjÃ±Äģni":12561,"ĠpÅ«rvapaká¹£e":12562,"bhujaá¸¥":12563,"ĠmahÄ«tale":12564,"ĠrasÄģdi":12565,"ĠmuÃ±cati":12566,"vÄģni":12567,"nÄģtra":12568,"Ġsnu":12569,"riyaá¹ĥ":12570,"á¹£á¹ŃrÄģ":12571,"praá¹ĩamya":12572,"Ġupo":12573,"tÄ«ta":12574,"baha":12575,"ĠmÄģnaá¹ĥ":12576,"durma":12577,"stuti":12578,"ĠjÄģtam":12579,"hastena":12580,"ĠbÄģh":12581,"ÅĽÅ«n":12582,"bandhanam":12583,"prÄģptir":12584,"bhagavad":12585,"Ġdhruva":12586,"Ġcatasá¹Ľ":12587,"saá¹ĥsparÅĽo":12588,"ĠâĢĺ":12589,"nÄģpya":12590,"dhanva":12591,"ká¹Ľtyaá¹ĥ":12592,"Ġbhavaá¸¥":12593,"ĠsamÄģlokya":12594,"karta":12595,"Ġbrahmaiva":12596,"vailaká¹£a":12597,"hitÄģya":12598,"nityatva":12599,"ĠtathÄģgatasyÄģ":12600,"pratipÄģdana":12601,"Ġgaá¹ĩanÄģ":12602,"Ġá¹Ľá¹£ayo":12603,"nÄģrÄģyaá¹ĩa":12604,"ĠanÄģtmeti":12605,"nar":12606,"bhÄģgena":12607,"rambho":12608,"ĠbhÄģsate":12609,"ĠdeÅĽaá¹ĥ":12610,"á¹£á¹ŃÄģva":12611,"seti":12612,"ĠÅĽÄģbda":12613,"Ġavaru":12614,"Ġhetau":12615,"dÅ«re":12616,"ĠpÄ«á¸įi":12617,"Ġbuddhaká¹£etra":12618,"ĠputrÄģá¸¥":12619,"ĠrÄģtriá¹ĥ":12620,"Ġvaiá¹£á¹ĩavaá¹ĥ":12621,"Ġcaitanya":12622,"icchÄģ":12623,"vedaá¸¥":12624,"nulepa":12625,"dhikÄģraá¸¥":12626,"dhÄģyÄģ":12627,"ĠdaivÄģ":12628,"Ġtatsaá¹ĥ":12629,"kará¹ĩo":12630,"Ġabhini":12631,"Ġdraupa":12632,"Ġbuddhaá¹ĥ":12633,"brahmaca":12634,"cÄ«á¹ĥ":12635,"saá¹ĥskÄģre":12636,"ĠkÄģryÄģá¹ĩi":12637,"ratham":12638,"mardayet":12639,"ama":12640,"adhyÄģ":12641,"sarÄģ":12642,"vidhu":12643,"niyutaÅĽata":12644,"kÄģva":12645,"japa":12646,"yety":12647,"ĠsÄģn":12648,"ĠsÄģdhyate":12649,"ĠrÄģhu":12650,"ĠcÄģpya":12651,"kinna":12652,"bodhisattvÄģ":12653,"sahakÄģri":12654,"bhramaá¸¥":12655,"ĠvijÄģnÄ«":12656,"kapratyekabuddha":12657,"lokite":12658,"tyoá¸¥":12659,"hama":12660,"mÄģnÄģt":12661,"kÄģka":12662,"vede":12663,"Ġpará¹ĩa":12664,"divaá¹ĥ":12665,"ĠÄģrÄģ":12666,"tmabhiá¸¥":12667,"ĠparipÅ«r":12668,"dhenu":12669,"Ġpá¹Ľá¹£á¹Ńhe":12670,"raá¹ĩÄģá¸¥":12671,"ĠratnÄģni":12672,"Ġghoá¹£a":12673,"Ġhá¹Ľdayam":12674,"nÄģÅĽanaá¸¥":12675,"ÅĽloka":12676,"vividha":12677,"nindÄģ":12678,"ĠpratyÄģha":12679,"dinam":12680,"mitaá¸¥":12681,"bhayÄģt":12682,"smÄģn":12683,"bhoktá¹Ľ":12684,"Ġnirá¹ĩÄ«":12685,"Ġmahati":12686,"yasyo":12687,"svabhÄģvatayÄģ":12688,"ĠsÄģmagrÄ«":12689,"ĠsÄ«tÄģá¹ĥ":12690,"Ġká¹Ľtsna":12691,"ĠparikÄ«rtitam":12692,"ubhaya":12693,"nÄģÅĽ":12694,"ntaryÄģ":12695,"jÄģni":12696,"ĠsÄģdá¹ĽÅĽ":12697,"ĠprÄģgu":12698,"ramanu":12699,"Ġdundu":12700,"Ġvartta":12701,"ká¹£ur":12702,"tanÅ«":12703,"Ġagniá¹£á¹Ńo":12704,"naiÅĽca":12705,"vyabhicÄģra":12706,"mÄģÅĽritya":12707,"ĠpurÄ«á¹ĥ":12708,"ĠmÄģhe":12709,"prÄģsÄģ":12710,"Ġupani":12711,"Ġmusa":12712,"Ġvará¹£aá¹ĥ":12713,"ĠvÄ«ta":12714,"ĠparÄģmarÅĽa":12715,"vrataá¸¥":12716,"ĠÅĽaktiá¹ĥ":12717,"bhÅ«á¹£itam":12718,"eá¹£Äģá¹ĥ":12719,"hitas":12720,"dhanam":12721,"Ġmart":12722,"ĠÄģru":12723,"nusÄģri":12724,"Ġká¹Ľá¹ĩo":12725,"hÄ«no":12726,"Ġdvividhaá¹ĥ":12727,"Ġtasyai":12728,"ĠdhÄģtÄģ":12729,"Ġrohiá¹ĩÄ«":12730,"Ġvapur":12731,"Ġgantuá¹ĥ":12732,"vyÄģptiá¸¥":12733,"Ġsataá¸¥":12734,"Ġpatra":12735,"dÄģyi":12736,"Ġvaá¹£aá¹Ń":12737,"Ġsaá¹ĥtÄģ":12738,"vá¹Ľtter":12739,"ĠÅĽakyo":12740,"Ġdveá¹£a":12741,"ĠyajamÄģna":12742,"daá¹ĥá¹£á¹ŃrÄģ":12743,"ĠapaÅĽyat":12744,"ĠÅĽÅ«nyatÄģnimittÄģpraá¹ĩihita":12745,"saá¹ħgÄģ":12746,"tejaá¸¥":12747,"Ġvighna":12748,"Ġvayo":12749,"mutpadyate":12750,"devÄģn":12751,"Ġeteá¹£Äģá¹ĥ":12752,"Ġrathi":12753,"yantÄ«ti":12754,"bhoge":12755,"ÅĽÅ«dra":12756,"yogam":12757,"ÅĽrutÄģ":12758,"Ġghaá¹ĩá¹ŃÄģ":12759,"Ġnetre":12760,"ĠtÄģdá¹ĽÅĽÄ«":12761,"Ġvyatiri":12762,"ĠgÄ«yate":12763,"Ġnamaská¹Ľtya":12764,"Ġkaike":12765,"Ġkhaá¸įga":12766,"ĠtÅ«á¹£á¹ĩÄ«m":12767,"astu":12768,"adyÄģpi":12769,"sarÄ«":12770,"viveÅĽa":12771,"Ġvicinta":12772,"ĠvimuÃ±ca":12773,"ruá¸įe":12774,"ĠnivÄģra":12775,"tamba":12776,"Ġetasmin":12777,"ĠjÄģnÄģmi":12778,"Ġtriá¹£á¹Ńu":12779,"rthÄģt":12780,"santo":12781,"ĠjagatÄģá¹ĥ":12782,"viÅĽeá¹£asya":12783,"palabdha":12784,"Ġvastunaá¸¥":12785,"ĠtÄģdá¹ĽÅĽaá¹ĥ":12786,"trailokya":12787,"udgalyÄģ":12788,"ari":12789,"llikÄģ":12790,"mÄģyu":12791,"pradeÅĽe":12792,"Ġvare":12793,"bhaá¹ħgaá¸¥":12794,"ĠkÄģyo":12795,"Ġgaveá¹£a":12796,"ĠrÄģj":12797,"pede":12798,"mandÄģ":12799,"Ġsatyena":12800,"Ġbodhisatvo":12801,"grÄģme":12802,"Ġbhedena":12803,"vÄģdinÄģ":12804,"ĠpurÄģá¹ĩaá¹ĥ":12805,"ndriyÄģrtha":12806,"dhiá¹£á¹Ńhitaá¹ĥ":12807,"Ġdivam":12808,"ragÄģ":12809,"Ġà¥¤]":12810,"pradaká¹£i":12811,"yaá¹ĥs":12812,"saá¹ĥvÄģde":12813,"rmadhye":12814,"ká¹ĽpÄģ":12815,"ĠcÄģra":12816,"tmajÄģ":12817,"vyayam":12818,"ká¹£itÄģá¸¥":12819,"ĠbhÅ«yas":12820,"sará¹£a":12821,"ĠdhÄ«matÄģ":12822,"mbhasi":12823,"saá¹ħkalpa":12824,"viÅĽate":12825,"vyatirekeá¹ĩa":12826,"Ġmaá¹ĩá¸įala":12827,"Ġnibodhata":12828,"vacÄģ":12829,"rÄģjÃ±Äģ":12830,"yoá¹£i":12831,"pittÄģ":12832,"á¹ĩimÄģ":12833,"Ġjantu":12834,"Ġdá¹Ľá¸įhaá¹ĥ":12835,"Ġguá¹ĩÄģnÄģá¹ĥ":12836,"kÄģrÄģn":12837,"sá¹Ľk":12838,"dvÄ«pe":12839,"ĠsamÄģdhiá¹ĥ":12840,"ĠpratibhÄģti":12841,"Ġnivedayet":12842,"á¹£vi":12843,"ĠabravÄ«":12844,"viddha":12845,"Ġyajet":12846,"ĠkÄģlam":12847,"Ġsuyodha":12848,"ĠpÄģpi":12849,"ĠdÄģtÄģ":12850,"tamanu":12851,"tror":12852,"nÄģdiá¹£u":12853,"ĠpraviveÅĽa":12854,"vasthÄģyÄģá¹ĥ":12855,"ĠpadÄģni":12856,"ĠsvapnÄģ":12857,"Ġvyomni":12858,"Ġpariá¹ĩÄģmayaty":12859,"bhairava":12860,"talaá¹ĥ":12861,"Ġasta":12862,"Ġabhra":12863,"Ġyanti":12864,"pÄģÃ±cÄģ":12865,"dhiyÄģ":12866,"ĠvÄģda":12867,"Ġmle":12868,"sargaá¸¥":12869,"pratyayaá¹ĥ":12870,"Ġadhika":12871,"Ġnopalabhyante":12872,"ĠudÄģhá¹Ľtam":12873,"ĠjvÄģlÄģ":12874,"patyaá¹ĥ":12875,"vimÄģna":12876,"mÄģsi":12877,"yeran":12878,"digdhÄģ":12879,"ĠmahÄģtapÄģá¸¥":12880,"buddhaá¹ĥ":12881,"bhá¹ĽtÄģ":12882,"Ġmoká¹£Äģ":12883,"Ġpraká¹Ľtiá¹ĥ":12884,"manasaá¸¥":12885,"tthÄģna":12886,"Ġpuá¹£kara":12887,"ĠsÅ«ká¹£mÄģ":12888,"vinÄģÅĽanam":12889,"Ġbuddhaká¹£etre":12890,"tapta":12891,"hitÄģn":12892,"kÄģmi":12893,"nety":12894,"saá¹ĥhitÄģ":12895,"ĠnÄģsya":12896,"ĠkÄģntaá¹ĥ":12897,"nÄ«nÄģá¹ĥ":12898,"huti":12899,"ĠmÄģtuá¸¥":12900,"ĠrÄģjyam":12901,"guá¹ĩi":12902,"ĠÅĽÄģntam":12903,"ĠbÄģlo":12904,"á¹Ńita":12905,"mÅ«á¸įha":12906,"deÅĽasya":12907,"pramÄģá¹ĩam":12908,"dhá¹Ľta":12909,"ĠÄģgatam":12910,"Ġgarbhaá¹ĥ":12911,"ĠhÄ«yate":12912,"Ġniá¸¥ÅĽre":12913,"Äģditya":12914,"ĠpÅ«jayitvÄģ":12915,"ĠÅĽÄ«ghram":12916,"vidyayÄģ":12917,"ĠvadÄģmi":12918,"ikam":12919,"Ã®":12920,"á¹£y":12921,"vÄģla":12922,"Ġaá¹ħgu":12923,"yoru":12924,"ĠvasÅ«":12925,"lika":12926,"Ġsula":12927,"ĠcÄģá¹£á¹Ńa":12928,"ĠjÄģne":12929,"ĠbodhisatvÄģ":12930,"ĠpunaÅĽ":12931,"ÅĽÄ«gh":12932,"ghÅ«r":12933,"rantÄ«":12934,"vyavasÄģ":12935,"vasÄģne":12936,"ĠprajÃ±ÄģpÄģramitÄģyÄģÃ±":12937,"prabhaá¸¥":12938,"nemi":12939,"det":12940,"trÄģsa":12941,"tpad":12942,"treya":12943,"Ġavayava":12944,"Ġmoká¹£aá¸¥":12945,"ĠÅĽá¹Ľá¹ħga":12946,"pratÄ«tiá¸¥":12947,"sphura":12948,"maá¹ħgala":12949,"camat":12950,"ÅĽalÄģ":12951,"dhava":12952,"Ġmatsa":12953,"Ġsaá¹ĥyukto":12954,"Ġcedam":12955,"nirmÄģá¹ĩa":12956,"Ġmá¹Ľd":12957,"ĠsthÄģni":12958,"krÄģnte":12959,"Ġká¹£itau":12960,"ĠÄģdinÄģ":12961,"cittasya":12962,"Ġsnigdhaá¹ĥ":12963,"ĠsÅ«ká¹£maá¹ĥ":12964,"aá¹ħgÄģ":12965,"nivÄģsi":12966,"Ġvimuk":12967,"dityÄģha":12968,"mimaá¹ĥ":12969,"rekhÄģ":12970,"tvamityarthaá¸¥":12971,"jÄģnÄģti":12972,"ĠmahÄģtmÄģnaá¹ĥ":12973,"Ġbhru":12974,"kub":12975,"á¹£ite":12976,"sÄ«yate":12977,"Ġká¹£aá¹ĩe":12978,"cchedena":12979,"padeÅĽÄģ":12980,"Ġasy":12981,"maá¹ĩá¸įalÄģ":12982,"mÄģrabhya":12983,"Ġsurabhi":12984,"hvayÄģ":12985,"Ġpuá¹£pÄģá¹ĩi":12986,"Ġpatanti":12987,"cchabdÄģ":12988,"Ġauá¹£a":12989,"ruhÄģ":12990,"Ġnitye":12991,"ĠglÄģ":12992,"Ġsaá¹ĥja":12993,"ĠprÄģká¹Ľta":12994,"yÄģá¹ĥsi":12995,"ĠbhÄģvitÄģ":12996,"dhÄ«n":12997,"parÄģkramaá¸¥":12998,"Ġmantha":12999,"ĠvÄ«tarÄģ":13000,"garbhaá¹ĥ":13001,"dbhutam":13002,"ĠvyabhicÄģri":13003,"ĠdivyÄģni":13004,"ĠkrÅ«ra":13005,"ká¸·":13006,"Ġahaá¸¥":13007,"nÄģdÄģ":13008,"Ġditi":13009,"ĠpradarÅĽa":13010,"pradÄģya":13011,"bhÄģse":13012,"ká¹Ľmi":13013,"Ġmri":13014,"Ġhanu":13015,"bheá¹£a":13016,"kará¹£e":13017,"ĠdÄģsÄ«":13018,"Ġnirguá¹ĩa":13019,"kÅ«rma":13020,"Ġcandana":13021,"tire":13022,"pathaá¹ĥ":13023,"kÄģá¹ĩi":13024,"Ġká¹Ľtya":13025,"Ġhate":13026,"Ġanvi":13027,"bhÄģvÄģá¸¥":13028,"Ġmá¹Ľto":13029,"Ġsomaá¸¥":13030,"Ġtantu":13031,"nayanaá¹ĥ":13032,"Ġnaraka":13033,"ĠdhÅ«mÄģ":13034,"ravinda":13035,"Ġnagare":13036,"paroká¹£a":13037,"ĠtadÄ«ya":13038,"ĠsphÄ«":13039,"IV":13040,"naruk":13041,"traiva":13042,"bhiá¹£a":13043,"bhire":13044,"saá¹ĥpannÄģ":13045,"Ġvy":13046,"ká¹Ľtva":13047,"há¹Ľti":13048,"Ġceyaá¹ĥ":13049,"Ġmanyu":13050,"yÄ«á¹ĥ":13051,"Ġdharm":13052,"ĠsÄģdhanam":13053,"bhagavat":13054,"ĠsÅ«ryasya":13055,"bhidhÄģne":13056,"hartÄģ":13057,"Ġpraá¹ĩipatya":13058,"vÄģÃ±":13059,"mÄģá¹ĩam":13060,"Ġsaraá¸¥":13061,"jagÄģ":13062,"rodhe":13063,"Ġsaá¹ĥpre":13064,"ká¹Ľtas":13065,"ká¹ĽtÄģn":13066,"ireva":13067,"Ġhiraá¹ĩ":13068,"vÄ«m":13069,"vairÄģg":13070,"Ġdvayaá¹ĥ":13071,"ĠasmÄģd":13072,"kará¹£aá¹ĩa":13073,"pÄģdeya":13074,"athe":13075,"ÅĽani":13076,"Ġyadá¹Ľ":13077,"netyÄģdi":13078,"ĠnÄģgaá¹ĥ":13079,"dyanu":13080,"tadvÄ«":13081,"ká¹£epe":13082,"á¹ŃÄģá¸¥":13083,"á¹£á¹Ńhitaá¹ĥ":13084,"Ġá¹£oá¸įaÅĽÄģ":13085,"Ġbhaktir":13086,"puruá¹£Äģrtha":13087,"Ġá¹Ńaá¹ħka":13088,"karu":13089,"rÄģtrau":13090,"pÄģdÄģya":13091,"rer":13092,"lepana":13093,"ĠparinirvÄģ":13094,"Ġsamaya":13095,"Ġveá¹£á¹Ńa":13096,"manyo":13097,"ĠnirdeÅĽaá¸¥":13098,"ĠavaÅĽyam":13099,"yamanu":13100,"vratÄģá¸¥":13101,"ĠÅĽá¹Ľá¹ĩo":13102,"cÄ«na":13103,"Ġvidhir":13104,"ĠdhÄ«ro":13105,"ká¹Ľtyo":13106,"Ġtarka":13107,"ĠsvabhÄģvataá¸¥":13108,"Ġcittasya":13109,"Ġchinna":13110,"ĠkauÅĽikÄģ":13111,"ĠapÄģá¹ĥ":13112,"pá¹ĽthivyÄģ":13113,"Ġhastau":13114,"kiá¸¥":13115,"Ġabhava":13116,"Ġaá¹ħgira":13117,"lavi":13118,"ĠnaÃ±":13119,"prakÄģreá¹ĩa":13120,"Ġsaá¹ĥbhÄģ":13121,"Ġtuá¹£á¹Ńo":13122,"vÄ«rÄģ":13123,"Ġvarti":13124,"Ġkartta":13125,"ĠÅĽakno":13126,"ĠmÄģnasa":13127,"Ġdá¹Ľá¹£á¹ŃÄģntaá¸¥":13128,"apica":13129,"Ġupasaá¹ĥkramya":13130,"Ġjyeá¹£á¹ŃhÄģ":13131,"ĠRoIV":13132,"ddhena":13133,"vaÅĽyaá¹ĥ":13134,"bhÄģso":13135,"ntarÄģá¹ĩi":13136,"Ġtumu":13137,"daá¹ĥÅĽa":13138,"steá¹£u":13139,"vyavahÄģ":13140,"ĠekÄģnta":13141,"lokeá¹£u":13142,"Ġdaá¹ĩá¸įaá¹ĥ":13143,"paÅĽyat":13144,"nibandhana":13145,"Ġvidadha":13146,"Ġdyota":13147,"taá¹Ńa":13148,"raÅĽca":13149,"varÄ«":13150,"kandha":13151,"Ġsaká¹Ľd":13152,"nÄģc":13153,"jai":13154,"Ġmadana":13155,"pralaya":13156,"pÄģtena":13157,"ĠÅĽakta":13158,"manÅ«":13159,"govinda":13160,"ĠÅĽul":13161,"gendra":13162,"Ġsomam":13163,"patiá¹£á¹Ńha":13164,"Ġjita":13165,"Ġmaheá¹£vÄģ":13166,"bhÅ«á¹£aá¹ĩam":13167,"Ġbhairava":13168,"rtu":13169,"Äģr":13170,"kadamba":13171,"rÄģtro":13172,"praá¹£á¹Ńa":13173,"tvÄģdeva":13174,"ĠÄģroca":13175,"saá¹ĥvit":13176,"ĠmÄģtur":13177,"tasthe":13178,"Ġharet":13179,"vyÄģni":13180,"parigrahÄģ":13181,"ĠsandhyÄģ":13182,"svabhÄģvaá¹ĥ":13183,"ĠlÄģva":13184,"siddher":13185,"yitukÄģmena":13186,"Ġgamanaá¹ĥ":13187,"nika":13188,"Ġcamat":13189,"ĠvaÅĽe":13190,"ĠÄģpta":13191,"Ġsaá¹ĥra":13192,"sitaá¸¥":13193,"linÄģ":13194,"sá¹Ľtya":13195,"Ġkalpi":13196,"mÄģnÄģni":13197,"mÄģnÄģnÄģá¹ĥ":13198,"ÅĽÅ«nyatÄģyÄģá¸¥":13199,"ĠhÄģsya":13200,"kÄģryo":13201,"Ġká¹Ľá¹£á¹ĩam":13202,"ĠrÅ«pya":13203,"ĠsÄģmarthya":13204,"Ġnopalabhate":13205,"Ġvindati":13206,"Ġnanv":13207,"caitanya":13208,"kteti":13209,"racanÄģ":13210,"ĠadyÄģ":13211,"ĠnirÅ«pi":13212,"jÃ±Äģno":13213,"ĠmahÄģyÄģna":13214,"ÅĽitaá¹ĥ":13215,"yanna":13216,"Ġsattvam":13217,"vaiÅĽvÄģ":13218,"bandhÄ«":13219,"Ġbhagavate":13220,"Ġguruá¹ĩÄģ":13221,"nayanÄģ":13222,"ÅĽá¹Ľá¹ħgÄģra":13223,"ĠÄģryasatyÄģ":13224,"ghas":13225,"ttvaá¹ĥ":13226,"Ġtasmiá¹ĥ":13227,"mityu":13228,"Ġcchi":13229,"bhavanaá¹ĥ":13230,"Ġdevam":13231,"ÅĽÅ«drÄģ":13232,"Ġtadaiva":13233,"nupapattyÄģ":13234,"jÄ«vya":13235,"ĠkauÅĽa":13236,"nÅ«naá¹ĥ":13237,"Ġpratiá¹£á¹ŃhÄģpayati":13238,"ĠsarvasattvÄģnÄģá¹ĥ":13239,"má¹ĩÄģ":13240,"caro":13241,"tharva":13242,"yuddha":13243,"dhetu":13244,"citte":13245,"ĠpÅ«rvaá¸¥":13246,"ĠÅĽudhyati":13247,"ĠbahuvrÄ«hi":13248,"Ġatraiva":13249,"ĠbhuÃ±jÄ«ta":13250,"Ġcaturo":13251,"nantarya":13252,"svarÅ«pam":13253,"buddhÄģnÄģá¹ĥ":13254,"taá¹ĩá¸įu":13255,"manasya":13256,"Ġasura":13257,"Ġphu":13258,"dayam":13259,"ĠprÄģjÄģpa":13260,"tase":13261,"tattve":13262,"sambhave":13263,"ĠtridaÅĽÄģ":13264,"ĠÅĽrute":13265,"ĠdhÄģtva":13266,"Ġcaká¹£urÄģ":13267,"ĠpÄģpam":13268,"ĠbuddhvÄģ":13269,"triá¹ĥÅĽat":13270,"ĠprÄģgeva":13271,"ĠÅĽÄ«ghra":13272,"ĠpramÄģá¹ĩÄģntara":13273,"ĠsÄģdhv":13274,"ĠmanÄ«á¹£iá¹ĩaá¸¥":13275,"Ġmantavyam":13276,"oá¹£a":13277,"yÄģá¹ĩi":13278,"Ġaká¹Ľta":13279,"jatu":13280,"Ġpavana":13281,"Ġmate":13282,"pÄģye":13283,"Ġccha":13284,"sitam":13285,"Ġsvakaá¹ĥ":13286,"peká¹£e":13287,"ÅĽokÄģ":13288,"ĠgopÄ«":13289,"ĠmÄģrgaá¸¥":13290,"madhusÅ«danaá¸¥":13291,"varÄģgra":13292,"ĠtraidhÄģtu":13293,"ĠjanÄģrdanam":13294,"Ġviciki":13295,"ĠsarvakuÅĽalamÅ«lÄģni":13296,"vayÄģ":13297,"haram":13298,"ÅĽyÄģmÄģ":13299,"vimala":13300,"mÄģpnoti":13301,"Ġpragá¹Ľhya":13302,"bhaá¹ħgÄģ":13303,"á¹ħi":13304,"ĠbhayÄģ":13305,"ĠvÄģpy":13306,"cidÄģ":13307,"ká¹Ľnta":13308,"ntikam":13309,"vará¹ĩaá¸¥":13310,"ká¹£ipra":13311,"Ġceto":13312,"Ġguá¹ĩe":13313,"ĠdÄģtavyaá¹ĥ":13314,"sarvo":13315,"Ġkhara":13316,"pÅ«rvaka":13317,"ĠparÄģya":13318,"namanu":13319,"vedÄģnta":13320,"bhÄģá¹£itam":13321,"Ġvasiá¹£á¹Ńha":13322,"ĠviÅĽrutaá¸¥":13323,"ane":13324,"dyÅ«":13325,"vikrÄģ":13326,"yoriti":13327,"ĠvÄģsaá¸¥":13328,"ĠnÄģpya":13329,"ĠsvabhÄģvena":13330,"dvau":13331,"viá¹£ama":13332,"ĠlÄģbha":13333,"ĠrÄģká¹£asÄ«":13334,"strÄ«á¹ĩÄģá¹ĥ":13335,"ĠbabhÅ«vuá¸¥":13336,"vasiá¹£á¹Ńha":13337,"ĠyoginÄģá¹ĥ":13338,"ĠkalyÄģá¹ĩamitraá¹ĥ":13339,"ndÄģá¹ĥsi":13340,"amu":13341,"Ġluk":13342,"narmadÄģ":13343,"hitÄģni":13344,"Ã±jÄģtÄ«ya":13345,"Ġkaruá¹ĩa":13346,"Ġvayaá¸¥":13347,"rÄ«á¹ĩÄģá¹ĥ":13348,"ndyÄģ":13349,"ĠsudhÄ«á¸¥":13350,"ĠprÄģjÃ±a":13351,"Ġdevena":13352,"nyÄģsaá¹ĥ":13353,"Ġsambandho":13354,"Ġdevaiá¸¥":13355,"dravat":13356,"ĠvyavahÄģraá¸¥":13357,"nÄģdikaá¹ĥ":13358,"Ġneha":13359,"gandhaá¹ĥ":13360,"ĠudgÄģ":13361,"Ġmantraá¸¥":13362,"ĠbÄ«bha":13363,"nirapeká¹£a":13364,"Ġmatir":13365,"dirÄģ":13366,"prayukta":13367,"tvÄģdÄģ":13368,"ukÅ«la":13369,"dhÄģnÄģt":13370,"ĠnijÄģ":13371,"putrÄ«":13372,"cÄģryÄģ":13373,"Ġtattu":13374,"khal":13375,"ĠjÄ«vitÄģ":13376,"ká¹£yasi":13377,"baladevaá¸¥":13378,"Ġviniká¹£ipet":13379,"viÅĽud":13380,"ĠprÄģá¹ĩinÄģá¹ĥ":13381,"ĠmahÄģsattvÄģnÄģá¹ĥ":13382,"kevalaá¹ĥ":13383,"jyÄģá¸¥":13384,"nsuá¸¥":13385,"ÄģjÃ±Äģ":13386,"Ġspho":13387,"ĠprajÃ±ap":13388,"veka":13389,"miá¹£yate":13390,"saá¹ĥsa":13391,"guá¸¥":13392,"ÅĽvaá¸¥":13393,"Ġyeá¹£u":13394,"Ġkalpita":13395,"Ġdravyam":13396,
[...]
