{"<s>":0,"<pad>":1,"</s>":2,"<unk>":3,"<mask>":4,"!":5,"\"":6,"#":7,"$":8,"%":9,"&":10,"'":11,"(":12,")":13,"*":14,"+":15,",":16,"-":17,".":18,"/":19,"0":20,"1":21,"2":22,"3":23,"4":24,"5":25,"6":26,"7":27,"8":28,"9":29,":":30,";":31,"<":32,"=":33,">":34,"?":35,"@":36,"A":37,"B":38,"C":39,"D":40,"E":41,"F":42,"G":43,"H":44,"I":45,"J":46,"K":47,"L":48,"M":49,"N":50,"O":51,"P":52,"Q":53,"R":54,"S":55,"T":56,"U":57,"V":58,"W":59,"X":60,"Y":61,"Z":62,"[":63,"\\":64,"]":65,"^":66,"_":67,"`":68,"a":69,"b":70,"c":71,"d":72,"e":73,"f":74,"g":75,"h":76,"i":77,"j":78,"k":79,"l":80,"m":81,"n":82,"o":83,"p":84,"q":85,"r":86,"s":87,"t":88,"u":89,"v":90,"w":91,"x":92,"y":93,"z":94,"{":95,"|":96,"}":97,"~":98,"¡":99,"¢":100,"£":101,"¤":102,"¥":103,"¦":104,"§":105,"¨":106,"©":107,"ª":108,"«":109,"¬":110,"®":111,"¯":112,"°":113,"±":114,"²":115,"³":116,"´":117,"µ":118,"¶":119,"·":120,"¸":121,"¹":122,"º":123,"»":124,"¼":125,"½":126,"¾":127,"¿":128,"À":129,"Á":130,"Â":131,"Ã":132,"Ä":133,"Å":134,"Æ":135,"Ç":136,"È":137,"É":138,"Ê":139,"Ë":140,"Ì":141,"Í":142,"Î":143,"Ï":144,"Ð":145,"Ñ":146,"Ò":147,"Ó":148,"Ô":149,"Õ":150,"Ö":151,"×":152,"Ø":153,"Ù":154,"Ú":155,"Û":156,"Ü":157,"Ý":158,"Þ":159,"ß":160,"à":161,"á":162,"â":163,"ã":164,"ä":165,"å":166,"æ":167,"ç":168,"è":169,"é":170,"ê":171,"ë":172,"ì":173,"í":174,"î":175,"ï":176,"ð":177,"ñ":178,"ò":179,"ó":180,"ô":181,"õ":182,"ö":183,"÷":184,"ø":185,"ù":186,"ú":187,"û":188,"ü":189,"ý":190,"þ":191,"ÿ":192,"Ā":193,"ā":194,"Ă":195,"ă":196,"Ą":197,"ą":198,"Ć":199,"ć":200,"Ĉ":201,"ĉ":202,"Ċ":203,"ċ":204,"Č":205,"č":206,"Ď":207,"ď":208,"Đ":209,"đ":210,"Ē":211,"ē":212,"Ĕ":213,"ĕ":214,"Ė":215,"ė":216,"Ę":217,"ę":218,"Ě":219,"ě":220,"Ĝ":221,"ĝ":222,"Ğ":223,"ğ":224,"Ġ":225,"ġ":226,"Ģ":227,"ģ":228,"Ĥ":229,"ĥ":230,"Ħ":231,"ħ":232,"Ĩ":233,"ĩ":234,"Ī":235,"ī":236,"Ĭ":237,"ĭ":238,"Į":239,"į":240,"İ":241,"ı":242,"Ĳ":243,"ĳ":244,"Ĵ":245,"ĵ":246,"Ķ":247,"ķ":248,"ĸ":249,"Ĺ":250,"ĺ":251,"Ļ":252,"ļ":253,"Ľ":254,"ľ":255,"Ŀ":256,"ŀ":257,"Ł":258,"ł":259,"Ń":260,"Äģ":261,"á¹":262,"ya":263,"ta":264,"ra":265,"á¹ĥ":266,"va":267,"¥¤":268,"à¥¤":269,"ha":270,"á¸":271,"ÅĽ":272,"á¸¥":273,"Ġà¥¤":274,"á¹£":275,"na":276,"sa":277,"ma":278,"ti":279,"pa":280,"yÄģ":281,"á¹ĩ":282,"hÄģ":283,"Ä«":284,"vÄģ":285,"ka":286,"Ġa":287,"vi":288,"Ġp":289,"ca":290,"á¹Ľ":291,"rÄģ":292,"hi":293,"mÄģ":294,"da":295,"Ġsa":296,"nÄģ":297,"tÄģ":298,"Å«":299,"Ġb":300,"te":301,"Ġs":302,"ga":303,"Ġta":304,"ni":305,"Ġà¥¤à¥¤":306,"Ġk":307,"ÅĽa":308,"la":309,"á¹ĩa":310,"Ġd":311,"á¹£a":312,"Ġca":313,"á¹Ń":314,"ri":315,"kÄģ":316,"ja":317,"Ġpra":318,"dha":319,"sya":320,"tha":321,"tu":322,"Ġi":323,"Ġvi":324,"ye":325,"bh":326,"Ã±":327,"yo":328,"dh":329,"tra":330,"thÄģ":331,"ve":332,"Ġna":333,"Ġpa":334,"á¹£á¹Ń":335,"Ġma":336,"di":337,"mi":338,"Ġya":339,"eva":340,"pra":341,"ĠĊ":342,"dÄģ":343,"tya":344,"pi":345,"pÄģ":346,"ĠÅĽ":347,"Ġka":348,"ru":349,"re":350,"taá¸¥":351,"á¹ĩÄģ":352,"ká¹£":353,"Ġva":354,"tvÄģ":355,"bha":356,"á¹ħ":357,"to":358,"uk":359,"tva":360,"yaá¹ĥ":361,"ĠÄģ":362,"jÃ±":363,"taá¹ĥ":364,"nu":365,"Ġbha":366,"ro":367,"bhÄģ":368,"dhi":369,"Ġc":370,"bhi":371,"sÄģ":372,"dhÄģ":373,"rva":374,"ĠvÄģ":375,"ne":376,"he":377,"Ġni":378,"ká¹£a":379,"Ġu":380,"saá¹ĥ":381,"á¸į":382,"tÄ«":383,"nta":384,"Ġiti":385,"yu":386,"yate":387,"jÄģ":388,"Ġg":389,"rÄ«":390,"rtha":391,"tam":392,"lÄģ":393,"naá¹ĥ":394,"ci":395,"me":396,"Ġv":397,"jÃ±Äģ":398,"Ġpu":399,"mu":400,"Ġsaá¹ĥ":401,"de":402,"rÅ«":403,"ĠnÄģ":404,"Ġeva":405,"nya":406,"Ġe":407,"iva":408,"cc":409,"no":410,"á¹£Äģ":411,"ĠÅĽa":412,"tta":413,"lo":414,"si":415,"yaá¸¥":416,"ĠkÄģ":417,"yam":418,"Ġtu":419,"raá¹ĥ":420,"ba":421,"rma":422,"tyÄģ":423,"ĠsÄģ":424,"ká¹Ľ":425,"ho":426,"nti":427,"Ġte":428,"nÄģá¹ĥ":429,"var":430,"Ġda":431,"ÅĽÄģ":432,"gÄģ":433,"syÄģ":434,"nÄ«":435,"Ġga":436,"pu":437,"iá¸¥":438,"á¹£u":439,"hu":440,"thi":441,"Ġsarva":442,"á¹£á¹Ńa":443,"á¹ĩi":444,"ddha":445,"nd":446,"naá¸¥":447,"nam":448,"yati":449,"trÄģ":450,"Ġja":451,"bhÅ«":452,"li":453,"Ġapi":454,"Ġsu":455,"ena":456,"ĠprÄģ":457,"ĠmÄģ":458,"cÄģ":459,"Å«r":460,"á¹ĩá¸į":461,"ir":462,"Ġhi":463,"Ġku":464,"ÅĽca":465,"Ġra":466,"ty":467,"su":468,"vá¹Ľ":469,"ÅĽe":470,"ĠpÄģ":471,"ĠrÄģ":472,"Ġsva":473,"ĠmahÄģ":474,"ĠcÄģ":475,"sta":476,"raá¹ĩa":477,"yÄģá¹ĥ":478,"Ġm":479,"Ġbhava":480,"vo":481,"ĠtathÄģ":482,"ram":483,"Ġbh":484,"tma":485,"ĠtÄģ":486,"raá¸¥":487,"rya":488,"Ġká¹Ľ":489,"dya":490,"Ġki":491,"Ġtat":492,"ku":493,"vya":494,"ÅĽi":495,"haá¹ĥ":496,"á¹ħga":497,"kaá¹ĥ":498,"le":499,"yi":500,"Ġdha":501,"Ġba":502,"tri":503,"vÄ«":504,"ke":505,"hma":506,"gu":507,"tas":508,"Ġprati":509,"Ġtad":510,"hÄ«":511,"rÅ«pa":512,"hyÄģ":513,"laá¹ĥ":514,"ĠbhÄģ":515,"Ġha":516,"tvaá¹ĥ":517,"rama":518,"pe":519,"ÅĽva":520,"du":521,"yan":522,"Ġde":523,"prÄģ":524,"sva":525,"ĠyÄģ":526,"vyÄģ":527,"bhÄģva":528,"ká¹£i":529,"ĠyathÄģ":530,"Ġj":531,"tti":532,"mo":533,"dá¹Ľ":534,"sat":535,"tÄģá¸¥":536,"á¹Ńa":537,"Ġpari":538,"ko":539,"vat":540,"á¹ĩaá¹ĥ":541,"daá¹ĥ":542,"á¹ĩe":543,"tve":544,"dÄ«":545,"ndha":546,"yÄģt":547,"ccha":548,"gra":549,"rÅĽa":550,"Ġsar":551,"á¹£i":552,"há¹Ľ":553,"tÄģá¹ĥ":554,"má¹Ľ":555,"Ã±ca":556,"vÄģn":557,"tá¹Ľ":558,"Ġvai":559,"ud":560,"á¹ĩo":561,"lam":562,"muk":563,"Ġsama":564,"pari":565,"kÄģra":566,"á¹ĩá¸įa":567,"ká¹£Äģ":568,"smÄģ":569,"rahma":570,"bhe":571,"nna":572,"stu":573,"dhe":574,"kam":575,"Ġyo":576,"nda":577,"ryÄģ":578,"Ġla":579,"tat":580,"yuk":581,"hya":582,"dhya":583,"tad":584,"á¹£e":585,"Ġupa":586,"rthaá¸¥":587,"jÃ±a":588,"á¹ĩÄ«":589,"nyÄģ":590,"ĠbhÅ«":591,"Ġci":592,"Ġdá¹Ľ":593,"ĠsamÄģ":594,"ĠjÄģ":595,"Å«rva":596,"Ġlo":597,"reá¹ĩa":598,"Ġanu":599,"Ġdu":600,"pya":601,"prati":602,"ji":603,"á¹ĩÄģá¹ĥ":604,"ÅĽo":605,"á¹£á¹ŃÄģ":606,"do":607,"has":608,"Ġtatra":609,"tiá¸¥":610,"kta":611,"Ġbhavati":612,"rt":613,"Ġce":614,"dhyÄģ":615,"Ġve":616,"bhava":617,"dyÄģ":618,"kha":619,"Ġsam":620,"Ġgu":621,"tpa":622,"sthÄģ":623,"kaá¸¥":624,"ki":625,"nÄģm":626,"Ġpara":627,"Ġbhaga":628,"yena":629,"kar":630,"Ġvya":631,"yet":632,"kal":633,"Ġpi":634,"sti":635,"maá¸¥":636,"ÅĽu":637,"sam":638,"miti":639,"se":640,"tvÄģt":641,"bhiá¸¥":642,"odhi":643,"á¹ħg":644,"smi":645,"á¹£á¹Ńha":646,"riyÄģ":647,"tÄģm":648,"Ä«r":649,"mÄģna":650,"nir":651,"tena":652,"man":653,"Ġme":654,"pta":655,"ĠÅĽÄģ":656,"dhu":657,"á¹ĩam":658,"Ġdvi":659,"Ġdeva":660,"nena":661,"pha":662,"Ġbrahma":663,"Ġtasya":664,"Ġsi":665,"gha":666,"cit":667,"Ġmu":668,"ÅĽeá¹£a":669,"á¹£ya":670,"ÅĽya":671,"á¹ĩaá¸¥":672,"Ġvar":673,"Ġkatha":674,"ĠjÃ±Äģ":675,"dra":676,"Ġity":677,"á¹£Äģá¹ĥ":678,"lÄ«":679,"van":680,"Ġkar":681,"maá¹ĥ":682,"vaá¹ĥ":683,"vÄģca":684,"vaá¸¥":685,"ĠvyÄģ":686,"Ġvá¹Ľ":687,"ÅĽab":688,"go":689,"Ġkiá¹ĥ":690,"Ġyat":691,"so":692,"tasya":693,"iti":694,"deva":695,"traá¹ĥ":696,"dva":697,"laká¹£a":698,"Ġdi":699,"ÅĽra":700,"Ġtva":701,"ĠdÄģ":702,"nte":703,"khyÄģ":704,"tayÄģ":705,"tre":706,"ĠÅĽi":707,"sthi":708,"Ġabhi":709,"bhir":710,"ká¹£e":711,"bho":712,"kara":713,"ĠnÄģma":714,"Ġpá¹Ľ":715,"tye":716,"dho":717,"sar":718,"mÄ«":719,"kti":720,"tmÄģ":721,"á¹ĩu":722,"viá¹£a":723,"yat":724,"sÄ«":725,"ce":726,"po":727,"Ġdharma":728,"ĠbÄģ":729,"Ġnir":730,"Ġbodhi":731,"tyarthaá¸¥":732,"dhÄ«":733,"cca":734,"ĠÄģha":735,"á¹ħgÄģ":736,"Ġava":737,"tur":738,"Ġpuna":739,"samÄģ":740,"yamÄģ":741,"Ġiva":742,"daá¸¥":743,"ÅĽaá¹ĥ":744,"ÅĽÅ«":745,"á¹£o":746,"darÅĽa":747,"Ġtri":748,"Ġkha":749,"pat":750,"Ġhe":751,"cyate":752,"Ġan":753,"bhya":754,"ĠpÅ«rva":755,"dam":756,"ĠÅĽu":757,"kra":758,"yÄģá¸¥":759,"tÄģni":760,"ĠtadÄģ":761,"vad":762,"ham":763,"ká¹£u":764,"bÄģ":765,"ge":766,"ddhÄģ":767,"bhu":768,"Ġevaá¹ĥ":769,"á¸įa":770,"gni":771,"Ġkarma":772,"tir":773,"bhÄģvÄģ":774,"tyÄģdi":775,"lu":776,"Ġbhave":777,"tyu":778,"ĠsvÄģ":779,"Ġ-":780,"atha":781,"Ã±ja":782,"ddhi":783,"Ġgá¹Ľ":784,"ndra":785,"sÅ«":786,"saá¸¥":787,"Ġyu":788,"yÄģm":789,"tav":790,"Ġpratya":791,"sama":792,"Ġyad":793,"ÅĽaá¸¥":794,"rmÄģ":795,"Ġye":796,"tÄ«ti":797,"pÄģra":798,"nma":799,"rthÄģ":800,"ntÄģ":801,"ĠsÅ«":802,"bu":803,"jÃ±Äģna":804,"gá¹Ľ":805,"pÄ«":806,"Ġmá¹Ľ":807,"rthaá¹ĥ":808,"ĠÅĽru":809,"Ġso":810,"sarva":811,"kya":812,"dvi":813,"á¹ĩya":814,"tvam":815,"pÄģda":816,"ÅĽÄ«":817,"Ġpuru":818,"ika":819,"á¹£á¹ŃhÄģ":820,"para":821,"Ġsat":822,"Ġcaiva":823,"Ġbodhisat":824,"Ġsthi":825,"tau":826,"varta":827,"Ġsaha":828,"Ġanya":829,"Ġt":830,"Ġti":831,"parÄģ":832,"tvena":833,"smin":834,"Ġká¹£a":835,"Ġana":836,"hÄģra":837,"sma":838,"nÄģt":839,"yata":840,"Ġuk":841,"ná¹Ľ":842,"Ġtena":843,"st":844,"dharma":845,"sau":846,"Ġno":847,"yoá¸¥":848,"Ġsarve":849,"Ġtada":850,"graha":851,"Ġman":852,"pá¹Ľ":853,"vai":854,"Ġbhi":855,"tathÄģ":856,"Ġh":857,"jana":858,"evaá¹ĥ":859,"tuá¹ĥ":860,"ĠsyÄģt":861,"bandha":862,"kalpa":863,"Ġpha":864,"yoga":865,"nnÄģ":866,"ĠpaÃ±ca":867,"dyate":868,"je":869,"gh":870,"tÄģn":871,"yathÄģ":872,"ĠjÄ«":873,"Ġmuk":874,"mÄģn":875,"yor":876,"ÅĽcÄģ":877,"ntara":878,"yama":879,"pÅ«":880,"Ġpunaá¸¥":881,"raá¹ĩaá¹ĥ":882,"py":883,"kÄģrÄģ":884,"Ġatha":885,"Ġsuk":886,"tama":887,"ĠsyÄģ":888,"ĠÅĽab":889,"mit":890,"raá¹ĩÄģ":891,"karma":892,"rÄģja":893,"vá¹Ľtti":894,"spa":895,"ÅĽci":896,"tyaá¹ĥ":897,"Ġgo":898,"dvÄģ":899,"á¹£á¹Ńi":900,"stha":901,"Ġbhavi":902,"vá¹Ľt":903,"mitÄģ":904,"ĠsarvÄģ":905,"á¹£yati":906,"Ġsamu":907,"sá¹Ľ":908,"ÅĽru":909,"ĠtasmÄģ":910,"gi":911,"gata":912,"nÄģma":913,"ĠÅĽrÄ«":914,"nupa":915,"mya":916,"mÄģt":917,"diti":918,"ĠuvÄģca":919,"ghÄģ":920,"Ġtaá¹ĥ":921,"yante":922,"drÄģ":923,"ĠrÄģja":924,"hÅ«":925,"rÅ«pÄģ":926,"cche":927,"teá¸¥":928,"ĠÅĽÅ«":929,"á¹£aá¸¥":930,"cchÄģ":931,"rÄģhma":932,"tan":933,"dau":934,"Ġyadi":935,"Ġkal":936,"kÄģÅĽa":937,"Ġdra":938,"Ġapa":939,"ban":940,"pÅ«rva":941,"Ġar":942,"dhva":943,"rati":944,"ĠprajÃ±Äģ":945,"ran":946,"khÄģ":947,"stÄģ":948,"Ġá¹Ľ":949,"yasya":950,"san":951,"mam":952,"grÄģ":953,"jÄ«":954,"tatra":955,"Ġjaga":956,"Ġke":957,"yÄģmi":958,"uddhi":959,"ĠprÄģp":960,"pratya":961,"ĠsthÄģ":962,"á¹ŃÄģ":963,"á¹ĥÅĽa":964,"ÅĽÅ«nya":965,"Ġko":966,"Ġsmá¹Ľ":967,"riya":968,"ĠpÅ«":969,"ĠpramÄģ":970,"Ġeka":971,"Ġviá¹£a":972,"á¹Ńi":973,"ktÄģ":974,"jo":975,"pÅ«r":976,"Ġá¹£a":977,"Ġru":978,"jya":979,"tara":980,"pati":981,"rthe":982,"Ġbahu":983,"á¹£á¹ŃvÄģ":984,"daÅĽa":985,"yÅ«":986,"Ġmaha":987,"Ġduá¸¥":988,"tum":989,"jÃ±e":990,"krÄģ":991,"á¹£á¹ĩa":992,"ĠdevÄģ":993,"ĠevÄģ":994,"ĠpÅ«r":995,"Ġká¹ĽtvÄģ":996,"vaca":997,"rÄģá¸¥":998,"mÅ«":999,"bra":1000,"laá¸¥":1001,"bhÄ«":1002,"stra":1003,"bo":1004,"bhÄģve":1005,"haá¸¥":1006,"ĠgÄģ":1007,"ĠvÄ«":1008,"dhaá¹ĥ":1009,"Ġatra":1010,"á¹£Ä«":1011,"bhyÄģá¹ĥ":1012,"dhaá¸¥":1013,"Ġná¹Ľ":1014,"ktaá¹ĥ":1015,"ĠupÄģ":1016,"veda":1017,"ká¹Ľta":1018,"Ġtan":1019,"kÄģá¸¥":1020,"Ġpunar":1021,"Ġbhavet":1022,"gama":1023,"mÄģtra":1024,"rava":1025,"Ġco":1026,"tuá¸¥":1027,"mÄģr":1028,"pÄģramitÄģ":1029,"kasya":1030,"ĠrÅ«pa":1031,"Ġkathaá¹ĥ":1032,"á¹ĩÄģm":1033,"ĠparÄģ":1034,"mÄģá¹ĥ":1035,"paá¸¥":1036,"rat":1037,"Ġsma":1038,"Ġbho":1039,"upa":1040,"trÄ«":1041,"ĠdarÅĽa":1042,"mahÄģ":1043,"vra":1044,"Ġgha":1045,"khi":1046,"Ġmama":1047,"sye":1048,"ivÄģ":1049,"Ġhá¹Ľ":1050,"Ġitya":1051,"patti":1052,"ĠdhÄģ":1053,"cid":1054,"ste":1055,"deÅĽa":1056,"yanti":1057,"á¹ĩena":1058,"bhá¹Ľ":1059,"ĠrÄģjÄģ":1060,"dhye":1061,"nama":1062,"tro":1063,"bi":1064,"krama":1065,"viÅĽeá¹£a":1066,"Ġmana":1067,"bhyo":1068,"duá¸¥":1069,"ĠtasyÄģ":1070,"iÅĽ":1071,"Ġtato":1072,"hitÄģ":1073,"kh":1074,"Ġsamya":1075,"guá¹ĩa":1076,"siddha":1077,"Ġtá¹Ľ":1078,"Ġavi":1079,"dena":1080,"Ġbhe":1081,"raá¹ĩam":1082,"Ġtataá¸¥":1083,"samu":1084,"Ġyuk":1085,"á¹ħka":1086,"Ġbu":1087,"á¹£á¹Ńaá¹ĥ":1088,"kÄ«r":1089,"mÄģnÄģ":1090,"vaya":1091,"Ġdo":1092,"Ġmo":1093,"sahas":1094,"Ġyaá¸¥":1095,"ĠÅĽak":1096,"rá¹£a":1097,"putra":1098,"Ġtvaá¹ĥ":1099,"Ġsan":1100,"nasya":1101,"loka":1102,"Ġayaá¹ĥ":1103,"rasya":1104,"ĠÄģtma":1105,"tiá¹ĥ":1106,"ĠprajÄģ":1107,"vidhÄģ":1108,"Ġbhu":1109,"nava":1110,"Ġveda":1111,"brahma":1112,"tvo":1113,"ĠbrÄģhma":1114,"dÄģya":1115,"ÅĽvÄģ":1116,"Ġyatra":1117,"Ġji":1118,"pramÄģ":1119,"tato":1120,"Ġut":1121,"thaá¹ĥ":1122,"ira":1123,"ntaá¹ĥ":1124,"Ġli":1125,"ĠtvÄģ":1126,"Ġdh":1127,"Ġpratha":1128,"Ġahaá¹ĥ":1129,"sÄģdha":1130,"ju":1131,"pala":1132,"rÄģva":1133,"prÄģp":1134,"Ġvyava":1135,"á¹£pa":1136,"gaá¹ĥ":1137,"bhyaá¸¥":1138,"kÄ«":1139,"ÅĽri":1140,"ĠmayÄģ":1141,"gaá¸¥":1142,"Ġati":1143,"ĠdvÄģ":1144,"á¹£á¹ĩu":1145,"ryaá¹ĥ":1146,"hita":1147,"yog":1148,"Ġutta":1149,"yas":1150,"Ġvaca":1151,"jaá¸¥":1152,"ĠÅĽo":1153,"ras":1154,"prasa":1155,"Ġkva":1156,"mÄģha":1157,"cchi":1158,"Ġkim":1159,"Ġasya":1160,"Ġapy":1161,"tataá¸¥":1162,"ĠsadÄģ":1163,"Ġpraká¹Ľ":1164,"rhi":1165,"ĠdaÅĽa":1166,"nÄģdi":1167,"co":1168,"rasa":1169,"dhÅ«":1170,"yÄģn":1171,"Ġadhi":1172,"Ġanta":1173,"phu":1174,"sÄģá¹ĥ":1175,"vará¹ĩa":1176,"Ġsapta":1177,"Ġbhagava":1178,"yoja":1179,"Ġdur":1180,"nÄģni":1181,"Ġevam":1182,"yogÄģ":1183,"ĠviÅĽeá¹£a":1184,"lena":1185,"Ġ\"":1186,"tada":1187,"Ġloka":1188,"vyava":1189,"tsa":1190,"ĠÄ«":1191,"ÅĽrÄ«":1192,"ká¹£ya":1193,"bheda":1194,"jaá¹ĥ":1195,"svÄģ":1196,"mapi":1197,"á¹Ńha":1198,"mana":1199,"mba":1200,"Ġne":1201,"tÄģnÄģá¹ĥ":1202,"ĠpaÅĽ":1203,"ntu":1204,"ÅĽabda":1205,"pada":1206,"nÄģá¸¥":1207,"nanda":1208,"ĠdÄ«":1209,"Ġhy":1210,"vyaá¹ĥ":1211,"riti":1212,"Ġkhalu":1213,"á¹£á¹Ńhi":1214,"á¹£aá¹ĥ":1215,"rÄģya":1216,"cchati":1217,"taÅĽ":1218,"yitvÄģ":1219,"paá¹ĥ":1220,"phala":1221,"suk":1222,"dharmÄģ":1223,"kena":1224,"nan":1225,"ĠmÅ«":1226,"rtham":1227,"rÄģn":1228,"Ġtra":1229,"mar":1230,"pre":1231,"ĠÅĽÄ«":1232,"lya":1233,"gÄ«":1234,"á¸įÄģ":1235,"kiá¹ĥ":1236,"Ġpro":1237,"Ġag":1238,"vada":1239,"yad":1240,"gam":1241,"dur":1242,"nÄģya":1243,"padÄģ":1244,"bhÅ«ta":1245,"Ġtava":1246,"dhar":1247,"ká¹£Ä«":1248,"ĠtÄ«":1249,"bhavÄģ":1250,"sattva":1251,"á¹£á¹Ńo":1252,"Ġsarvaá¹ĥ":1253,"Ġcai":1254,"Ġdá¹Ľá¹£á¹ŃvÄģ":1255,"Ġbra":1256,"ĠvÄģk":1257,"ddhaá¹ĥ":1258,"rodha":1259,"viá¹£aya":1260,"roti":1261,"ddhe":1262,"à¥¤à¥¤":1263,"á¹£va":1264,"Ġvra":1265,"bhÅ«te":1266,"ĠÅĽá¹Ľ":1267,"Ġetad":1268,"dyu":1269,"ká¹£o":1270,"viÅĽe":1271,"Ġcit":1272,"Ġidaá¹ĥ":1273,"kÄģri":1274,"yÄģma":1275,"vÄģdi":1276,"ĠparamÄģ":1277,"rÅ«pe":1278,"gatÄģ":1279,"tasmÄģ":1280,"ĠbhagavÄģn":1281,"puru":1282,"atra":1283,"lla":1284,"karaá¹ĩa":1285,"Ġparama":1286,"ĠnÄ«":1287,"vam":1288,"nye":1289,"pan":1290,"yÄ«":1291,"á¹ĩÄģá¸¥":1292,"yau":1293,"hmÄģ":1294,"laká¹£aá¹ĩa":1295,"Ġbhagavan":1296,"ĠprajÃ±ÄģpÄģramitÄģ":1297,"Ġmadhu":1298,"vÄģk":1299,"dar":1300,"ĠmÄģá¹ĥ":1301,"kriyÄģ":1302,"á¹£á¹Ńe":1303,"cÄ«":1304,"dhÄģna":1305,"yuá¸¥":1306,"Ġasti":1307,"Ã±cÄģ":1308,"Ġkra":1309,"ĠdharmÄģ":1310,"Ġcet":1311,"Ġkau":1312,"bhyu":1313,"Ġpre":1314,"Ġteá¹£Äģá¹ĥ":1315,"Ġkasya":1316,"Ġmano":1317,"á¸įha":1318,"Ġloke":1319,"rÄģá¹ĥ":1320,"Ġjana":1321,"peká¹£a":1322,"';":1323,"vidha":1324,"ntaá¸¥":1325,"rÄģá¹ĩi":1326,"ĠbhÄģva":1327,"Ã¢":1328,"Ġhari":1329,"Ġro":1330,"hetu":1331,"vÄģsa":1332,"Ġyasya":1333,"parya":1334,"ĠdÅ«":1335,"Ġani":1336,"Ġlaká¹£a":1337,"Ġiha":1338,"ĠpratÄ«":1339,"paÃ±ca":1340,"ter":1341,"veti":1342,"á¹ħgu":1343,"yeá¹ĩa":1344,"yopa":1345,"Ġsamyak":1346,"hena":1347,"cya":1348,"Ġyena":1349,"thaiva":1350,"tasyÄģ":1351,"Ġtv":1352,"paká¹£a":1353,"rthi":1354,"dÅ«":1355,"gar":1356,"á¹ħkÄģ":1357,"Ġdhar":1358,"noti":1359,"á¹£yÄģ":1360,"rÅ«paá¹ĥ":1361,"á¹ŃÄ«":1362,"Ġnitya":1363,"veÅĽa":1364,"pÄģdÄģ":1365,"tyÄģha":1366,"Ġucyate":1367,"Ġguá¹ĩa":1368,"ttÄģ":1369,"bravÄ«":1370,"yeta":1371,"Ġsatya":1372,"ntam":1373,"manu":1374,"Ġdaká¹£i":1375,"ĠvinÄģ":1376,"á¹£Äģm":1377,"Ġká¹£i":1378,"uddhÄģ":1379,"ÅĽvara":1380,"Ġo":1381,"vidyÄģ":1382,"taiá¸¥":1383,"siddhi":1384,"vyam":1385,"tvÄģd":1386,"cch":1387,"buddha":1388,"ĠbhÄ«":1389,"Ġcatur":1390,"Ġvidhi":1391,"Ġguru":1392,"cÄģra":1393,"kala":1394,"saá¹ĥs":1395,"stathÄģ":1396,"kÄģn":1397,"Ġsaá¹ĥs":1398,"nau":1399,"ÅĽÅ«nyatÄģ":1400,"pad":1401,"ĠsÄģdha":1402,"ĠkÄģrya":1403,"Ġputra":1404,"Ġpá¹Ľthi":1405,"niá¸¥":1406,"á¹£v":1407,"Ġcatu":1408,"mupa":1409,"kÄģla":1410,"ĠgrÄģ":1411,"bhyÄģ":1412,"Ġbodhisattva":1413,"Ġkuru":1414,"EN":1415,"vara":1416,"tavyÄģ":1417,"mÄģá¸¥":1418,"jÃ±Äģnaá¹ĥ":1419,"rtho":1420,"ĠÅĽarÄ«":1421,"ĠanÄģ":1422,"ĠdvitÄ«":1423,"bodhi":1424,"á¹ĩyÄģ":1425,"vidhi":1426,"nanta":1427,"Ġcha":1428,"Ġbhaviá¹£yati":1429,"daya":1430,"á¹£ma":1431,"ĠjÄ«va":1432,"Ġbhavanti":1433,"ĠdhyÄģ":1434,"rata":1435,"yur":1436,"tavyam":1437,"bhÄģvo":1438,"Ġsau":1439,"par":1440,"dhá¹Ľ":1441,"ĠÄģdi":1442,"Ġpuruá¹£a":1443,"ttara":1444,"yed":1445,"tÄģva":1446,"vÄģá¹ĥ":1447,"Ġsvar":1448,"Ġeá¹£a":1449,"bhaá¹ĥ":1450,"Ġind":1451,"dhena":1452,"is":1453,"ÅĽyate":1454,"bhÄģvaá¸¥":1455,"nÄģn":1456,"rÄģt":1457,"bodha":1458,"Ġetat":1459,"rasÄģ":1460,"pade":1461,"jja":1462,"ĠbhÄģvaá¸¥":1463,"ĠpurÄģ":1464,"nÄģd":1465,"yÄģd":1466,"Ġkula":1467,"Ġmi":1468,"Ġparaá¹ĥ":1469,"bhÄģvÄģt":1470,"ĠÅĽe":1471,"ká¹ĽtÄģ":1472,"ĠnÄģsti":1473,"Ġagni":1474,"Ġká¹Ľta":1475,"Ġsahas":1476,"tvÄģdi":1477,"ĠpÄ«":1478,"ĠyadÄģ":1479,"kÄģá¹ĥ":1480,"Ġvarta":1481,"ĠtÄģá¹ĥ":1482,"á¹ĩasya":1483,"Ġgau":1484,"vana":1485,"ĠkÄģma":1486,"Ġvastu":1487,"ivaá¹ĥ":1488,"meá¹ĩa":1489,"kau":1490,"Ġsaá¹ĥÅĽa":1491,"yeti":1492,"tar":1493,"dhvÄģ":1494,"Ġbuddha":1495,"syÄģpi":1496,"huá¸¥":1497,"Ġgra":1498,"á¹ĩá¸įi":1499,"Ġsiddha":1500,"tim":1501,"gandha":1502,"Ġvada":1503,"bhaya":1504,"dÄ«nÄģá¹ĥ":1505,"dÄģt":1506,"nopa":1507,"Ġityarthaá¸¥":1508,"ĠtatrÄģ":1509,"sÄģra":1510,"á¹£á¹ĩÄģ":1511,"Ġse":1512,"lab":1513,"Ġcaká¹£u":1514,"hyaá¹ĥ":1515,"kÄģma":1516,"dÄģha":1517,"ptÄģ":1518,"bhaga":1519,"naya":1520,"Ġud":1521,"Ġtiá¹£á¹Ńha":1522,"jyate":1523,"Ġprasa":1524,"Ġayam":1525,"bhyate":1526,"á¹ĩÄģn":1527,"ttama":1528,"nanu":1529,"ĠviÅĽva":1530,"Ġpá¹Ľtha":1531,"ktam":1532,"Ġkeva":1533,"á¹£á¹Ńam":1534,"Ġsati":1535,"ĠÅĽro":1536,"bhaá¸¥":1537,"ĠkriyÄģ":1538,"Ġmanu":1539,"tavyaá¹ĥ":1540,"mat":1541,"ntarÄģ":1542,"á¹£yanti":1543,"ntare":1544,"Ġas":1545,"Ġvaj":1546,"ĠivÄģ":1547,"bala":1548,"ĠjÃ±Äģna":1549,"Ġasi":1550,"á¹ĩyaá¹ĥ":1551,"Ġviá¹£á¹ĩu":1552,"devÄģ":1553,"ĠÅĽabda":1554,"tram":1555,"tyuk":1556,"dhÄģra":1557,"tpatti":1558,"anu":1559,"Ġdva":1560,"cha":1561,"bÄ«":1562,"pÄģya":1563,"Ġasa":1564,"pÄģta":1565,"ÅĽata":1566,"á¹£yate":1567,"ĠmÅ«r":1568,"daÅĽÄģ":1569,"jam":1570,"nva":1571,"Ġgandha":1572,"Ġrasa":1573,"Ġkalpa":1574,"kÄģraá¹ĩa":1575,"Ġniá¹£":1576,"bhra":1577,"Ġata":1578,"ĠkÄģr":1579,"ret":1580,"vena":1581,"Ġtam":1582,"dayaá¸¥":1583,"ĠÄģtmÄģ":1584,"bhavati":1585,"á¹£á¹Ńu":1586,"tarÄģ":1587,"maá¹ĩá¸įa":1588,"ndu":1589,"Ġ?":1590,"mala":1591,"á¹ĩÄģt":1592,"ĠityÄģdi":1593,"khya":1594,"á¸įi":1595,"Ġkur":1596,"vá¹Ľtta":1597,"eka":1598,"tho":1599,"á¹ħgaá¹ĥ":1600,"Ġpravi":1601,"ĠadhyÄģ":1602,"nai":1603,"á¹ĩá¸įÄģ":1604,"Ġceti":1605,"cu":1606,"neka":1607,"rdha":1608,"ĠmÄģr":1609,"dhÄģya":1610,"dhÄģtu":1611,"jÃ±ap":1612,"parÄ«":1613,"ÅĽam":1614,"lÄģá¸¥":1615,"vatÄ«":1616,"purÄģ":1617,"ĠsubhÅ«te":1618,"tÅ«":1619,"Ġbi":1620,"ĠsÅ«r":1621,"puna":1622,"vinÄģ":1623,"ĠvidyÄģ":1624,"nÄ«á¹ĥ":1625,"syo":1626,"ĠÄģga":1627,"cin":1628,"Ġhetu":1629,"ÅĽakti":1630,"mÄģra":1631,"mau":1632,"mÄģnya":1633,"lpa":1634,"ĠyajÃ±a":1635,"ĠkÄģla":1636,"á¹£á¹Ńaá¸¥":1637,"mena":1638,"ĠkÄģra":1639,"Ġtarhi":1640,"Ġphala":1641,"ĠÅĽÅ«nya":1642,"ĠsnÄģ":1643,"ĠbhrÄģ":1644,"teá¹£u":1645,"ny":1646,"mitya":1647,"á¹£eá¹ĩa":1648,"ĠprÄ«":1649,"Ġaham":1650,"smÄģt":1651,"ká¹Ľtya":1652,"viro":1653,"ká¹£aá¹ĥ":1654,"dhvaá¹ĥ":1655,"vartate":1656,"Ġhya":1657,"jÃ±o":1658,"nto":1659,"mÄģnaá¹ĥ":1660,"ĠÅĽre":1661,"ÅĽá¹Ľ":1662,"Ġnara":1663,"Ġju":1664,"vala":1665,"tana":1666,"tpÄģ":1667,"bhÄģga":1668,"the":1669,"Ġbuddhi":1670,"lÄģni":1671,"ĠcÄģpi":1672,"yÄģdi":1673,"ká¹£ma":1674,"kÅ«":1675,"gho":1676,"Ġasau":1677,"ĠÄģsa":1678,"ÅĽarÄ«":1679,"ccÄģ":1680,"hati":1681,"neti":1682,"ĠhÄģ":1683,"á¹ĩá¸įe":1684,"ĠsattvÄģ":1685,"Ġbo":1686,"sÄģma":1687,"gataá¹ĥ":1688,"ĠmÄģna":1689,"Ġtasmin":1690,"ĠsyÄģd":1691,"strÄģ":1692,"ĠtvayÄģ":1693,"yÄģmÄģ":1694,"kÄģraá¸¥":1695,"Ġgar":1696,"kÄģr":1697,"Ġbhá¹Ľ":1698,"padyate":1699,"ĠnÄģnÄģ":1700,"maha":1701,"ntar":1702,"svabhÄģva":1703,"yogena":1704,"Ġdat":1705,"kaá¹ĩ":1706,"Ġartha":1707,"ĠÅĽrutvÄģ":1708,"raiá¸¥":1709,"hur":1710,"bravÄ«t":1711,"ruddha":1712,"rÄģma":1713,"smai":1714,"vyati":1715,"Ġpri":1716,"mÄģdi":1717,"vÄģá¸¥":1718,"toá¸¥":1719,"ĠkadÄģ":1720,"ĠekÄģ":1721,"ĠpaÅĽya":1722,"Ġtya":1723,"mÄģni":1724,"sparÅĽa":1725,"Ġ[":1726,"Ġvaká¹£":1727,"nÄģti":1728,"lambha":1729,"mantra":1730,"bhÄģvi":1731,"yadi":1732,"ÅĽaá¹ħ":1733,"kÄģrya":1734,"Ġsphu":1735,"yatÄģ":1736,"Ġidam":1737,"ska":1738,"Ġpad":1739,"Ġbodhisattvo":1740,"ÅĽena":1741,"varti":1742,"ĠviÅĽe":1743,"nyathÄģ":1744,"sÄģm":1745,"cana":1746,"vÄģda":1747,"Ġkatham":1748,"á¹Ńe":1749,"bhave":1750,"cÄģri":1751,"daká¹£i":1752,"ĠjÄģyate":1753,"bhate":1754,"ĠmahÄ«":1755,"gá¹ĽhÄ«":1756,"bhÅ«tÄģ":1757,"ÅĽak":1758,"ropa":1759,"hitaá¹ĥ":1760,"á¹ħgÄ«":1761,"vÄģha":1762,"ĠbrahmÄģ":1763,"rau":1764,"bhedÄģ":1765,"Ã±ci":1766,"hÄģt":1767,"pratÄ«":1768,"pyÄģ":1769,"vasa":1770,"Ġtapa":1771,"ÅĽre":1772,"Ġsaá¸¥":1773,"gato":1774,"smá¹Ľ":1775,"dÄģna":1776,"riyate":1777,"Ġarthaá¸¥":1778,"jyÄģ":1779,"sena":1780,"Ġnityaá¹ĥ":1781,"pÄģla":1782,"teti":1783,"Ġtá¹ĽtÄ«":1784,"ddho":1785,"tair":1786,"Ġpau":1787,"jÃ±ÄģnÄģ":1788,"Ġduá¸¥kha":1789,"vasthÄģ":1790,"bhÄģsa":1791,"doá¹£a":1792,"lamba":1793,"bud":1794,"tmanaá¸¥":1795,"gan":1796,"kram":1797,"ÅĽaya":1798,"Ġnai":1799,"ĠyÄģvat":1800,"dhyate":1801,"rá¹ĩa":1802,"bham":1803,"kaiá¸¥":1804,"Ġvakta":1805,"ĠjÃ±e":1806,"nitya":1807,"ĠbrÅ«":1808,"bhavat":1809,"ĠhÄ«":1810,"nÄģpi":1811,"Ġkaroti":1812,"rÄģdi":1813,"ndri":1814,"á¹£á¹Ńhe":1815,"ĠÅĽiva":1816,"kÄģro":1817,"Ġvak":1818,"tthÄģ":1819,"mÅ«r":1820,"taÅĽca":1821,"ĠdhÄ«":1822,"yeá¹£u":1823,"ÅĽabdÄģ":1824,"ndriyÄģ":1825,"tapa":1826,"Ġrat":1827,"Ġdar":1828,"tte":1829,"athÄģ":1830,"mukha":1831,"sÄģda":1832,"niá¹£":1833,"ĠtÄģn":1834,"Ġsá¹Ľ":1835,"vatsa":1836,"Ġká¹Ľá¹£á¹ĩa":1837,"ndriya":1838,"katva":1839,"á¹£á¹ĩo":1840,"nyo":1841,"ĠÅĽuk":1842,"Ġgá¹Ľh":1843,"dga":1844,"Ġká¹£e":1845,"yai":1846,"Ġaha":1847,"á¹ħku":1848,"gdha":1849,"tiá¹£á¹Ńha":1850,"patiá¸¥":1851,"hni":1852,"AR":1853,"CO":1854,"MM":1855,"COMM":1856,"Ġnaá¸¥":1857,"TAR":1858,"ENTAR":1859,"COMMENTAR":1860,"COMMENTARY":1861,"yaÅĽ":1862,"nÅ«":1863,"katha":1864,"ĠstrÄ«":1865,"tai":1866,"rÄģá¹ĩÄģá¹ĥ":1867,"treá¹ĩa":1868,"vaj":1869,"'t":1870,"pitÄģ":1871,"ĠtasmÄģt":1872,"vira":1873,"ĠpadÄģ":1874,"phalaá¹ĥ":1875,"ká¹Ľtaá¹ĥ":1876,"kÄģle":1877,"Ġparam":1878,"ĠpaÅĽcÄģ":1879,"Ġsvayaá¹ĥ":1880,"meti":1881,"dyo":1882,"á¹ĥs":1883,"ká¹Ľt":1884,"rda":1885,"Ġvidyate":1886,"buddhi":1887,"Ġká¹£Ä«":1888,"meva":1889,"mbha":1890,"min":1891,"tyeva":1892,"sattvÄģ":1893,"thaá¸¥":1894,"catu":1895,"ÅĽraya":1896,"tava":1897,"nyaá¹ĥ":1898,"ccheda":1899,"Ġtathaiva":1900,"tmanÄģ":1901,"Ġmuni":1902,"dayo":1903,"á¹Ńu":1904,"Ġbhiká¹£u":1905,"ndÄģ":1906,"balÄģ":1907,"padya":1908,"ÅĽyÄģ":1909,"Ġgaccha":1910,"ceta":1911,"ĠabhÅ«":1912,"ĠkuÅĽa":1913,"cara":1914,"tasmÄģt":1915,"rÅ«peá¹ĩa":1916,"Ġvini":1917,"abhi":1918,"Ġsamyaksaá¹ĥ":1919,"pti":1920,"lava":1921,"saha":1922,"tadÄģ":1923,"gataá¸¥":1924,"á¹ħge":1925,"ĠtasmÄģd":1926,"ÅĽvaraá¸¥":1927,"ÅĽyati":1928,"hÄģya":1929,"Ġyoja":1930,"Ġdá¹Ľá¹£á¹ŃÄģ":1931,"Ġho":1932,"rha":1933,"laá¹ħ":1934,"bhÄģvena":1935,"mas":1936,"Ġbá¹Ľ":1937,"Ġpá¹ĽthivÄ«":1938,"ĠnirÄģ":1939,"ĠdhÅ«":1940,"vasÄģ":1941,"lyÄģ":1942,"ĠasmÄģ":1943,"Ġvid":1944,"kará¹£a":1945,"guru":1946,"sarvÄģ":1947,"Ġgho":1948,"yogi":1949,"gne":1950,"Ġná¹Ľpa":1951,"hitaá¸¥":1952,"Ġsukha":1953,"ĠrÄģjan":1954,"kte":1955,"rvÄģ":1956,"rapi":1957,"tasta":1958,"Ġgi":1959,"Ġbahi":1960,"mitta":1961,"Ġmit":1962,"canÄģ":1963,"bhyupa":1964,"kalÄģ":1965,"ká¹£ate":1966,"Ġmantra":1967,"á¹ĥÅĽ":1968,"bdha":1969,"ĠdhÄģra":1970,"vÄģkya":1971,"Ġsvayam":1972,"guá¹ĩÄģ":1973,"tpÄģda":1974,"ikÄģ":1975,"kama":1976,"pÄģdi":1977,"vitÄģ":1978,"ĠÅĽakti":1979,"bahu":1980,"saá¹ĥyuk":1981,"naiá¸¥":1982,"Ġdai":1983,"Ġnira":1984,"ĠÅĽabdÄģ":1985,"Ġdve":1986,"á¹£yÄģmi":1987,"kÄģre":1988,"Ġato":1989,"á¹ĩÄģma":1990,"nÄ«ya":1991,"Ġkurva":1992,"Ġvipra":1993,"ĠkaÅĽci":1994,"khe":1995,"ntÄ«":1996,"Ġdhá¹Ľ":1997,"Ġapra":1998,"bhau":1999,"ndo":2000,"Ġnya":2001,"liá¹ħga":2002,"ĠÄģyu":2003,"kuÅĽa":2004,"ĠvyÄģkhyÄģ":2005,"varji":2006,"ĠsÄģká¹£Äģ":2007,"á¹£am":2008,"ĠlÄģ":2009,"Ġmadhya":2010,"masya":2011,"hara":2012,"ĠpÄģpa":2013,"ĠvijÃ±Äģ":2014,"Ġtvam":2015,"tamo":2016,"á¹ĩá¸įu":2017,"á¹ħgi":2018,"ĠprÄģá¹ĩa":2019,"nÄģbhi":2020,"gau":2021,"kÄģnÄģá¹ĥ":2022,"viÅĽi":2023,"ĠÅĽra":2024,"mukhÄģ":2025,"vatÄģ":2026,"taraá¹ĥ":2027,"ntaraá¹ĥ":2028,"iÅĽca":2029,"stÄ«":2030,"brÄģhma":2031,"sana":2032,"ĠityÄģ":2033,"Ġmanaá¸¥":2034,"sra":2035,"Ġká¹ĽtÄģ":2036,"Ġuda":2037,"ĠÅ«":2038,"Ġastu":2039,"ĠvÄģc":2040,"dru":2041,"viti":2042,"nimit":2043,"mbu":2044,"teá¹£Äģá¹ĥ":2045,"kula":2046,"mÄģá¹ĩa":2047,"tvama":2048,"Ġnava":2049,"bhyÄģm":2050,"viá¹ĥÅĽa":2051,"gaá¹ĩa":2052,"neá¹£u":2053,"ĠbhÅ«ta":2054,"dhÄ«yate":2055,"kÄģraá¹ĥ":2056,"Ġnamaá¸¥":2057,"syÄģá¹ĥ":2058,"saá¹ħ":2059,"Ġviva":2060,"jÄģá¸¥":2061,"Ġkena":2062,"dhiá¸¥":2063,"ĠtÄģvat":2064,"snÄģ":2065,"mÄģtrÄģ":2066,"ĠrasÄģ":2067,"Ġparva":2068,"Ġjagat":2069,"sad":2070,"nnaá¹ĥ":2071,"ÅĽce":2072,"ĠtÄģm":2073,"ĠvÄģca":2074,"ĠdevÄ«":2075,"mano":2076,"mÄģtraá¹ĥ":2077,"ĠkuryÄģ":2078,"mati":2079,"á¹ĩÄģni":2080,"Ġkari":2081,"tyanta":2082,"Ġgá¹ĽhÄ«":2083,"ĠbÄ«":2084,"Ġjyo":2085,"yÄģni":2086,"ÅĽve":2087,"Ġmat":2088,"dat":2089,"Ġbud":2090,"siddhÄģ":2091,"ĠpitÄģ":2092,"Ġpura":2093,"loke":2094,"jyaá¹ĥ":2095,"ĠpaÅĽyati":2096,"putrÄģ":2097,"ĠÅ«r":2098,"Ġnaiva":2099,"tame":2100,"Ġsura":2101,"Ġmahe":2102,"karÄģ":2103,"á¸įhÄģ":2104,"á¹£á¹Ńhaá¹ĥ":2105,"evam":2106,"khye":2107,"ká¹Ľti":2108,"ĠtÄģdá¹Ľ":2109,"dhiá¹£á¹Ńhi":2110,"Ġapya":2111,"ĠpÅ«rvaá¹ĥ":2112,"karo":2113,"tyupa":2114,"grÄ«":2115,"Ġpratyaká¹£a":2116,"á¹ħgaá¸¥":2117,"Ġvedi":2118,"Ġniá¸¥":2119,"Ġsaá¹ĥpra":2120,"patteá¸¥":2121,"citta":2122,"á¹ĥha":2123,"phalÄģ":2124,"Ġhá¹Ľda":2125,"pyate":2126,"Ġspa":2127,"Ġpratye":2128,"bhidhÄģ":2129,"ĠsvÄģhÄģ":2130,"Ġsvap":2131,"ĠnyÄģ":2132,"ĠÅĽata":2133,"ĠdÄ«r":2134,"ndrÄģ":2135,"ĠrÅ«paá¹ĥ":2136,"ĠsÄģma":2137,"bandhÄģ":2138,"ÅĽrÄģ":2139,"kÄ«rti":2140,"bhÅ«taá¹ĥ":2141,"jj":2142,"api":2143,"tavya":2144,"á¹Ńaá¹ĥ":2145,"kto":2146,"reá¹£u":2147,"Ġcarati":2148,"mityarthaá¸¥":2149,"uktaá¹ĥ":2150,"Ġprayoja":2151,"vyaá¸¥":2152,"Ġcak":2153,"kÄģÅĽÄģ":2154,"madhu":2155,"Ġpuá¹ĩya":2156,"vit":2157,"ÅĽcaiva":2158,"hvÄģ":2159,"Ġnu":2160,"ĠkarmÄģ":2161,"Ġbala":2162,"Ġyaja":2163,"tvasya":2164,"bhavi":2165,"Ġutpa":2166,"jÃ±aá¸¥":2167,"Ġparya":2168,"Ġkara":2169,"karmÄģ":2170,"pramÄģá¹ĩa":2171,"ĠavÄģ":2172,"ÅĽuddha":2173,"Ġmanasi":2174,"ká¹£aá¸¥":2175,"ptaá¹ĥ":2176,"tÄģyÄģá¹ĥ":2177,"yoge":2178,"Ġap":2179,"sara":2180,"ity":2181,"trÄģá¹ĩi":2182,"ĠÅĽá¹Ľá¹ĩu":2183,"Ġyan":2184,"ĠkÄģraá¹ĩa":2185,"Ġre":2186,"paryÄģ":2187,"lokya":2188,"Ġarha":2189,"duá¸¥kha":2190,"ktyÄģ":2191,"sarve":2192,"ĠrÄģká¹£a":2193,"Ġtac":2194,"yatra":2195,"jÄ«va":2196,"bhrama":2197,"dyathÄģ":2198,"ĠmahÄģsattva":2199,"lita":2200,"Ġsad":2201,"tyo":2202,"gaccha":2203,"ĠabravÄ«t":2204,"Ġabhya":2205,"viÅĽa":2206,"ÅĽrava":2207,"á¹Ŀ":2208,"Ġtar":2209,"Ġparame":2210,"ruá¹ĩÄģ":2211,"bhrÄģ":2212,"Ġete":2213,"yituá¹ĥ":2214,"yadÄģ":2215,"kathaá¹ĥ":2216,"ĠpramÄģá¹ĩa":2217,"dhika":2218,"ĠdÄģna":2219,"bhÅ«mi":2220,"ÅĽrama":2221,"Ġghaá¹Ńa":2222,"viÅĽeá¹£Äģ":2223,"tamÄģ":2224,"á¹£oá¸įa":2225,"kÄģreá¹ĩa":2226,"rada":2227,"puá¹£":2228,"Ġupala":2229,"Ġpati":2230,"hva":2231,"Ġdá¹ĽÅĽyate":2232,"ĠsÄ«":2233,"ĠdeÅĽa":2234,"nÄģnÄģá¹ĥ":2235,"Ġhu":2236,"ĠjÃ±Äģnaá¹ĥ":2237,"ĠdevatÄģ":2238,"ĠsiddhÄģ":2239,"kle":2240,"sura":2241,"sapta":2242,"kÄģá¹ħ":2243,"be":2244,"ĠgatvÄģ":2245,"ava":2246,"ĠvedÄģ":2247,"nayÄģ":2248,"ĠkÄ«r":2249,"pau":2250,"Ġraja":2251,"Ġjala":2252,"nÄģnÄģ":2253,"nvi":2254,"Ġmai":2255,"ÅĽyaá¹ĥ":2256,"ĠaÅĽ":2257,"paká¹£e":2258,"Ġpraá¹ĩa":2259,"Ġsaá¹ĥÅĽayaá¸¥":2260,"rÄģjÄģ":2261,"Ġdhva":2262,"Äģdi":2263,"Ġasmi":2264,"ĠpÅ«ja":2265,"puruá¹£a":2266,"á¹ĩÄģnÄģá¹ĥ":2267,"vid":2268,"lÄģá¹ĥ":2269,"Ġmadhye":2270,"mÄģno":2271,"ĠsvabhÄģva":2272,"ghu":2273,"Ġsarvatra":2274,"jaga":2275,"Ġvasu":2276,"deÅĽe":2277,"Ġlaká¹£":2278,"mucyate":2279,"mnÄģ":2280,"ĠprakÄģÅĽa":2281,"Ġnanu":2282,"mate":2283,"nÄ«m":2284,"deÅĽÄģ":2285,"rasaá¹ĥ":2286,"Ġgraha":2287,"á¹Ńo":2288,"likÄģ":2289,"myÄģ":2290,"á¹ĩÄģdi":2291,"ĠbhÅ«mi":2292,"ĠvÄģsa":2293,"ĠvÄģkya":2294,"ĠanyathÄģ":2295,"strÄ«":2296,"tatas":2297,"ratna":2298,"Ġkala":2299,"syeti":2300,"dyaá¹ĥ":2301,"khaá¹ĥ":2302,"trÄģpi":2303,"mava":2304,"ruá¹ĩa":2305,"raá¹ĩya":2306,"apa":2307,"ĠsÄģdhu":2308,"á¹ĥsa":2309,"ĠtathÄģpi":2310,"dhau":2311,"ut":2312,"dana":2313,"madhya":2314,"karoti":2315,"Ġdeve":2316,"padaá¹ĥ":2317,"Ġpraká¹Ľti":2318,"niÅĽca":2319,"dro":2320,"bhavaá¸¥":2321,"Ġasmin":2322,"á¹ĩy":2323,"vÄģsi":2324,"gya":2325,"vardha":2326,"tasmin":2327,"janma":2328,"Ġjanma":2329,"dvai":2330,"Ġphalaá¹ĥ":2331,"ttamam":2332,"rÅ«pi":2333,"jjÄģ":2334,"gá¹Ľh":2335,"tasmÄģd":2336,"lyaá¹ĥ":2337,"ritÄģ":2338,"Ġghá¹Ľ":2339,"stva":2340,"th":2341,"Ġpá¹Ľthak":2342,"Ġvara":2343,"vastu":2344,"stri":2345,"pata":2346,"Ġvo":2347,"ĠkuryÄģt":2348,"ĠviÅĽi":2349,"pratyaya":2350,"saman":2351,"Ġpratiá¹£á¹ŃhÄģ":2352,"svarÅ«pa":2353,"Ġká¹£Äģ":2354,"ĠasyÄģ":2355,"ĠkÄģryaá¹ĥ":2356,"á¹£á¹Ńau":2357,"rita":2358,"Ġsarvam":2359,"ĠsÄģdhya":2360,"vopa":2361,"cyu":2362,"lasya":2363,"mahe":2364,"cakra":2365,"ÄĢ":2366,"tÄģpa":2367,"nara":2368,"maya":2369,"ndhÄģ":2370,"Ġdiva":2371,"kva":2372,"Ġpada":2373,"cÅ«r":2374,"ttha":2375,"puá¹£pa":2376,"ktaá¸¥":2377,"Ġmanya":2378,"rthasya":2379,"ĠpÅ«rvÄģ":2380,"rdhaá¹ĥ":2381,"bandhaá¸¥":2382,"ĠprajÃ±ÄģpÄģramitÄģyÄģá¹ĥ":2383,"tor":2384,"har":2385,"Ġpuá¹£":2386,"jet":2387,"dve":2388,"ĠpaÅĽu":2389,"ttarÄģ":2390,"harati":2391,"nÄģÅĽa":2392,"ndi":2393,"Ġsiddhi":2394,"viva":2395,"tmÄģnaá¹ĥ":2396,"Ġyoga":2397,"mÄģne":2398,"Ġbheda":2399,"mÄ«ti":2400,"Ġpuruá¹£Äģ":2401,"catur":2402,"kÄģya":2403,"gÄģá¸¥":2404,"Ġsattva":2405,"raÅĽ":2406,"ĠsÄģá¹ĥ":2407,"jÃ±apriyÄģ":2408,"Ġpuruá¹£o":2409,"jÃ±atÄģ":2410,"Ġasaá¹ĥ":2411,"Ġkathi":2412,"vu":2413,"padi":2414,"Ġvira":2415,"stasya":2416,"tavyaá¸¥":2417,"gati":2418,"ĠpÄģra":2419,"syati":2420,"tru":2421,"gate":2422,"nirÄģ":2423,"jaya":2424,"Ġstha":2425,"Ġtattva":2426,"anya":2427,"Ġpitá¹Ľ":2428,"nÄģnu":2429,"ĠkÄģryÄģ":2430,"ĠpÄģá¹ĩá¸įa":2431,"Ġceta":2432,"dhyaá¹ĥ":2433,"Ġdhi":2434,"tÄģs":2435,"ká¹Ľtam":2436,"nÄģva":2437,"yodha":2438,"dhÄģnaá¹ĥ":2439,"tyam":2440,"Ġgam":2441,"ĠyÄģvad":2442,"Ġle":2443,"sÄģdhana":2444,"dvitÄ«":2445,"Ġdoá¹£a":2446,"Ġvajra":2447,"ĠkaÅĽ":2448,"Ġká¹Ľá¹£":2449,"mayÄģ":2450,"laká¹£aá¹ĩÄģ":2451,"ĠÅĽrÄģva":2452,"heti":2453,"Ġdhru":2454,"Ġamá¹Ľ":2455,"pratiá¹£e":2456,"ata":2457,"pet":2458,"gena":2459,"rÄ«á¹ĥ":2460,"ĠkiÃ±":2461,"Å«la":2462,"yana":2463,"rÄģd":2464,"prakÄģÅĽa":2465,"rodhÄģ":2466,"Ġcitta":2467,"citra":2468,"Ġanena":2469,"paka":2470,"mÄģya":2471,"ĠbabhÅ«":2472,"saá¹ĥsparÅĽa":2473,"laká¹£":2474,"peká¹£Äģ":2475,"Ġmá¹Ľtyu":2476,"ĠtÄģva":2477,"ĠmahÄģsat":2478,"varÄģ":2479,"mabhi":2480,"ĠtÄģvad":2481,"saá¹ĥjÃ±Äģ":2482,"cÄģrya":2483,"Ġuktaá¹ĥ":2484,"yukta":2485,"rdhÄģ":2486,"Ġká¹£u":2487,"Ġyatho":2488,"Ġkaro":2489,"ĠnÄģnya":2490,"Ġá¹£aá¸į":2491,"yÄģva":2492,"yuktaá¹ĥ":2493,"vyo":2494,"Ġsamanupa":2495,"á¹ĩÄģti":2496,"prasÄģ":2497,"payet":2498,"vijÃ±Äģna":2499,"nmÄģ":2500,"deha":2501,"grahÄģ":2502,"grÄģha":2503,"Ġpriya":2504,"pate":2505,"darÅĽana":2506,"pÄģsa":2507,"kÄģdi":2508,"Ġnamo":2509,"Ġkvacit":2510,"Ġuktam":2511,"pro":2512,"Ġkhal":2513,"yora":2514,"sthitaá¸¥":2515,"yogaá¸¥":2516,"ĠcatvÄģ":2517,"yÄģmÄģsa":2518,"tsÄģ":2519,"Ġprabhu":2520,"ĠputrÄģ":2521,"ĠsÄģmÄģnya":2522,"ĠmÄģm":2523,"ĠvÄģyu":2524,"panna":2525,"sthaá¹ĥ":2526,"midaá¹ĥ":2527,"ĠvarÄģ":2528,"pannÄģ":2529,"ĠÅĽruti":2530,"vikalpa":2531,"baddha":2532,"Ġaká¹£a":2533,"syaiva":2534,"bhÄģá¹£a":2535,"ĠÅĽara":2536,"Ġcid":2537,"ana":2538,"dá¹Ľá¹£á¹Ńa":2539,"raka":2540,"Ġá¹£aá¹Ń":2541,"Ġataá¸¥":2542,"tmano":2543,"myaá¹ĥ":2544,"ĠyÄģti":2545,"Ġkima":2546,"Ġsaá¹ĥvi":2547,"Ġvará¹ĩa":2548,"gdhÄģ":2549,"Ġadya":2550,"sanni":2551,"ĠbhÅ«tvÄģ":2552,"kÄģni":2553,"voca":2554,"Ġpuá¹£pa":2555,"ĠpÄģda":2556,"pÄģrami":2557,"grahaá¸¥":2558,"ĠrÅ«pÄģ":2559,"hitam":2560,"kalpÄģ":2561,"tyÄģá¹ĥ":2562,"sthÄģna":2563,"rikÄģ":2564,"punar":2565,"ĠÄģsÄ«":2566,"pÄ«ti":2567,"Ġnopa":2568,"nn":2569,"jyo":2570,"Ġvikalpa":2571,"á¹ħgo":2572,"mai":2573,"eá¹£a":2574,"smÄģd":2575,"Ġdru":2576,"staá¹ĥ":2577,"Ġsada":2578,"ĠÅĽaá¹ħ":2579,"Ġdevi":2580,"pnu":2581,"ĠÅĽai":2582,"Ġsara":2583,"katvÄģ":2584,"dhyati":2585,"tmani":2586,"ÅĽabdo":2587,"Ġhetoá¸¥":2588,"mÅ«la":2589,"palabhyate":2590,"ĠkÄģle":2591,"ká¹£epa":2592,"ĠbodhisattvÄģ":2593,"svi":2594,"Ġavya":2595,"stam":2596,"ĠprÄģpnoti":2597,"karaá¹ĩÄģ":2598,"bhiprÄģ":2599,"kartá¹Ľ":2600,"Ġchi":2601,"laya":2602,"mÄģnam":2603,"Ġyada":2604,"Ġyadya":2605,"ĠathÄģ":2606,"Ġbhar":2607,"Ġraká¹£a":2608,"ĠtÄģni":2609,"Ġpare":2610,"Ġdvija":2611,"manÄģ":2612,"Ġnimit":2613,"siddhe":2614,"Ġto":2615,"Ġká¹Ľtaá¹ĥ":2616,"kri":2617,"Ġstu":2618,"hito":2619,"pri":2620,"nni":2621,"Ġdá¹Ľá¹£á¹Ńa":2622,"ĠmÄģyÄģ":2623,"ĠbhÄģvÄģ":2624,"Ġtau":2625,"Ġai":2626,"syate":2627,"pnoti":2628,"Ġvina":2629,"kramya":2630,"Ġliá¹ħga":2631,"tÄ«nÄģá¹ĥ":2632,"Ġvá¹Ľtti":2633,"ĠtvÄģá¹ĥ":2634,"krÄ«":2635,"ravi":2636,"á¹£mÄģ":2637,"Ġpaká¹£a":2638,"nÄ«ti":2639,"karaá¹ĩe":2640,"tÄģdi":2641,"ptam":2642,"pita":2643,"Ġpar":2644,"Ġdharmaá¹ĥ":2645,"ĠadhyÄģyaá¸¥":2646,"mÄģyÄģ":2647,"dama":2648,"ritaá¹ĥ":2649,"tÄ«á¹ĥ":2650,"Ġsaá¹ħ":2651,"nas":2652,"mita":2653,"ĠdarÅĽayati":2654,"Ġniya":2655,"ká¹Ľte":2656,"khyaá¹ĥ":2657,"vyatire":2658,"Ġcandra":2659,"pÄģá¹ĩi":2660,"karaá¹ĥ":2661,"moká¹£a":2662,"mÄģtreá¹ĩa":2663,"prasaá¹ħgÄģ":2664,"Ġcara":2665,"Ġpat":2666,"Ġgacchati":2667,"Ġkrama":2668,"etad":2669,"darÅĽi":2670,"Ġvayaá¹ĥ":2671,"ÅĽma":2672,"Ġspá¹Ľ":2673,"ĠchÄģ":2674,"vibhÄģ":2675,"vijÃ±Äģ":2676,"vaÅĽÄģ":2677,"ĠvÄģpi":2678,"vidhaá¹ĥ":2679,"hrÄģ":2680,"sahasra":2681,"prÄģmÄģ":2682,"miva":2683,"sÄģdya":2684,"sphu":2685,"dÄ«pa":2686,"caká¹£u":2687,"mevÄģ":2688,"á¹£ye":2689,"mÄģnaá¸¥":2690,"ĠkÅ«":2691,"dá¹ĽÅĽa":2692,"ĠkauÅĽi":2693,"katvaá¹ĥ":2694,"ntaram":2695,"jÄģta":2696,"ar":2697,"vati":2698,"ditÄģ":2699,"dapi":2700,"gÄģma":2701,"brahmÄģ":2702,"Ġsaá¹ĥsÄģ":2703,"Ġanupa":2704,"Ġkila":2705,"ĠsvarÅ«pa":2706,"dá¹Ľá¹£á¹ŃÄģ":2707,"Ġparamaá¹ĥ":2708,"ĠrÅ«":2709,"pattiá¸¥":2710,"uá¹£a":2711,"Ġprathama":2712,"hÅ«r":2713,"jala":2714,"vak":2715,"rÄģga":2716,"ká¹£aá¹ĩa":2717,"Ġsata":2718,"ĠyÅ«":2719,"bhinna":2720,"dá¹ĽÅĽÄģ":2721,"ÅĽuk":2722,"Ġyataá¸¥":2723,"ĠtÅ«":2724,"ghá¹Ľ":2725,"Ġdraá¹£á¹Ńa":2726,"hÄģrÄģ":2727,"dhara":2728,"ĠsarvÄģn":2729,"Ġvasa":2730,"dhipa":2731,"prÄ«":2732,"madhye":2733,"Ġviá¹£aya":2734,"Ġvartate":2735,"Ġsaá¹ĥjÃ±Äģ":2736,"á¹ĩye":2737,"Ġpraya":2738,"Ġpata":2739,"Ġgaá¹ħgÄģ":2740,"paraá¹ĥ":2741,"pÄģpa":2742,"Ġuta":2743,"Ġsto":2744,"gÄģmi":2745,"mÄģnasya":2746,"Ġá¹£oá¸įa":2747,"vedÄģ":2748,"ĠdadÄģ":2749,"Ġcaran":2750,"Ġanyo":2751,"ryam":2752,"ĠudÄģ":2753,"sÄģmart":2754,"Ġri":2755,"Ġindra":2756,"ĠtathÄģgata":2757,"tvi":2758,"ĠtayÄģ":2759,"goca":2760,"Ġ!":2761,"ĠbÄģdha":2762,"ntya":2763,"Ġtatha":2764,"dre":2765,"á¹£aá¹ĩa":2766,"cinta":2767,"loca":2768,"payati":2769,"ĠanyÄģ":2770,"nÄģmÄģ":2771,"dbhu":2772,"Ġpravá¹Ľtti":2773,"pÄģá¸¥":2774,"Ġniru":2775,"saá¹ĥni":2776,"dvaya":2777,"ĠÅĽuddha":2778,"dá¹ĽÅĽya":2779,"ĠbrÄģhmaá¹ĩa":2780,"Ġdeha":2781,"ĠbÄģla":2782,"triá¹ĥÅĽa":2783,"ĠdevÄģá¸¥":2784,"nair":2785,"rá¹£i":2786,"ĠnÄģga":2787,"nÄģga":2788,"Ġprava":2789,"koá¹Ńi":2790,"kaá¹Ńa":2791,"dravya":2792,"tatrÄģ":2793,"jÄģá¹ĥ":2794,"ditya":2795,"kurva":2796,"Ġmaá¹ĩá¸įa":2797,"dhÄģraá¹ĩa":2798,"vÄģra":2799,"ndro":2800,"Ġratha":2801,"nÄģha":2802,"Ġgá¹Ľha":2803,"dita":2804,"vÄģya":2805,"ká¹Ľá¹£á¹ĩa":2806,"patta":2807,"ĠprasÄģ":2808,"ÅĽai":2809,"Ġteja":2810,"oá¹ĥ":2811,"ĠÅĽÄģstra":2812,"dvÄ«":2813,"Ġanye":2814,"Ġvyati":2815,"naka":2816,"gre":2817,"Ġdaá¹ĩá¸įa":2818,"bhoga":2819,"laká¹£aá¹ĩam":2820,"jÃ±i":2821,"yupa":2822,"mÄģnu":2823,"reva":2824,"ĠarthÄģ":2825,"Ġguá¹ĩÄģ":2826,"yogÄģt":2827,"yÄģya":2828,"ĠkeÅĽa":2829,"Ġkle":2830,"ĠuktvÄģ":2831,"dÄģnaá¹ĥ":2832,"mÄģrga":2833,"Ġvacanaá¹ĥ":2834,"ĠmanasÄģ":2835,"ĠpÄģrthi":2836,"sarvaá¹ĥ":2837,"pÅ«rá¹ĩa":2838,"Ġeta":2839,"sahasrÄģá¹ĩi":2840,"lÄģdi":2841,"Ġtai":2842,"ĠdattvÄģ":2843,"ĠvijÃ±Äģna":2844,"satya":2845,"ĠpaÃ±cÄģ":2846,"Ġtiá¹£á¹Ńhati":2847,"Ġstri":2848,"ktvÄģ":2849,"Ġsaá¹ĥni":2850,"Ġevai":2851,"meá¹£u":2852,"Ġtrai":2853,"nÄģda":2854,"ĠapÄģ":2855,"chÄģ":2856,"ĠvÄ«rya":2857,"laká¹£aá¹ĩaá¹ĥ":2858,"Ġkaá¹ĩ":2859,"Ġsmá¹Ľtaá¸¥":2860,"ĠniÅĽca":2861,"'s":2862,"prÄģpta":2863,"gamya":2864,"bá¹Ľ":2865,"gna":2866,"nimitta":2867,"tthaá¹ĥ":2868,"ĠkÄģya":2869,"ĠkumÄģ":2870,"ĠprÄģpya":2871,"ratha":2872,"jÄģtÄ«":2873,"ÅĽabdaá¸¥":2874,"hari":2875,"gá¹Ľhya":2876,"ĠsamÄ«":2877,"rÅ«po":2878,"á¹ĩikÄģ":2879,"Ġphalam":2880,"Ġpratiá¹£e":2881,"stya":2882,"dhyam":2883,"iÅĽvar":2884,"sarga":2885,"vanti":2886,"ĠÅĽaá¹ĥ":2887,"á¹£á¹ŃhÄ«":2888,"Ġbhiká¹£a":2889,"bhavÄģt":2890,"ĠsamanupaÅĽyati":2891,"naca":2892,"tatha":2893,"Ġbá¹Ľha":2894,"itya":2895,"vitam":2896,"Ġpravarta":2897,"deá¸¥":2898,"ĠÅĽubhÄģ":2899,"nira":2900,"Ġbandha":2901,"sukha":2902,"Ġbhakti":2903,"ĠbhavÄģn":2904,"ĠprayÄģ":2905,"ĠmithyÄģ":2906,"dadhÄģ":2907,"prabhá¹Ľ":2908,"yojana":2909,"á¹Ńá¹Ńa":2910,"yuktÄģ":2911,"saá¹ħga":2912,"pena":2913,"lambhayogena":2914,"dÄ«r":2915,"viÅĽ":2916,"maá¹ĩi":2917,"prabhÄģ":2918,"ĠdarÅĽi":2919,"manya":2920,"rti":2921,"dÄģnÄ«á¹ĥ":2922,"straá¹ĥ":2923,"vye":2924,"Ġtatta":2925,"ĠpratyÄģ":2926,"Ġkaá¸¥":2927,"deÅĽaá¸¥":2928,"sai":2929,"parva":2930,"ĠkÄ«":2931,"gÄģn":2932,"Ġvibha":2933,"val":2934,"Ġsahasra":2935,"vará¹£a":2936,"Ġbhaved":2937,"Ġmahat":2938,"dá¹Ľá¹£á¹Ń":2939,"hyam":2940,"Ġvana":2941,"ĠparyÄģ":2942,"prajÄģ":2943,"pÅ«rvaá¹ĥ":2944,"bhira":2945,"sÄģhas":2946,"yantÄ«":2947,"Ġvraja":2948,"ĠpratijÃ±Äģ":2949,"ĠprÄģg":2950,"sÅ«r":2951,"palab":2952,"tÄģt":2953,"nur":2954,"lokÄģ":2955,"guá¹ĩaá¹ĥ":2956,"pÅ«ja":2957,"Ġane":2958,"ĠmahÄģrÄģja":2959,"Ġdravya":2960,"viá¹£Äģ":2961,"bhayÄģ":2962,"vará¹ĩÄģ":2963,"yasyÄģ":2964,"Ġmoká¹£a":2965,"ndhu":2966,"pye":2967,"Ġvará¹£a":2968,"karaá¹ĩaá¹ĥ":2969,"ĠjanÄģ":2970,"topa":2971,"ĠrÄģma":2972,"Ġanyatra":2973,"ĠpÅ«rvo":2974,"tÄģra":2975,"Ġkutaá¸¥":2976,"draá¹ĥ":2977,"ditaá¹ĥ":2978,"statra":2979,"Ġprayat":2980,"yaiva":2981,"hye":2982,"game":2983,"há¹Ľda":2984,"ĠupÄģdÄģya":2985,"Ġsoma":2986,"bhÅ«á¹£i":2987,"spá¹Ľ":2988,"Ġnaraá¸¥":2989,"pÄģdhi":2990,"ĠO":2991,"sÄģá¸¥":2992,"Ġvyabhi":2993,"laá¹ħkÄģra":2994,"hata":2995,"END":2996,"ĠOF":2997,"ĠCOMMENTARY":2998,"yya":2999,"ĠsahÄģ":3000,"patir":3001,"bandhi":3002,"ÅĽÄģá¹ĥ":3003,"Ġpratyu":3004,"Ġbodhisattvasya":3005,"ĠÅĽrÄģ":3006,"iha":3007,"jye":3008,"á¹ŃhÄģ":3009,"ĠbhÄģrata":3010,"tayo":3011,"Ġkriyate":3012,"bhÄģvanÄģ":3013,"Ġkartá¹Ľ":3014,"ttamaá¸¥":3015,"ĠatÄ«":3016,"Ġsai":3017,"ĠparÄ«":3018,"dÄģá¹ĥ":3019,"ĠÄģra":3020,"ĠprÄģmÄģ":3021,"á¹ĩá¸įÄ«":3022,"Ġpuro":3023,"dupa":3024,"gatam":3025,"darÅĽanÄģ":3026,"II":3027,"vane":3028,"meya":3029,"jÄģti":3030,"mÄģm":3031,"Ġgataá¸¥":3032,"ĠÅĽrÅ«":3033,"dÄ«ni":3034,"ĠdÄ«rgha":3035,"Ġdivya":3036,"putro":3037,"sá¹Ľja":3038,"vasi":3039,"rambha":3040,"Ġvaá¸¥":3041,"litÄģ":3042,"Vi":3043,"ká¹Ľtaá¸¥":3044,"á¹ĩÄģya":3045,"vÄģna":3046,"khÄ«":3047,"Ġká¹£atri":3048,"ÅĽruti":3049,"ĠbuddhÄģ":3050,"ĠsÅ«tra":3051,"Ġsarveá¹£Äģá¹ĥ":3052,"ati":3053,"stÄ«ti":3054,"viá¹£á¹ĩu":3055,"ahaá¹ĥ":3056,"dhiá¹£á¹ŃhÄģ":3057,"bhiÅĽ":3058,"dÄģá¸¥":3059,"ryÄģá¹ĥ":3060,"Ġabhavat":3061,"ukta":3062,"reá¹ĩÄģ":3063,"Ġmá¹Ľga":3064,"Ġaá¹ħga":3065,"ĠdvÄģdaÅĽa":3066,"han":3067,"ĠvibhÄģ":3068,"ĠmÄģnu":3069,"tá¹Ŀ":3070,"iá¹£a":3071,"ÅĽau":3072,"tyucyate":3073,"tattva":3074,"ĠÅĽeá¹£aá¸¥":3075,"idaá¹ĥ":3076,"priyÄģ":3077,"janaá¹ĥ":3078,"Ġsamyag":3079,"diá¹£u":3080,"á¹£á¹Ńho":3081,"Ġbhaviá¹£ya":3082,"sane":3083,"sthitÄģ":3084,"ÅĽiva":3085,"ĠvÄģkyaá¹ĥ":3086,"ĠviÅĽvÄģ":3087,"Ġantar":3088,"ĠkrÄ«":3089,"danta":3090,"bhede":3091,"raja":3092,"Ġeá¹£Äģ":3093,"ĠparamÄģrtha":3094,"ÅĽvaram":3095,"Ġdoá¹£Äģ":3096,"Ġyujyate":3097,"Ġgiri":3098,"bhayaá¹ĥ":3099,"lÄģn":3100,"hÄģraá¸¥":3101,"Ġcitra":3102,"sto":3103,"hasya":3104,"Ġvivi":3105,"tvÄģda":3106,"cchÄģmi":3107,"ete":3108,"ÅĽabdena":3109,"yogo":3110,"Ġdharmo":3111,"kyÄģ":3112,"pura":3113,"ĠÅĽuci":3114,"ká¹£yÄģmi":3115,"ĠnarÄģ":3116,"buddhÄģ":3117,"karaá¸¥":3118,"trya":3119,"ÅĽara":3120,"gran":3121,"pÅ«ra":3122,"ká¹ĽtvÄģ":3123,"ĠsamÄģdhi":3124,"á¹£yaá¹ĥ":3125,"mitra":3126,"pravi":3127,"Ġtatraiva":3128,"devaá¹ĥ":3129,"Ġpadma":3130,"Ġsatyaá¹ĥ":3131,"ĠlokÄģ":3132,"katvÄģt":3133,"Ġmahi":3134,"caret":3135,"Ġnaga":3136,"Ġyaá¹ĥ":3137,"rasi":3138,"yiá¹£yati":3139,"chi":3140,"viá¹£ayÄģ":3141,"ĠkathÄģ":3142,"hÄģri":3143,"ÅĽama":3144,"bhÄģvaá¹ĥ":3145,"tá¹ĽtÄ«":3146,"Ġaá¹£á¹Ńa":3147,"Ġbhrama":3148,"Ġeveti":3149,"paramÄģ":3150,"ekÄģ":3151,"Ġska":3152,"my":3153,"kair":3154,"tsu":3155,"Ġviro":3156,"Ġuttara":3157,"Ġmar":3158,"pá¹Ľthi":3159,"Ġsvarga":3160,"paÅĽya":3161,"pratha":3162,"Ġcinta":3163,"agni":3164,"ts":3165,"layÄģ":3166,"vÄģri":3167,"Ġitye":3168,"pÄģr":3169,"Ġpuá¹ĥ":3170,"Ġn":3171,"nÄģmi":3172,"ĠpradhÄģ":3173,"Ġmaru":3174,"grahe":3175,"dá¹ĽÅĽaá¹ĥ":3176,"bahi":3177,"praá¹ĩi":3178,"ĠsarvadÄģ":3179,"sÄģdhya":3180,"ĠbalÄģ":3181,"Ġtapo":3182,"ĠsÄģrdhaá¹ĥ":3183,"Ġpadaá¹ĥ":3184,"ĠprÄģha":3185,"ká¹Ľto":3186,"á¹ĩÄ«á¹ĥ":3187,"ato":3188,"Ġdoá¹£aá¸¥":3189,"ddharma":3190,"teja":3191,"ĠsurÄģ":3192,"mayaá¹ĥ":3193,"tyÄģdinÄģ":3194,"darÅĽanÄģt":3195,"mukhaá¹ĥ":3196,"varga":3197,"saá¹ĥkhyÄģ":3198,"krÄģnta":3199,"á¹ĩau":3200,"ĠaÅĽva":3201,"ĠvidhÄģ":3202,"paya":3203,"niá¹£e":3204,"Ġteá¹£u":3205,"raká¹£a":3206,"Ġviá¹£á¹ĩo":3207,"Ġsamaá¹ĥ":3208,"kapÄģ":3209,"Ġkapi":3210,"Ġbhara":3211,"stre":3212,"Äģtma":3213,"bhakti":3214,"Ġyac":3215,"dhÄģt":3216,"Ġkurute":3217,"ĠÅĽve":3218,"Ã±ji":3219,"ÅĽÅ«nyatÄģm":3220,"yoni":3221,"Ġyato":3222,"vÄģc":3223,"Ġpraá¹ĩi":3224,"tenÄģ":3225,"vanaá¹ĥ":3226,"Ġsukhaá¹ĥ":3227,"ĠsukhÄģ":3228,"bÄģdha":3229,"phÄģ":3230,"ĠprÄģá¹ĩÄģ":3231,"ká¹£ita":3232,"tiri":3233,"pare":3234,"Ġvyu":3235,"Ġcakra":3236,"Ġhare":3237,"Ġrudra":3238,"janÄģ":3239,"yeva":3240,"ĠasÄģ":3241,"á¹ĩeá¹£u":3242,"á¹ĩyam":3243,"vir":3244,"á¹£aá¹Ń":3245,"Ġaá¹£á¹ŃÄģ":3246,"Ġbali":3247,"janya":3248,"ĠviprÄģ":3249,"ĠprÄģpta":3250,"dheá¸¥":3251,"Ġvá¹Ľá¹£a":3252,"Ġduá¹£":3253,"devatÄģ":3254,"ĠtadyathÄģ":3255,"mada":3256,"Ġagne":3257,"ÅĽÄģstra":3258,"cita":3259,"dhana":3260,"Ġká¹Ľtam":3261,"pto":3262,"nuá¸¥":3263,"Ġduá¸¥khÄģ":3264,"ĠvedanÄģ":3265,"ĠkhyÄģ":3266,"rupa":3267,"meka":3268,"paro":3269,"Ġkevalaá¹ĥ":3270,"á¹Ńhe":3271,"mama":3272,"candra":3273,"ÅĽati":3274,"Ġst":3275,"VijÃ±apriyÄģ":3276,"paÅĽ":3277,"Ġaya":3278,"yÄģna":3279,"dÄģra":3280,"neha":3281,"dá¹Ľá¹£á¹ŃvÄģ":3282,"kÄģlÄģ":3283,"dharÄģ":3284,"ĠjÄģta":3285,"ditaá¸¥":3286,"Ġoá¹ĥ":3287,"ĠjÄģti":3288,"thu":3289,"Ġced":3290,"ita":3291,"ĠmamÄģ":3292,"yava":3293,"ĠnÄģpi":3294,"bandho":3295,"ÅĽÄģá¸¥":3296,"nvÄģ":3297,"Ġmaá¹ĩi":3298,"kÄģm":3299,"stat":3300,"ĠpriyÄģ":3301,"laiá¸¥":3302,"yitu":3303,"ghaá¹Ńa":3304,"Ġlu":3305,"yÄģrtha":3306,"ghÄģta":3307,"Ġpravartate":3308,"Ġyas":3309,"sid":3310,"neva":3311,"Ġvive":3312,"kusu":3313,"Ġtatas":3314,"ĠlÄ«":3315,"gÄģt":3316,"Ġbhinna":3317,"katÄģ":3318,"Ġtadvi":3319,"tantra":3320,"ryo":3321,"Ġch":3322,"lÄģnÄģá¹ĥ":3323,"dvatÄ«":3324,"Ġpravá¹Ľt":3325,"ĠnÄģrÄģya":3326,"puruá¹£Äģ":3327,"Ġyogi":3328,"ÅĽle":3329,"ĠyasyÄģ":3330,"tyai":3331,"stho":3332,"Ġsiddham":3333,"ÅĽro":3334,"ĠpÄģr":3335,"tyaá¸¥":3336,"Ġeve":3337,"ĠyÄģva":3338,"yiá¹£yanti":3339,"á¹Ńhi":3340,"Ġyuga":3341,"eta":3342,"yamÄģna":3343,"Ġsanni":3344,"á¹ĩá¸įaá¹ĥ":3345,"tvenÄģ":3346,"á¹£á¹Ńhaá¸¥":3347,"cchinna":3348,"Ġkri":3349,"etat":3350,"ĠÅĽrava":3351,"kathÄģ":3352,"ĠyÄģnti":3353,"der":3354,"ÅĽrÅ«":3355,"gamÄģ":3356,"samÄ«":3357,"ĠtÄģta":3358,"Ġlaká¹£aá¹ĩa":3359,"ĠghrÄģ":3360,"Ã±jÄģ":3361,"á¹£Å«":3362,"pradÄģ":3363,"ĠmÄģtÄģ":3364,"surÄģ":3365,"bÄ«ja":3366,"Ġká¹Ľte":3367,"Ġratna":3368,"Ġvija":3369,"Ġama":3370,"ĠrÄģgha":3371,"Ġupasaá¹ĥ":3372,"danÄģ":3373,"ĠgatÄģ":3374,"ĠnirvÄģ":3375,"sÅ«tra":3376,"nupalab":3377,"mud":3378,"ĠÅĽÄ«gh":3379,"peká¹£ayÄģ":3380,"ĠkÄģraá¹ĩam":3381,"ĠbabhÅ«va":3382,"saá¹ĥvi":3383,"ĠjÃ±ÄģtvÄģ":3384,"kavi":3385,"tÄģya":3386,"pÅ«rvÄģ":3387,"Ġvista":3388,"Ġkuto":3389,"ikaá¹ĥ":3390,"rÅ«pya":3391,"Ġkintu":3392,"spar":3393,"ayaá¹ĥ":3394,"ĠetÄģ":3395,"dá¹Ľá¹£á¹Ńi":3396,"ĠÅĽaá¹ħka":3397,"tyÄģá¸¥":3398,"nne":3399,"Ã±jali":3400,"mukta":3401,"vocat":3402,"cchab":3403,"devo":3404,"ĠityÄģha":3405,"cak":3406,"nataá¸¥":3407,"prÄģá¹ĩa":3408,"ĠcÄģsya":3409,"yitum":3410,"Ġsthitaá¸¥":3411,"ĠaparÄģ":3412,"dhikaraá¹ĩa":3413,"Ġniá¹£e":3414,"doá¹£Äģ":3415,"yÄģti":3416,"mupÄģ":3417,"bÄģhu":3418,"ĠatrÄģ":3419,"nadÄ«":3420,"vyabhi":3421,"Ġdaká¹£iá¹ĩÄģ":3422,"ĠtenÄģ":3423,"dheya":3424,"kari":3425,"grahaá¹ĩam":3426,"Ġdvau":3427,"nantaraá¹ĥ":3428,"Ġtadu":3429,"pratipÄģda":3430,"paÃ±cÄģ":3431,"Ġlauk":3432,"Ġsphuá¹Ńa":3433,"viÅĽiá¹£á¹Ńa":3434,"Ġparo":3435,"aho":3436,"sthitam":3437,"Ġnija":3438,"vÄ«ta":3439,"ÅĽritya":3440,"kÄģmÄģ":3441,"vacana":3442,"yadya":3443,"ĠnÅ«":3444,"Ġmanyate":3445,"tÄģyÄģ":3446,"tvÄģditi":3447,"dyÄģt":3448,"ptvÄģ":3449,"yikÄģ":3450,"kramaá¸¥":3451,"ĠpramÄģá¹ĩÄģ":3452,"viÅĽva":3453,"vá¹Ľttiá¸¥":3454,"cintya":3455,"Ġparas":3456,"ttaá¹ĥ":3457,"nyasya":3458,"ĠkalyÄģ":3459,"caá¹ĥ":3460,"ĠmahÄģn":3461,"rair":3462,"laka":3463,"yuktam":3464,"á¸įhaá¹ĥ":3465,"Ġvyo":3466,"garbha":3467,"Ġlabhate":3468,"ĠjÄ«vi":3469,"pana":3470,"ĠsÄģká¹£Äģt":3471,"Ġrakta":3472,"á¹£á¹ŃÄģá¸¥":3473,"ĠdÅ«á¹£a":3474,"niá¹£a":3475,"nuk":3476,"Ġraá¹ĩe":3477,"purÄģá¹ĩe":3478,"bhis":3479,"caá¹£á¹Ńe":3480,"pam":3481,"bhijÃ±Äģ":3482,"ĠabhÄģva":3483,"siddhiá¸¥":3484,"ÅĽeá¹£Äģ":3485,"ĠrÄģjÃ±Äģ":3486,"sati":3487,"sanaá¹ĥ":3488,"mukti":3489,"Ġaneka":3490,"bhÄģá¹£i":3491,"Ġprathamaá¹ĥ":3492,"Ġvacaá¸¥":3493,"rca":3494,"veá¹ĩa":3495,"jitÄģ":3496,"Ġpuruá¹£aá¸¥":3497,"Ġghaá¹ŃÄģ":3498,"ĠvijÃ±e":3499,"nÄ«yÄģ":3500,"llÄģ":3501,"vyaÃ±ja":3502,"Ġkathayati":3503,"ĠjihvÄģ":3504,"Ġgama":3505,"ktiá¸¥":3506,"ĠsahasÄģ":3507,"mahi":3508,"yyÄģ":3509,"bhedena":3510,"á¸įÄ«":3511,"Ġyau":3512,"tthi":3513,"yajÃ±a":3514,"Ġsanti":3515,"ĠmahÄģba":3516,"ÅĽÄģra":3517,"tÄģna":3518,"ĠkanyÄģ":3519,"gÄģdi":3520,"Ġhaá¹ĥ":3521,"Ġsamanta":3522,"prayoja":3523,"Ġvaktavyam":3524,"ĠÄģrya":3525,"ĠbhÄ«ma":3526,"liá¹ħgÄģ":3527,"Ġyuktam":3528,"Ġbhuk":3529,"ntareá¹ĩa":3530,"sÄģmÄģnya":3531,"mÄģlÄģ":3532,"ĠbhavatÄ«ti":3533,"Ġsavi":3534,"Ġatya":3535,"Ġteá¹£Äģm":3536,"jÄ«vi":3537,"taro":3538,"vanÄģ":3539,"ttamÄģá¸¥":3540,"varaá¹ĥ":3541,"ruci":3542,"rye":3543,"ká¹£etra":3544,"Ġmanda":3545,"Ġantaá¸¥":3546,"tv":3547,"Ġpá¹Ľthag":3548,"kabuddha":3549,"ghna":3550,"rvi":3551,"nirvÄģ":3552,"marÅĽa":3553,"caryÄģ":3554,"rÄģká¹£a":3555,"pÄģá¹ĥ":3556,"Ġmayi":3557,"ĠÄģyuá¹£":3558,"moda":3559,"kÄģrajÃ±atÄģ":3560,"ĠkÄģraá¹ĩÄģ":3561,"kÄģÅĽaá¹ĥ":3562,"paá¹Ńa":3563,"kas":3564,"bhedo":3565,"ĠtrÄ«":3566,"hiá¹ĥ":3567,"ĠnÄģtra":3568,"ĠÅĽatru":3569,"rÅ«pam":3570,"Ġsaá¹ĥskÄģrÄģ":3571,"Ġtair":3572,"Ġiyaá¹ĥ":3573,"daiva":3574,"jani":3575,"Ġjyoti":3576,"Ġkaá¹ĥ":3577,"tÄ«r":3578,"ĠÅĽÄ«la":3579,"ĠkauÅĽika":3580,"param":3581,"Ġdevo":3582,"bdhÄģ":3583,"prahÄģ":3584,"dvayaá¹ĥ":3585,"raá¹ĩe":3586,"Ġ]":3587,"Ġniha":3588,"atrÄģ":3589,"palÄģ":3590,"nty":3591,"ĠrÅ«pam":3592,"nÄģtha":3593,"Ġtama":3594,"ĠsparÅĽa":3595,"rmi":3596,"nno":3597,"nyaá¸¥":3598,"ĠtrÄģ":3599,"prasaá¹ħgÄģt":3600,"kÄģryÄģ":3601,"kÄģlaá¹ĥ":3602,"sthÄģnaá¹ĥ":3603,"ÅĽataá¹ĥ":3604,"thÄģá¸¥":3605,"Ġbhaja":3606,"vasya":3607,"tpat":3608,"Ġvahni":3609,"rga":3610,"mukhÄ«":3611,"bhagavÄģn":3612,"datta":3613,"Ġbhuvi":3614,"Ġau":3615,"rthÄ«":3616,"set":3617,"kÄģram":3618,"latÄģ":3619,"brah":3620,"pá¹Ľtha":3621,"ryaá¸¥":3622,"Ġjaya":3623,"rka":3624,"pte":3625,"jÃ±Äģnam":3626,"Ġcittaá¹ĥ":3627,"Ġvidya":3628,"ĠvÄ«r":3629,"cari":3630,"yuga":3631,"ĠkÄģraá¹ĩaá¹ĥ":3632,"bhedaá¸¥":3633,"bhavaá¹ĥ":3634,"Ġhema":3635,"taye":3636,"ĠdadyÄģ":3637,"mad":3638,"nibandha":3639,"sÄģt":3640,"Ġyadu":3641,"ĠkaÅĽcit":3642,"ĠyaÅĽ":3643,"ndÄ«":3644,"Ġtasmai":3645,"tata":3646,"ĠcÄģtra":3647,"ĠsthÅ«":3648,"Ġpadam":3649,"ĠgÄ«":3650,"Ġdaiva":3651,"ĠkalÄģ":3652,"roha":3653,"dham":3654,"Ġvida":3655,"ĠvÄģma":3656,"Ġvardha":3657,"ĠbahÅ«":3658,"Ġpuá¹ĩyaá¹ĥ":3659,"Ġiccha":3660,"samud":3661,"mukhe":3662,"saá¹ĥyu":3663,"ĠdaÅĽÄģ":3664,"ruddhÄģ":3665,"Ġputro":3666,"Ġbrah":3667,"vedi":3668,"sÄģn":3669,"yato":3670,"Ġgaá¹ĩa":3671,"vive":3672,"pratyaká¹£a":3673,"á¹£yan":3674,"dÄģdi":3675,"ĠdÄģni":3676,"ĠkaÅĽcid":3677,"ká¹£yÄģ":3678,"uktam":3679,"vyÅ«":3680,"Ġeko":3681,"ĠmÅ«la":3682,"stÅ«":3683,"kará¹ĩa":3684,"Ġnama":3685,"tyata":3686,"caá¸¥":3687,"Ġmada":3688,"Ġdevaá¹ĥ":3689,"tvamiti":3690,"Ġparitya":3691,"yuta":3692,"ká¹£itÄģ":3693,"dhunÄģ":3694,"praá¹ĩa":3695,"Ġvapu":3696,"má¹Ľta":3697,"ĠsamÄģna":3698,"Ġaa":3699,"Ġká¹£ipra":3700,"ĠdhyÄģna":3701,"ĠdevÄģnÄģá¹ĥ":3702,"ĠbhÄģga":3703,"veva":3704,"ĠniÅĽci":3705,"ramÄģ":3706,"Ġnirva":3707,"Ġsmá¹Ľti":3708,"plu":3709,"nyÄģá¹ĥ":3710,"Ġgá¹Ľhe":3711,"kopa":3712,"ĠbhaktyÄģ":3713,"ĠcÄģnu":3714,"cet":3715,"Ġamu":3716,"vini":3717,"jena":3718,"Ġsakala":3719,"keá¹£u":3720,"lÅ«":3721,"nenÄģ":3722,"Ã±cana":3723,"dai":3724,"hite":3725,"Ġsta":3726,"yataá¸¥":3727,"ĠpradhÄģna":3728,"ĠprabhÄģ":3729,"Ġmad":3730,"Ġtrayo":3731,"vÄ«rya":3732,"viá¹ĥÅĽati":3733,"Ġyady":3734,"kalpanÄģ":3735,"ÅĽrayÄģ":3736,"á¹ħgya":3737,"vÄģdaá¸¥":3738,"ĠdivÄģ":3739,"bÅ«":3740,"punaá¸¥":3741,"á¹ĩopa":3742,"ĠvÄģsu":3743,"Ġubha":3744,"vacanaá¹ĥ":3745,"ÅĽÄģt":3746,"ĠbhÅ«yo":3747,"Ġprasiddha":3748,"ĠviÅĽ":3749,"ĠÅĽau":3750,"yÄģnÄģá¹ĥ":3751,"moha":3752,"pnuyÄģt":3753,"cce":3754,"lokaá¹ĥ":3755,"yasÄģ":3756,"tmaka":3757,"á¹Ńhaá¸¥":3758,"darÅĽanam":3759,"Ġprabhuá¸¥":3760,"riva":3761,"á¹ĩÄģd":3762,"anena":3763,"tatvÄģt":3764,"Ġtanu":3765,"ĠdivyÄģ":3766,"lamÅ«":3767,"anÄģ":3768,"tale":3769,"Ġchanda":3770,"ĠnadÄ«":3771,"Ġyudhiá¹£á¹Ńhi":3772,"nÄ«yaá¹ĥ":3773,"geá¹ĩa":3774,"janam":3775,"Ġbhaká¹£a":3776,"ĠniÅĽÄģ":3777,"kro":3778,"vedanÄģ":3779,"daÅĽ":3780,"svap":3781,"ĠkhÄģ":3782,"kÄģt":3783,"duá¸¥khÄģ":3784,"ĠvividhÄģ":3785,"Ġmune":3786,"malÄģ":3787,"dá¹ĽÅĽ":3788,"mÄģtre":3789,"dhanaá¹ĥ":3790,"prakÄģra":3791,"patte":3792,"ttaraá¹ĥ":3793,"tÄģraá¹ĥ":3794,"Ġsni":3795,"mataá¸¥":3796,"mye":3797,"Ġyayau":3798,"pitá¹Ľ":3799,"Ġgran":3800,"yukto":3801,"hÄģro":3802,"ĠprÄģpte":3803,"cuá¸¥":3804,"Ġgacche":3805,"vayava":3806,"smá¹Ľti":3807,"naÅĽ":3808,"á¹£á¹ŃyÄģ":3809,"Ġduá¸¥khaá¹ĥ":3810,"sasya":3811,"reka":3812,"puá¹ĩya":3813,"cida":3814,"puá¹ĥ":3815,"ĠsÅ«rya":3816,"krame":3817,"Ġsve":3818,"Ġdá¹ĽÅĽya":3819,"Ġparaspa":3820,"Ġnopalabhyate":3821,"jane":3822,"Ġnirdi":3823,"jvÄģ":3824,"tÄģnu":3825,"ĠvÄģg":3826,"Ġá¹Ľá¹£i":3827,"kulÄģ":3828,"yann":3829,"Ġsamud":3830,"Ġsatataá¹ĥ":3831,"ĠvyaÃ±ja":3832,"kuru":3833,"Ġjuho":3834,"viá¹£á¹Ńa":3835,"priya":3836,"á¹ĩeti":3837,"jitaá¸¥":3838,"tayaá¸¥":3839,"muktÄģ":3840,"tari":3841,"Ġdvijo":3842,"taiva":3843,"Ġkusu":3844,"ĠÅĽubha":3845,"pÄģka":3846,"Ġgá¹ĽhÄ«tvÄģ":3847,"ĠpÄģá¹ĩi":3848,"dye":3849,"rthena":3850,"sadÄģ":3851,"Ġprayu":3852,"ĠbhavatÄ«":3853,"grahaá¹ĩa":3854,"Ġapari":3855,"pÄģna":3856,"ká¹£amÄģ":3857,"ĠsÄģga":3858,"ddhvÄģ":3859,"kayÄģ":3860,"Ġtejo":3861,"jÃ±ayÄģ":3862,"ĠsarvÄģá¹ĩi":3863,"ĠpramÄģá¹ĩaá¹ĥ":3864,"gnir":3865,"kalpi":3866,"ÅĽrÄģva":3867,"kyaá¹ĥ":3868,"Ġprabho":3869,"vÄ«á¹ĥ":3870,"Ġvatsa":3871,"ĠpraÅĽa":3872,"Ġdhana":3873,"Ġtaj":3874,"ĠÄģkÄģÅĽa":3875,"ĠvÄ«ra":3876,"tare":3877,"mudrÄģ":3878,"ĠprakÄģ":3879,"vyÄģkhyÄģ":3880,"Ġsmá¹Ľtam":3881,"Ġhetuá¸¥":3882,"gamyate":3883,"nnam":3884,"ĠbhagavatÄģ":3885,"vadhÄģ":3886,"krameá¹ĩa":3887,"ĠnÄ«la":3888,"keá¹ĩa":3889,"ĠÅĽarÄ«ra":3890,"vipra":3891,"ĠÅĽri":3892,"citÄģ":3893,"syÄģnu":3894,"bhÄģvÄģd":3895,"yÄģnu":3896,"á¹ħgÄģni":3897,"ĠrÄģva":3898,"daá¹ĩá¸įa":3899,"yatÄģá¹ĥ":3900,"hasta":3901,"Ġdro":3902,"Ġpá¹ĽthivyÄģ":3903,"dhyÄģt":3904,"mbho":3905,"cala":3906,"Ġbru":3907,"ÅĽilÄģ":3908,"dher":3909,"hÄģn":3910,"bimba":3911,"ÅĽaá¹ħkÄģ":3912,"puro":3913,"ĠbhÄģryÄģ":3914,"bhavanti":3915,"ptaá¸¥":3916,"Ġmaho":3917,"Ġupalabhyate":3918,"patya":3919,"ĠsthitÄģ":3920,"Ġtata":3921,"deÅĽo":3922,"ĠkÄģvya":3923,"ká¹£Äģá¹ĥ":3924,"vará¹ĩaá¹ĥ":3925,"ryate":3926,"ĠihÄģ":3927,"lopa":3928,"samÄģdhi":3929,"ÅĽarÄ«ra":3930,"trau":3931,"vÄģt":3932,"ĠnÄģbhi":3933,"Ġlaghu":3934,"ĠvÄģcyam":3935,"hÄģá¸¥":3936,"Ã±c":3937,"pÄģdya":3938,"linÄ«":3939,"ĠnÄģmÄģ":3940,"ĠprÄģá¹ĩi":3941,"Ġkhe":3942,"sthÄģpa":3943,"ÅĽÄģsa":3944,"Ġdhanaá¹ĥ":3945,"ĠkÄģlÄģ":3946,"sthe":3947,"ntari":3948,"Ġnamas":3949,"jva":3950,"tarÄģá¹£á¹Ń":3951,"ĠpÄģpaá¹ĥ":3952,"Ġveti":3953,"gatÄģá¸¥":3954,"yamÄģá¹ĩa":3955,"suá¸¥":3956,"stadÄģ":3957,"ĠÅĽÅ«nyatÄģ":3958,"Ġbhagavato":3959,"rta":3960,"Ġime":3961,"ká¹Ľd":3962,"vá¹ĽttÄģ":3963,"vitaá¸¥":3964,"á¹ħgha":3965,"ÅĽayaá¸¥":3966,"kramam":3967,"nyatra":3968,"ndraá¹ĥ":3969,"uda":3970,"katve":3971,"Ġatyanta":3972,"gatasya":3973,"sita":3974,"pyaá¹ĥ":3975,"Ġvipu":3976,"dÄ«nÄģm":3977,"karaá¹ĩam":3978,"lair":3979,"ĠtasyÄģá¸¥":3980,"ĠabhÅ«t":3981,"Ġkarmaá¹ĩÄģ":3982,"Ġadha":3983,"ĠÅĽakra":3984,"nÄ«yam":3985,"naga":3986,"tÄģny":3987,"vyÄģá¹ĥ":3988,"Ġbaha":3989,"bhavam":3990,"Ġaho":3991,"bhÅ«to":3992,"rÄģm":3993,"bhavo":3994,"ĠsarvajÃ±a":3995,"saá¹ĥskÄģra":3996,"kho":3997,"vyu":3998,"jÄģyate":3999,"trai":4000,"ĠÅĽakyate":4001,"kule":4002,"cittaá¹ĥ":4003,"ĠtÄ«ká¹£":4004,"ranti":4005,"pÄģt":4006,"vá¹Ľká¹£a":4007,"ĠyaÅĽa":4008,"tpanna":4009,"Ġhá¹Ľdi":4010,"Ġcakre":4011,"Ġdharmaá¸¥":4012,"pravá¹Ľtti":4013,"Ġmukha":4014,"ĠÅĽrotra":4015,"Ġsaá¹ĥvatsa":4016,"sv":4017,"Ġyama":4018,"Ġdehi":4019,"nayo":4020,"Ġlaká¹£ma":4021,"prayoga":4022,"riputra":4023,"ĠbhavÄģ":4024,"Ġhye":4025,"bandhe":4026,"ĠprakÄ«rti":4027,"ĠpÄģá¹ĩá¸įu":4028,"ÅĽceti":4029,"ĠtavÄģ":4030,"niya":4031,"dvayam":4032,"ceti":4033,"á¹ĩá¸įo":4034,"Ġaparaá¹ĥ":4035,"ntau":4036,"ĠrÄģtri":4037,"ĠvÄģri":4038,"YA":4039,"jyam":4040,"kanyÄģ":4041,"khaá¹ĩá¸įa":4042,"ÅĽabdasya":4043,"ĠtÄģá¸¥":4044,"ĠdurÄģ":4045,"paá¹ĩa":4046,"Ġjagad":4047,"danu":4048,"Ġpravra":4049,"Ġvayam":4050,"Ġgaga":4051,"mÄģd":4052,"ĠbhedÄģ":4053,"Ġnityam":4054,"kaá¹ĩá¹Ńha":4055,"ĠviÅĽa":4056,"bhyaá¹ĥ":4057,"dvatÄ«putra":4058,"ĠyÄģni":4059,"DH":4060,"matÄģ":4061,"bhavan":4062,"veá¹£a":4063,"ĠpaÅĽci":4064,"Ġbodha":4065,"ĠviÅĽeá¹£Äģ":4066,"rakta":4067,"canam":4068,"ĠprÄģdur":4069,"prave":4070,"ÅĽvÄģsa":4071,"ká¹£ayÄģ":4072,"nÄģmapi":4073,"dÄģhá¹Ľ":4074,"tyanu":4075,"Ġjuhu":4076,"Ġekaá¹ĥ":4077,"ĠvijÄģ":4078,"Ġkai":4079,"yamÄģnÄģ":4080,"Ġdaká¹£iá¹ĩa":4081,"ĠkuryÄģd":4082,"Ġsuhá¹Ľ":4083,"ĠdÄģnaá¹ĥ":4084,"Ġsthitam":4085,"ĠÅĽva":4086,"bhÄģge":4087,"namo":4088,"á¹ĩá¸įÅ«":4089,"ĠÄģnanda":4090,"patra":4091,"ĠsÄģm":4092,"Ġká¹£etra":4093,"NY":4094,"SU":4095,"lama":4096,"ĠmantrÄģ":4097,"ÄĢYA":4098,"DHÄĢ":4099,"NYÄĢYA":4100,"SUDHÄĢ":4101,"NYÄĢYASUDHÄĢ":4102,"bhar":4103,"Ġsukham":4104,"Ġimaá¹ĥ":4105,"asa":4106,"Ġbrahmaá¹ĩo":4107,"kÄģrÄ«":4108,"bhÄģra":4109,"ĠpÄģta":4110,"marda":4111,"yenÄģ":4112,"vyÄģpÄģ":4113,"sÄ«da":4114,"Ġkulaputra":4115,"Ġtacca":4116,"ĠpÄģva":4117,"ĠkartÄģ":4118,"á¹ŃikÄģ":4119,"Ġkvacid":4120,"Ġab":4121,"ĠpurastÄģ":4122,"Ġevo":4123,"Ġtatho":4124,"hna":4125,"yatÄģm":4126,"yÄģs":4127,"dhÄ«á¸¥":4128,"jayet":4129,"ÅĽvaraá¹ĥ":4130,"ká¹£ipya":4131,"vÄģnÄģá¹ĥ":4132,"ĠyasmÄģt":4133,"ĠvÄģta":4134,"tvÄģn":4135,"ĠvÄģcÄģ":4136,"yiá¹£yÄģmi":4137,"pÄģde":4138,"gá¹Ľhe":4139,"gÅ«":4140,"mÄģtram":4141,"dharmo":4142,"ĠvÄģna":4143,"cÄģrÄģ":4144,"viá¹£aye":4145,"darÅĽanaá¹ĥ":4146,"á¹£á¹Ńiá¹ĥ":4147,"ĠpraÅĽ":4148,"siá¹ĥ":4149,"ĠsanÄģ":4150,"sthÄģne":4151,"pÄģdÄģna":4152,"hitÄģá¸¥":4153,"ÅĽÄģn":4154,"viá¹£":4155,"Ġukta":4156,"mÄģsa":4157,"ĠkarmÄģá¹ĩi":4158,"Ġpratyaká¹£Äģ":4159,"sÄģdi":4160,"phalam":4161,"ĠabhyÄģ":4162,"mityÄģ":4163,"kleÅĽa":4164,"indra":4165,"ĠvidhÄ«yate":4166,"ĠÅĽle":4167,"Ġgati":4168,"yayÄģ":4169,"ká¹Ľá¹£á¹Ńa":4170,"raá¹ħga":4171,"paraá¸¥":4172,"Ġká¹Ľts":4173,"Ġyathe":4174,"Ġbodhisattvena":4175,"padma":4176,"kai":4177,"ĠkramÄģt":4178,"vÄģdÄģ":4179,"rutvÄģ":4180,"bhÄģvasya":4181,"Ġdá¹ĽÅĽ":4182,"ÅĽodha":4183,"Ġbhaviá¹£yanti":4184,"vivi":4185,"á¹£á¹Ńiá¸¥":4186,"á¹£á¹ĩÄ«":4187,"ityuk":4188,"jendra":4189,"gandhÄģ":4190,"tumar":4191,"jÃ±Äģne":4192,"mata":4193,"Ġagnir":4194,"ĠsnÄģtvÄģ":4195,"ĠbÄģhu":4196,"tvÄģcca":4197,"pÄģd":4198,"rÅ«paá¸¥":4199,"ĠprÄ«ti":4200,"vidya":4201,"pratyÄģ":4202,"dhvani":4203,"dhÄģnÄģ":4204,"ĠnÄģnu":4205,"Ġtulya":4206,"Ġvane":4207,"yameva":4208,"vá¹Ľddha":4209,"khaá¹ĩá¸įe":4210,"tÄģla":4211,"baddhÄģ":4212,"vedya":4213,"Ġprayojanam":4214,"lepa":4215,"drava":4216,"citam":4217,"ttat":4218,"ĠpaÅĽcÄģt":4219,"Ġvidi":4220,"bhÅ«á¹£a":4221,"ÅĽabde":4222,"devasya":4223,"Ġvará¹£Äģ":4224,"Ġpunara":4225,"padam":4226,"kÄģraá¹ĩaá¹ĥ":4227,"ĠÅĽaraá¹ĩaá¹ĥ":4228,"ĠsarvadharmÄģ":4229,"dhir":4230,"Ġsaá¹ĥsÄģra":4231,"ataá¸¥":4232,"Ġityata":4233,"ruá¸¥":4234,"dhikara":4235,"ĠsarvathÄģ":4236,"prasaá¹ħgaá¸¥":4237,"Ġgan":4238,"Ġanva":4239,"Ġagra":4240,"tÄģv":4241,"ĠÄģdÄģya":4242,"ĠbhagavÄģá¹ĥ":4243,"Ġdhe":4244,"ritam":4245,"dityarthaá¸¥":4246,"Ġhariá¸¥":4247,"yaka":4248,"bhara":4249,"Ġmukhya":4250,"ĠpÅ«rá¹ĩa":4251,"Ġkrameá¹ĩa":4252,"pÄģn":4253,"ĠÄģkhyÄģ":4254,"ndrama":4255,"ĠÄģca":4256,"Ã±jÃ±Äģ":4257,"á¹ĩoti":4258,"vyavahÄģra":4259,"pannaá¸¥":4260,"Ġtadeva":4261,"kauÅĽa":4262,"niá¹£á¹Ńha":4263,"ĠcÅ«r":4264,"gnÄ«":4265,"naiva":4266,"ĠpratipÄģda":4267,"Ġdraá¹£á¹Ńu":4268,"ĠkÄ«rti":4269,"nirÅ«pa":4270,"Ġjye":4271,"ÅĽÄģnta":4272,"bhÅ«mau":4273,"ĠtÄģra":4274,"mitaá¹ĥ":4275,"deka":4276,"Ġsuká¹Ľ":4277,"itad":4278,"paká¹£Äģ":4279,"dÄģru":4280,"ĠÄģt":4281,"Ġká¹Ľá¹£á¹ĩÄģ":4282,"Ġupalambhayogena":4283,"psa":4284,"ĠprajÃ±ÄģpÄģrami":4285,"ká¹£yate":4286,"vá¹Ľddhi":4287,"taraá¸¥":4288,"Ġaprati":4289,"ĠÄģr":4290,"kÄģmo":4291,"ĠsÅ«ta":4292,"ÅĽvaro":4293,"ÅĽÄ«ti":4294,"Ġaá¹ĥ":4295,"parÄģya":4296,"canda":4297,"Ġmau":4298,"ĠsÅ«ká¹£":4299,"ĠÅĽÄģnti":4300,"ĠdadÄģti":4301,"Ġadhya":4302,"mukhaá¸¥":4303,"ghaá¹ĥ":4304,"laá¹ħkÄģ":4305,"Ġviga":4306,"ĠdadyÄģt":4307,"labha":4308,"dÄ«n":4309,"hasi":4310,"kaá¹ĩá¸įe":4311,"Ġtaiá¸¥":4312,"Ġsali":4313,"sÄģga":4314,"lÄģpa":4315,"tala":4316,"Ġyuktaá¹ĥ":4317,"Ġá¹Ľá¹£a":4318,"yitÄģ":4319,"Ġká¹£Äģnti":4320,"kÄģÅĽe":4321,"ĠdehÄģ":4322,"diva":4323,"Ġsuvará¹ĩa":4324,"Ġvá¹Ľddhi":4325,"Ġaja":4326,"Ġnirma":4327,"dhyÄģtma":4328,"ĠmahÄģsattvasya":4329,"yuá¹£":4330,"leá¹£u":4331,"ĠÅĽraddhÄģ":4332,"pÄģti":4333,"laye":4334,"roca":4335,"Ġtanma":4336,"Ġyeá¹£Äģá¹ĥ":4337,"samavÄģ":4338,"ĠjanÄģrda":4339,"liá¸¥":4340,"mikÄģ":4341,"syÄģmi":4342,"ĠrÄģga":4343,"ÅĽikha":4344,"yogaá¹ĥ":4345,"nde":4346,"sthitÄģá¸¥":4347,"tulya":4348,"Ġyoni":4349,"jita":4350,"traya":4351,"treá¹£u":4352,"vajra":4353,"yanaá¹ĥ":4354,"tmakaá¹ĥ":4355,"ĠdiÅĽi":4356,"Ġabhisaá¹ĥ":4357,"ĠniryÄģ":4358,"bhavet":4359,"dava":4360,"ritaá¸¥":4361,"Ġarthe":4362,"ĠvidvÄģn":4363,"jagÄģma":4364,"á¹£aá¹ĩ":4365,"bhuk":4366,"Ġproktaá¹ĥ":4367,"Ġvibhu":4368,"yitavyÄģ":4369,"vá¹Ľtaá¸¥":4370,"ĠmahÄģbÄģ":4371,"natÄģ":4372,"dá¹ĽÅĽo":4373,"satva":4374,"tÄ«va":4375,"hetuá¸¥":4376,"ĠbhÅ«tÄģ":4377,"Ġyasmin":4378,"Ġhasta":4379,"Ġloko":4380,"Ġcopa":4381,"uvÄģca":4382,"syÄģá¸¥":4383,"pÅ«jÄģ":4384,"dayÄģ":4385,"yamÄģno":4386,"kÄģryaá¹ĥ":4387,"keÅĽa":4388,"ÅĽoka":4389,"kÄģnti":4390,"bhini":4391,"Ġpriye":4392,"dÅ«á¹£a":4393,"bhÄģg":4394,"devaá¸¥":4395,"sthiti":4396,"bhÄģgÄģ":4397,"bhÅ«ya":4398,"kÄģrasya":4399,"Ġparaá¸¥":4400,"smiá¹ĥ":4401,"Ġvidu":4402,"Ã±jÄ«":4403,"graho":4404,"vÄģta":4405,"virodha":4406,"mÄģhÄģt":4407,"puraá¹ĥ":4408,"pitaá¹ĥ":4409,"Ġkaraá¹ĩa":4410,"Ġakhi":4411,"ká¹£atra":4412,"hana":4413,"vÄģde":4414,"sÄģká¹£Äģ":4415,"ĠmahatÄģ":4416,"graá¹ĥ":4417,"psi":4418,"tpannÄģ":4419,"atho":4420,"dyÄģá¸¥":4421,"hÄģni":4422,"Ġubhaya":4423,"mÄģnena":4424,"pateá¸¥":4425,"viruddha":4426,"ĠsthÄģpa":4427,"ry":4428,"Ġviduá¸¥":4429,"tvameva":4430,"cyante":4431,"Ġkro":4432,"ditam":4433,"Ġyukta":4434,"ĠimÄģá¹ĥ":4435,"citaá¹ĥ":4436,"sÄ«t":4437,"trÄģdi":4438,"au":4439,"ĠsÄģra":4440,"á¹£itaá¸¥":4441,"bhavad":4442,"tyuktam":4443,"Ġityatra":4444,"dÄģva":4445,"ndraá¸¥":4446,"ÅĽayÄģ":4447,"niá¹£á¹ŃhÄģ":4448,"Ġvici":4449,"ĠkÄģlena":4450,"á¹£á¹Ńir":4451,"deve":4452,"ÅĽÄģr":4453,"grahaá¹ĩaá¹ĥ":4454,"hÄģsa":4455,"vacanam":4456,"dri":4457,"hanti":4458,"á¹£vapi":4459,"Ġpaá¹Ńa":4460,"sÄģya":4461,"guá¹ĩo":4462,"tÄ«rtha":4463,"Ġkará¹ĩa":4464,"Ġkasyacid":4465,"litaá¹ĥ":4466,"tpadyate":4467,"bhÄģá¹£ata":4468,"varca":4469,"cchayÄģ":4470,"Ġlava":4471,"tastu":4472,"sy":4473,"á¹£vÄģ":4474,"samya":4475,"sambandha":4476,"nyena":4477,"vrÄ«":4478,"ÅĽÄ«r":4479,"Ġsaka":4480,"ĠmahÄģsattvo":4481,"ĠsatyÄģ":4482,"Ã±ju":4483,"diÅĽya":4484,"ĠmunÄ«":4485,"Ġkam":4486,"ĠÄģcÄģ":4487,"gmu":4488,"kur":4489,"Ġviparya":4490,"mityÄģha":4491,"dhyÄģya":4492,"Ġtenaiva":4493,"gacchati":4494,"kÄģraá¹ĩam":4495,"sattÄģ":4496,"yaty":4497,"Ġmanyase":4498,"á¹ĩaiá¸¥":4499,"metat":4500,"Ġeti":4501,"saá¹ĥjÃ±a":4502,"ĠcatvÄģri":4503,"maá¹ħga":4504,"Ġkartavyam":4505,"Ġrama":4506,"ĠmahÄģtmanaá¸¥":4507,"ĠsatÄ«":4508,"ĠÅĽabdo":4509,"Ġsmá¹ĽtÄģá¸¥":4510,"ká¹Ľtiá¸¥":4511,"artha":4512,"ÅĽaá¹ħka":4513,"ĠviÅĽeá¹£ataá¸¥":4514,"ĠkÄģrayet":4515,"ntasya":4516,"babhÅ«":4517,"Ġgami":4518,"ĠpÅ«jÄģ":4519,"ĠÄģtmÄģnaá¹ĥ":4520,"balaá¹ĥ":4521,"Ġsarvasya":4522,"ĠsthitvÄģ":4523,"ĠÅĽÅ«nyÄģ":4524,"Ġkecit":4525,"ĠbhÅ«tÄģni":4526,"karam":4527,"yuktaá¸¥":4528,"Ġdevaá¸¥":4529,"ĠvicÄģ":4530,"ĠpramÄģá¹ĩam":4531,"dhikÄģ":4532,"vyakti":4533,"bhisaá¹ĥ":4534,"tasva":4535,"vyatiri":4536,"dig":4537,"sÄģri":4538,"ĠkÄģlaá¹ĥ":4539,"kare":4540,"ĠmÄģtá¹Ľ":4541,"ĠvÄģcya":4542,"dharmi":4543,"ĠajÄģ":4544,"ĠkiÃ±ci":4545,"ká¹£itaá¸¥":4546,"Ġbhasma":4547,"sthita":4548,"vinÄģÅĽa":4549,"vivarji":4550,"lÄģva":4551,"ttare":4552,"raá¹ĩÄģt":4553,"hyate":4554,"ĠprajÄģá¸¥":4555,"gá¹Ľha":4556,"Ġuttamam":4557,"mÄģá¹ĥsa":4558,"Ġá¹£oá¸įaÅĽa":4559,"padÄģrtha":4560,"Ġtayor":4561,"vá¹Ľtte":4562,"á¹ħkte":4563,"tamaá¸¥":4564,"ĠnÄģra":4565,"Ġvaiá¹£á¹ĩa":4566,"syopa":4567,"tÄģma":4568,"ĠmahÄģsattvÄģ":4569,"Ġsame":4570,"ĠbhagavÄģ":4571,"sá¹Ľjya":4572,"Ġtve":4573,"vÄ«ra":4574,"bhyupaga":4575,"ĠpÅ«rvavat":4576,"caya":4577,"Ġkuta":4578,"Ġsiá¹ĥha":4579,"pho":4580,"ĠkvÄģ":4581,"á¹£yasi":4582,"ÅĽobhi":4583,"Ġkurvanti":4584,"Ġcaká¹£uá¸¥":4585,"dara":4586,"ĠbhÅ«mau":4587,"nyam":4588,"bÄģla":4589,"ĠpratibhÄģ":4590,"ÅĽreá¹£á¹Ńha":4591,"ĠtyÄģ":4592,"ĠmÄģrga":4593,"hate":4594,"á¹£Äģma":4595,"Ġari":4596,"ĠjÃ±ÄģnÄģ":4597,"Ġvá¹Ľddha":4598,"ĠrudrÄģ":4599,"Ġsidhyati":4600,"Ġpavi":4601,"piá¹ĩá¸įa":4602,"bhraá¹ĥ":4603,"dehÄģ":4604,"rÄģjo":4605,"Ġkaá¹Ńu":4606,"ĠsamavÄģ":4607,"trayaá¹ĥ":4608,"Ġasma":4609,"mayo":4610,"hÄģre":4611,"Ġbhagavataá¸¥":4612,"dhvam":4613,"vinda":4614,"Ġsami":4615,"ĠsabhÄģ":4616,"Ġtapaá¸¥":4617,"á¸įho":4618,"ĠsÄģmart":4619,"dbhir":4620,"bhÅ«taá¸¥":4621,"Ġsiá¹ĥ":4622,"Ġvaru":4623,"Ġvah":4624,"sÅ«ta":4625,"vÄģcya":4626,"vÄģg":4627,"ĠlokadhÄģ":4628,"ĠadhyÄģtma":4629,"sro":4630,"Ġalaá¹ĥ":4631,"ĠkasmÄģt":4632,"ÅĽvarÄģ":4633,"Ġyojayati":4634,"ĠbÄ«ja":4635,"upÄģ":4636,"divya":4637,"dhÄģrÄģ":4638,"saá¹ĥyoga":4639,"vadÄģ":4640,"ĠvijÃ±Äģnaá¹ĥ":4641,"devÄ«":4642,"tÄģd":4643,"nvaya":4644,"pyu":4645,"tyasya":4646,"Ã´":4647,"Ġsyuá¸¥":4648,"ruddho":4649,"saá¹ĥbandha":4650,"Ġlab":4651,"muni":4652,"Ġhiá¹ĥ":4653,"ĠproktÄģ":4654,"ĠsyÄģditi":4655,"Ġdharmi":4656,"Ġnimitta":4657,"ĠbhÄģra":4658,"anyathÄģ":4659,"ĠdvijÄģá¸¥":4660,"ityÄģdi":4661,"sthÄģya":4662,"ttamÄģ":4663,"vas":4664,"reti":4665,"kuá¹ĩá¸įa":4666,"ĠmahÄģsattvaá¸¥":4667,"ĠprÄģya":4668,"ĠÅĽobha":4669,"rur":4670,"brahmo":4671,"Ġsvaá¹ĥ":4672,"pla":4673,"kapra":4674,"Ġmoha":4675,"ĠpratÄ«yate":4676,"ryeá¹ĩa":4677,"á¹ĩÄ«ya":4678,"tyevaá¹ĥ":4679,"dharaá¸¥":4680,"ĠdÄ«pa":4681,"Ġká¹Ľtaá¸¥":4682,"vyÄģá¸¥":4683,"Ġvá¹Ľt":4684,"ĠkÄģryam":4685,"ĠkiÃ±cit":4686,"Ġpibe":4687,"Ġdivyaá¹ĥ":4688,"ĠsÅ«ká¹£ma":4689,"ndriyÄģá¹ĩi":4690,"Ġarhasi":4691,"ttarÄģá¹ĥ":4692,"ĠjÄ«r":4693,"vá¹Ľttau":4694,"ramo":4695,"dá¹ĽÅĽÄ«":4696,"má¹Ľtyu":4697,"ĠathavÄģ":4698,"Ġasu":4699,"Ġjvala":4700,"sthaá¸¥":4701,"mbi":4702,"naye":4703,"nirá¹ĩa":4704,"ĠÅĽÄģÅĽva":4705,"Ġbá¹Ľhas":4706,"Ġmanuá¹£yÄģ":4707,"ĠtyaktvÄģ":4708,"ĠmÄ«":4709,"ĠvÄģkyam":4710,"ĠnÄģti":4711,"ĠpÅ«rvam":4712,"vrata":4713,"Ġsuvi":4714,"Ġsarasva":4715,"á¸·":4716,"dasya":4717,"ĠnityÄģ":4718,"svÄ«":4719,"ĠavidyÄģ":4720,"tryÄģ":4721,"jan":4722,"ĠjÄģna":4723,"Ġcaká¹£ur":4724,"tac":4725,"Ġsaá¹ħga":4726,"Ġkrodha":4727,"ĠniÅĽi":4728,"samaá¹ĥ":4729,"ĠapÄ«":4730,"Ġpe":4731,"bhÄģá¸¥":4732,"kÄģnta":4733,"syaá¹ĥ":4734,"ĠveditavyÄģ":4735,"pitta":4736,"avi":4737,"dbhiá¸¥":4738,"ÅĽrayaá¸¥":4739,"yanto":4740,"Ġsamasta":4741,"ĠpradÄģ":4742,"á¹ħkÄģra":4743,"Ġkuladu":4744,"ityÄģ":4745,"ruk":4746,"ĠÅĽÄģriputra":4747,"vá¹Ľttaá¹ĥ":4748,"ĠÅĽrÅ«yate":4749,"samÄģna":4750,"vÄģdÄ«":4751,"Ġsambandhaá¸¥":4752,"Ġkiá¹ĥcid":4753,"viá¹£ayaá¹ĥ":4754,"yane":4755,"syanti":4756,"ttaram":4757,"ttau":4758,"Ġanava":4759,"syeva":4760,"koá¹ŃÄ«":4761,"Ġsatyam":4762,"Ġsra":4763,"bhÅ«ti":4764,"Ġparaspara":4765,"Ġabhyu":4766,"Ġbhavaty":4767,"giri":4768,"ĠjarÄģ":4769,"Ġtadanu":4770,"ÅĽÄģli":4771,"vanto":4772,"etÄģ":4773,"Ġalpa":4774,"vyÄģpÄģra":4775,"sÄ«ti":4776,"prayat":4777,"hyo":4778,"vÄģhi":4779,"patiá¹ĥ":4780,"vyakta":4781,"Ġsamyaksaá¹ĥbodhi":4782,"ÅĽayo":4783,"vilÄģ":4784,"ruá¸įa":4785,"ĠvyÄģcaá¹£á¹Ńe":4786,"ĠcakÄģra":4787,"rja":4788,"bhÅ«t":4789,"ĠmuÃ±ca":4790,"ĠdvitÄ«ya":4791,"Ġyadyapi":4792,"luk":4793,"Ġvica":4794,"Ġnare":4795,"Ġcin":4796,"Ġsarveá¹£u":4797,"pratipatti":4798,"á¹ħgena":4799,"viÅĽeá¹£aá¹ĩa":4800,"muktaá¹ĥ":4801,"ĠjÃ±Äģnam":4802,"tanam":4803,"kumÄģ":4804,"Ġprayo":4805,"Ġivo":4806,"skandha":4807,"vyÄģp":4808,"Ġananta":4809,"á¹ĩiá¸¥":4810,"Ġsaá¹ĥbhavati":4811,"ĠrÄģjyaá¹ĥ":4812,"Ġpo":4813,"ká¹£aya":4814,"ká¹£ipta":4815,"tavyo":4816,"Ġsampra":4817,"Ġmá¹Ľdu":4818,"nÄģtma":4819,"Ġhiraá¹ĩya":4820,"ká¹£itam":4821,"ĠÅĽÄģnta":4822,"cyÄģ":4823,"Ġviruddha":4824,"kaÅĽ":4825,"á¹£itÄģ":4826,"Ġká¹£aá¹ĩa":4827,"nÄ«la":4828,"prÄģpti":4829,"raga":4830,"ĠnÄģstÄ«ti":4831,"Ġvividha":4832,"siá¹ĥha":4833,"Ġtasyaiva":4834,"dyum":4835,"á¹£á¹ĩaá¹ĥ":4836,"ĠÅĽrama":4837,"Ġraso":4838,"ĠbhÄģvanÄģ":4839,"Ġbandhu":4840,"Ġpratiá¹£á¹Ńhi":4841,"Ġvá¹Ľká¹£a":4842,"Ġvila":4843,"hlÄģ":4844,"Ġlabhe":4845,"dhvaja":4846,"ĠgÄģyat":4847,"yen":4848,"ĠvÄģr":4849,"jÄģn":4850,"ĠtatrÄģpi":4851,"rci":4852,"yasi":4853,"ruhya":4854,"Ġvaraá¹ĥ":4855,"ÅĽeá¹£aá¹ĥ":4856,"bhuja":4857,"Ġlabdha":4858,"ttvÄģ":4859,"ĠkumÄģra":4860,"Ġsthito":4861,"dinÄģ":4862,"kartÄģ":4863,"ká¹£ara":4864,"satyÄģ":4865,"pradhÄģna":4866,"Ġsarvataá¸¥":4867,"dhÄ«na":4868,"vará¹£Äģ":4869,"Ġpiá¹ĩá¸įa":4870,"lyam":4871,"ká¹£aá¹ĩÄģ":4872,"kim":4873,"cchu":4874,"dadhÄģti":4875,"Ġnaro":4876,"ÅĽÄģya":4877,"catvÄģ":4878,"Ġtvayi":4879,"ĠbrÄģhmaá¹ĩÄģ":4880,"vijÃ±Äģnaá¹ĥ":4881,"deti":4882,"tenaiva":4883,"Ġbrahmaá¹ĩaá¸¥":4884,"Ġtá¹Ľá¹£á¹ĩÄģ":4885,"Ã±cha":4886,"ĠbravÄ«":4887,"ĠvidhinÄģ":4888,"sattama":4889,"sthitaá¹ĥ":4890,"ai":4891,"Ġpariá¹ĩÄģma":4892,"vÄģkye":4893,"ĠaÅĽa":4894,"ÅĽuddhi":4895,"Ġmarda":4896,"ká¹£Å«":4897,"dhÄģtur":4898,"Ġgá¹Ľhya":4899,"á¹£aá¸į":4900,"Ġdadhi":4901,"mukho":4902,"ĠÄģtmanaá¸¥":4903,"ĠÄģhuá¸¥":4904,"nute":4905,"Ġkiá¹ĥcit":4906,"ghe":4907,"kli":4908,"Ġkath":4909,"ĠbhÅ«yaá¸¥":4910,"jitam":4911,"ĠÅĽivÄģ":4912,"Ġmitra":4913,"Ġpaá¹ĩá¸įi":4914,"Ġjan":4915,"nÄģrÄģya":4916,"á¹ħa":4917,"locanÄģ":4918,"ĠindriyÄģ":4919,"vyÄģgh":4920,"ĠpaÅĽcÄģd":4921,"ĠsÄģdh":4922,"Ġsamare":4923,"sukhÄģ":4924,"jÄ«r":4925,"viá¸¥":4926,"ĠÄģda":4927,"ani":4928,"Ġtayoá¸¥":4929,"ĠviparÄ«":4930,"Ġnanda":4931,"ĠbhÄģá¹£ya":4932,"bandhena":4933,"Ġkevala":4934,"ĠyajÃ±Äģ":4935,"praká¹Ľti":4936,"ĠprÄģk":4937,"Ġuktaá¸¥":4938,"ktÄģá¸¥":4939,"ĠdhÄģtu":4940,"ĠgambhÄ«":4941,"gÄģd":4942,"ĠpaÅĽÅ«":4943,"Ġbahir":4944,"rmahÄģ":4945,"Ġgatiá¸¥":4946,"vyÄģdhi":4947,"Ġsarvo":4948,"ndaá¹ĥ":4949,"bodhisattva":4950,"há¹Ľtya":4951,"Ġenaá¹ĥ":4952,"ĠviÅĽeá¹£aá¸¥":4953,"detat":4954,"ÅĽasya":4955,"Ġpathi":4956,"Ġpuá¹ĩyÄģ":4957,"ÅĽrutvÄģ":4958,"Ġjuhoti":4959,"ÅĽÄģkhÄģ":4960,"Ġbhavataá¸¥":4961,"Ġkathitaá¹ĥ":4962,"rÄģg":4963,"Ġbalaá¹ĥ":4964,"Ġvisma":4965,"Ġpuruá¹£aá¹ĥ":4966,"Ġviá¹£aye":4967,"prajÃ±Äģ":4968,"tvayÄģ":4969,"ĠprÄģdhÄģ":4970,"nimittaá¹ĥ":4971,"anye":4972,"Ġpraca":4973,"rá¹£abha":4974,"ĠrÄģjÃ±o":4975,"hatÄģ":4976,"mara":4977,"mÄģtma":4978,"ĠrÄģjendra":4979,"ĠsamÄģkhyÄģ":4980,"rthÄģya":4981,"ĠdvÄģdaÅĽÄģ":4982,"sthite":4983,"Ġsarvadharma":4984,"yatana":4985,"yasa":4986,"yanta":4987,"prasiddha":4988,"rju":4989,"thya":4990,"ĠmuhÅ«r":4991,"yamÄģnaá¹ĥ":4992,"pitaá¸¥":4993,"ĠbhÄģá¹£a":4994,"dhra":4995,"rÅ«pasya":4996,"Ġgamyate":4997,"ĠbhavatÄģ":4998,"matÄ«":4999,"rmadÄģ":5000,"irapi":5001,"pannaá¹ĥ":5002,"labdha":5003,"ghana":5004,"á¹ħgÄģra":5005,"Ġoá¹£a":5006,"ĠcÄģru":5007,"Ġbhuja":5008,"ĠprathamÄģ":5009,"mÄģá¹ĩÄģ":5010,"bhasma":5011,"hy":5012,"Ġcatas":5013,"Ġupe":5014,"puá¹Ńa":5015,"vate":5016,"aá¹ĥ":5017,"Ġsamantataá¸¥":5018,"samaye":5019,"rpa":5020,"ghnaá¹ĥ":5021,"Ġsmá¹ĽtÄģ":5022,"kapi":5023,"rudra":5024,"ĠtÄģtpa":5025,"Ġsarvato":5026,"panno":5027,"padyata":5028,"mantrÄģ":5029,"dhyÄģna":5030,"sahasraá¹ĥ":5031,"katvena":5032,"gaá¹ĩÄģ":5033,"ĠcÄģnya":5034,"Ġpradaká¹£i":5035,"adhi":5036,"dhÄģá¸¥":5037,"mÄģrkaá¹ĩá¸įe":5038,"nayaá¸¥":5039,"rÄģca":5040,"Ġká¹Ľcch":5041,"cÄģraá¸¥":5042,"treti":5043,"Ġmahad":5044,"Ġbhoga":5045,"niyama":5046,"dheyaá¹ĥ":5047,"pavi":5048,"Ġsuá¹£u":5049,"cchanti":5050,"Ġkartavyaá¹ĥ":5051,"ĠkiÃ±cid":5052,"prÄģá¹ĩÄģ":5053,"ĠchÄģra":5054,"ĠsÄģdhana":5055,"ĠdvidhÄģ":5056,"nupapatteá¸¥":5057,"bindu":5058,"Ġupari":5059,"cÄģrÄ«":5060,"hyÄģt":5061,"ĠdeÅĽe":5062,"sthito":5063,"tÄ«ty":5064,"ĠÅĽakya":5065,"Ġgaja":5066,"Ġdá¹Ľá¹£á¹Ńaá¹ĥ":5067,"vantaá¸¥":5068,"á¹ĩá¸įarÄ«":5069,"tamu":5070,"Ġtirya":5071,"ĠvyavasthÄģ":5072,"ÅĽet":5073,"Ġhan":5074,"Ġpratyayo":5075,"tÄ«tya":5076,"daka":5077,"trayam":5078,"kvÄģ":5079,"ĠtataÅĽ":5080,"dhru":5081,"minÄ«":5082,"ĠyasmÄģ":5083,"ĠÅĽiká¹£i":5084,"Ġlaká¹£aá¹ĩÄģ":5085,"viparya":5086,"stad":5087,"ĠrÄģá¹£á¹Ń":5088,"Ġhanti":5089,"yamÄģne":5090,"hÄģraá¹ĥ":5091,"mÄģnyÄģ":5092,"Ġvivá¹Ľ":5093,"Ġbhavatu":5094,"ĠphalÄģ":5095,"vá¹ĽttyÄģ":5096,"Ro":5097,"ĠÅĽaá¹ħkha":5098,"bhadra":5099,"ĠpaÅĽyanti":5100,"yamo":5101,"iá¹£Äģ":5102,"vÄģdya":5103,"sunda":5104,"kÄ«rá¹ĩa":5105,"Ġdharme":5106,"viá¹ĥ":5107,"pÅ«jya":5108,"ĠghrÄģá¹ĩa":5109,"sanÄģ":5110,"á¹£ita":5111,"brahmovÄģca":5112,"gandharva":5113,"gamaá¸¥":5114,"ĠbÄģhya":5115,"ÅĽcid":5116,"Ġgá¹Ľhyate":5117,"lva":5118,"ĠpÄģdau":5119,"pattyÄģ":5120,"maá¹ĩá¸įala":5121,"ktena":5122,"streá¹ĩa":5123,"rud":5124,"ĠÄģyuá¹£ma":5125,"haraá¹ĥ":5126,"Ġsaá¹ĥyu":5127,"ĠÅĽilÄģ":5128,"tavaá¸¥":5129,"ttayÄģ":5130,"Ġdá¹Ľá¹£á¹Ńi":5131,"bravÄ«d":5132,"dÄ«rgha":5133,"ĠprÄģti":5134,"Ġdraá¹£á¹Ńavyam":5135,"á¹ĩamya":5136,"Ġmanye":5137,"Ġhá¹Ľdayaá¹ĥ":5138,"dÄģd":5139,"rasva":5140,"kÄģÅĽaá¸¥":5141,"ppa":5142,"taya":5143,"ÅĽá¹Ľá¹ĩu":5144,"nane":5145,"mut":5146,"ĠcintÄģ":5147,"Ġdivi":5148,"Ġnivarta":5149,"kulaá¹ĥ":5150,"pá¹ĽthivÄ«":5151,"kasyÄģ":5152,"ĠvirÄģ":5153,"jyoti":5154,"ĠÅĽud":5155,"yÄģÅĽ":5156,"pratibhÄģ":5157,"á¹Ńya":5158,"pikÄģ":5159,"Ġtvat":5160,"rna":5161,"tathaiva":5162,"ĠtapasÄģ":5163,"'d":5164,"dhÄģri":5165,"ĠjÄģtÄģ":5166,"Ġarju":5167,"Äģha":5168,"ĠmahÄģtmÄģ":5169,"Ġsthitaá¹ĥ":5170,"ĠmÅ«rdh":5171,"ĠjÄ«vÄģ":5172,"namas":5173,"ĠviÅĽeá¹£aá¹ĩa":5174,"Ġsvapna":5175,"mityata":5176,"Ġpravaká¹£yÄģmi":5177,"tyartha":5178,"ĠsthÄģnaá¹ĥ":5179,"ĠcaivÄģ":5180,"Ġekam":5181,"ĠmahÄģra":5182,"Ġpratyaya":5183,"pÄ«á¸įi":5184,"Ġbhayaá¹ĥ":5185,"á¹ħgam":5186,"vato":5187,"ĠjagÄģma":5188,"tiá¹£á¹Ńhate":5189,"nahi":5190,"ÄģtmÄģ":5191,"Ġprave":5192,"ĠnÄģÅĽa":5193,"Ġrasaá¸¥":5194,"Ġvadanti":5195,"Ġdvai":5196,"ĠbalÄ«":5197,"sitÄģ":5198,"Ġcana":5199,"samucca":5200,"Ġyata":5201,"ĠÄģva":5202,"svar":5203,"nivÄģ":5204,"tameva":5205,"tadeva":5206,"vidhaá¸¥":5207,"ttasya":5208,"ĠmahÄģsattvena":5209,"vista":5210,"karmaá¹ĩi":5211,"ĠpÅ«ra":5212,"nnaá¸¥":5213,"Ġprayoga":5214,"saá¹ĥpra":5215,"á¹Ńaka":5216,"jÃ±Äģnasya":5217,"kÄģmaá¸¥":5218,"jayÄģ":5219,"ĠnÄģva":5220,"ivam":5221,"hÄ«ti":5222,"Ġpitá¹Ŀ":5223,"ĠdÄģru":5224,"manaá¸¥":5225,"ĠbhrÄģtá¹Ľ":5226,"Ġvasi":5227,"ĠÅ«cuá¸¥":5228,"dadhi":5229,"gocara":5230,"Ġná¹Ľpaá¸¥":5231,"vikÄģ":5232,"ĠÅĽÄ«ta":5233,"Ġvaktavyaá¸¥":5234,"Ġcari":5235,"ĠmÄģdha":5236,"dyante":5237,"ĠvÄģkyÄģ":5238,"Ġsargaá¸¥":5239,"sminna":5240,"Ġdurla":5241,"ktau":5242,"patnÄ«":5243,"sada":5244,"Ġetena":5245,"ÅĽvarasya":5246,"ĠparikÄ«rti":5247,"dy":5248,"Ġpade":5249,"ĠkÄģmÄģ":5250,"dá¹ĽÅĽaá¸¥":5251,"tavÄģn":5252,"ĠÄģyÄģ":5253,"ĠmÄģru":5254,"Ġdehe":5255,"rase":5256,"vyÄģpti":5257,"rÄģjasya":5258,"sahÄģ":5259,"há¹Ľdaya":5260,"Ġvima":5261,"Ġnabha":5262,"ĠdevÄģn":5263,"ÅĽÄ«la":5264,"Ġvrajet":5265,"Ġsaá¹ĥskÄģra":5266,"raso":5267,"ĠsÅ«tre":5268,"ĠyogÄ«":5269,"bandhu":5270,"ĠÅĽeá¹£a":5271,"sas":5272,"Ġviá¹ĥÅĽa":5273,"ĠÅĽaÅĽi":5274,"sarja":5275,"nÄģrtha":5276,"Ġviha":5277,"ká¹£ata":5278,"Ġpiba":5279,"patha":5280,"ÅĽvare":5281,"ĠprÄģpnu":5282,"asya":5283,"rÄģtra":5284,"ĠdadhÄģ":5285,"ĠaÅĽu":5286,"nÄģrthaá¹ĥ":5287,"cintÄģ":5288,"Ġpá¹Ľá¹£á¹Ńha":5289,"strÄģá¹ĩi":5290,"brÄģhmaá¹ĩa":5291,"sÄģdhu":5292,"keta":5293,"grÄģma":5294,"á¹ĥÅĽca":5295,"aÅĽva":5296,"palla":5297,"vÄģci":5298,"Ġviá¹£Äģ":5299,"cchedaá¸¥":5300,"Ġmanuá¹£ya":5301,"Ġenam":5302,"svayaá¹ĥ":5303,"madhyÄģ":5304,"mÄģva":5305,"ĠsvÄ«":5306,"dhatte":5307,"pratÄ«ti":5308,"gadÄģ":5309,"Ġhara":5310,"vantaá¹ĥ":5311,"stá¹Ľ":5312,"parama":5313,"yudhiá¹£á¹Ńhi":5314,"mni":5315,"ÅĽat":5316,"mukhya":5317,"siddheá¸¥":5318,"lgu":5319,"nabhi":5320,"cau":5321,"rÄģdha":5322,"roga":5323,"Ġyog":5324,"matha":5325,"ĠsÄģmÄģn":5326,"Ġvacanam":5327,"ĠbrÅ«hi":5328,"daÅĽe":5329,"Ġyaje":5330,"prasÄģda":5331,"ĠsamantÄģ":5332,"Ġcenna":5333,"ĠÅĽabdaá¸¥":5334,"vinir":5335,"Ġsaká¹Ľ":5336,"nvayaá¸¥":5337,"tamÄ«":5338,"ĠdvitÄ«yÄģ":5339,"lau":5340,"ká¹£eá¹ĩa":5341,"ĠtÄģsÄģá¹ĥ":5342,"ĠjÄģnÄģti":5343,"vaiá¸¥":5344,"ÅĽatÄģ":5345,"ĠgatÄģá¸¥":5346,"vyavasthÄģ":5347,"bhÅ«tÄģnÄģá¹ĥ":5348,"ĠsamÄģsa":5349,"ĠÄģsÄ«t":5350,"rÄģÅĽ":5351,"Ġraud":5352,"ĠtÅ«r":5353,"ĠviÅĽiá¹£á¹Ńa":5354,"lambi":5355,"yada":5356,"hiá¹ĩÄ«":5357,"jÄģtÄ«ya":5358,"keti":5359,"tÄģyÄģá¸¥":5360,"ĠnÄģrÄ«":5361,"balena":5362,"má¹Ľtaá¹ĥ":5363,"khila":5364,"dinaá¹ĥ":5365,"netra":5366,"mantri":5367,"Ġsiddhe":5368,"vÄģyu":5369,"dhaiá¸¥":5370,"ĠÅĽirasÄģ":5371,"viÅĽeá¹£aá¸¥":5372,"kampa":5373,"Ġvidhiá¸¥":5374,"lÄ«lÄģ":5375,"Ġarhati":5376,"gdhaá¹ĥ":5377,"á¹£á¹ŃÄ«":5378,"saá¹ĥsparÅĽapratyaya":5379,"prabhá¹Ľti":5380,"kaá¹ŃÄģ":5381,"ĠbuddhyÄģ":5382,"Ġkathyate":5383,"raá¹ĩ":5384,"nartha":5385,"nivá¹Ľtti":5386,"á¹ħki":5387,"duá¹£":5388,"mayÄ«":5389,"stava":5390,"nityaá¹ĥ":5391,"á¹ħgira":5392,"jati":5393,"muktam":5394,"Ġmuhur":5395,"bhyas":5396,"ĠkalyÄģá¹ĩa":5397,"danaá¸¥":5398,"á¹ĩita":5399,"Ġdá¹Ľá¸įha":5400,"jit":5401,"bhedÄģt":5402,"ĠsattvÄģnÄģá¹ĥ":5403,"Ġasmai":5404,"Ġdhruvam":5405,"ĠcÄģnye":5406,"gnau":5407,"kalpo":5408,"tikÄģ":5409,"ĠpÄģrtha":5410,"Ġhar":5411,"ktá¹Ľ":5412,"Ġdhanu":5413,"tÄģpi":5414,"prÄģpya":5415,"ite":5416,"ĠcÄ«":5417,"Ġkhalv":5418,"keva":5419,"Ġsne":5420,"saá¹ĥghÄģ":5421,"Ġgarbha":5422,"ká¹£am":5423,"ĠsarvasattvÄģ":5424,"Ġcaika":5425,"gaá¹ħgÄģ":5426,"á¸įham":5427,"bhyaÅĽ":5428,"ĠdravyÄģ":5429,"gul":5430,"ntena":5431,"ĠkrÅ«":5432,"jijÃ±Äģ":5433,"Ġbuddhaká¹£e":5434,"ĠbodhisattvÄģnÄģá¹ĥ":5435,"gniá¹ĥ":5436,"prÄģmÄģá¹ĩya":5437,"vanam":5438,"Ġiá¹£yate":5439,"ĠvrÄ«":5440,"ĠÅĽuddhÄģ":5441,"ĠdadarÅĽa":5442,"Ġpravar":5443,"Å«rdhva":5444,"ĠprÄģrtha":5445,"nirdi":5446,"Ġatho":5447,"gnÄģ":5448,"á¹£Äģá¸¥":5449,"trÄģva":5450,"ĠÅĽrÄ«mÄģn":5451,"ntas":5452,"mithyÄģ":5453,"dhyo":5454,"numÄģna":5455,"tasmi":5456,"ĠkleÅĽa":5457,"katvam":5458,"pramÄģá¹ĩÄģ":5459,"bÄ«jaá¹ĥ":5460,"lpÄģ":5461,"Ġkvaci":5462,"yÄģá¹ĩÄģá¹ĥ":5463,"ĠbhÄģti":5464,"ĠvyÄģpti":5465,"vÄģkyaá¹ĥ":5466,"Ġanyat":5467,"tanu":5468,"ĠpaÅĽa":5469,"ravÄģ":5470,"ĠbhÄģá¹£i":5471,"sthÅ«":5472,"ĠmahÄģbalaá¸¥":5473,"bhaá¹ħga":5474,"bhÄģvÄģn":5475,"vidhiá¸¥":5476,"Lo":5477,"á¹ĩair":5478,"rityarthaá¸¥":5479,"vidho":5480,"bhÅ«tÄģni":5481,"Ġdevasya":5482,"Ġyuktaá¸¥":5483,"stena":5484,"jÄģla":5485,"muttamam":5486,"ÅĽiro":5487,"ĠvyÄģp":5488,"opa":5489,"parivÄģ":5490,"tÄģvaccheda":5491,"bhogÄģ":5492,"Ġnopaiti":5493,"á¹ĩava":5494,"Ġvimo":5495,"karÄ«":5496,"canaá¹ĥ":5497,"Ġmatam":5498,"Ġpuraá¸¥":5499,"Ġviddhi":5500,"ĠnÄģmnÄģ":5501,"loki":5502,"jitaá¹ĥ":5503,"yatho":5504,"pÅ«rvo":5505,"LocanÄģ":5506,"Ġspar":5507,"Ġcanda":5508,"cchaá¹ĥ":5509,"svabhÄģvÄģ":5510,"ĠtasyÄģá¹ĥ":5511,"cam":5512,"tÄģÅĽ":5513,"ĠpalÄģ":5514,"Ġkapha":5515,"Ġduá¹£á¹Ńa":5516,"rthÄģnÄģá¹ĥ":5517,"seva":5518,"loko":5519,"kÄģrÄģá¸¥":5520,"yÄģmaá¸¥":5521,"ká¹ĽtyÄģ":5522,"dvÄģrÄģ":5523,"ĠtvÄģm":5524,"ĠpurÄ«":5525,"ĠÅĽrutiá¸¥":5526,"cÅ«":5527,"Ġdaká¹£iá¹ĩe":5528,"Ġlokam":5529,"ÅĽcÄģpi":5530,"aá¹£á¹ŃÄģ":5531,"kadÄģ":5532,"dhvar":5533,"athavÄģ":5534,"tanÄģ":5535,"kanda":5536,"Ġkumbha":5537,"ÅĽmi":5538,"dhÄģnam":5539,"caraá¹ĩa":5540,"Ġvidyu":5541,"ÅĽobha":5542,"ĠÅĽubham":5543,"tathÄģpi":5544,"vikÄģra":5545,"Ġvibho":5546,"Ġmaá¹ħga":5547,"ĠtÄ«rthaá¹ĥ":5548,"Ġanitya":5549,"ĠasmÄģkaá¹ĥ":5550,"ĠcÄģpy":5551,"bhÅ«tam":5552,"ktasya":5553,"ĠÅĽubhe":5554,"krodha":5555,"mityÄģdi":5556,"ĠadhÄ«":5557,"Ġputraá¹ĥ":5558,"ĠpÅ«rvapaká¹£a":5559,"hará¹£a":5560,"bhiÅĽca":5561,"Ġeá¹£Äģá¹ĥ":5562,"ĠÅĽakyaá¹ĥ":5563,"Ġtadi":5564,"Ġpuruá¹£asya":5565,"á¹£yo":5566,"Ġbhai":5567,"Ġlokaá¹ĥ":5568,"á¹ŃÄ«kÄģ":5569,"ĠÅĽarÄ«raá¹ĥ":5570,"mavÄģ":5571,"ÅĽvarÄ«":5572,"Ġpaá¹Ń":5573,"karmaá¹ĩÄģ":5574,"tamiti":5575,"stada":5576,"darÅĽane":5577,"kaá¹ĩá¹Ń":5578,"dhikaá¹ĥ":5579,"mune":5580,"Ġgate":5581,"Ġrase":5582,"ĠsarvÄģkÄģrajÃ±atÄģ":5583,"rÄģtraá¹ĥ":5584,"mekaá¹ĥ":5585,"nÄ«yaá¸¥":5586,"Ġhasti":5587,"hyaá¸¥":5588,"varo":5589,"harÄģ":5590,"saá¹ĥgha":5591,"dikaá¹ĥ":5592,"ĠyatrÄģ":5593,"ĠkÄģá¹ĥ":5594,"dhiá¹ĥ":5595,"rÅ«á¸įha":5596,"laká¹£mÄ«":5597,"ivo":5598,"satyaá¹ĥ":5599,"Ġtathe":5600,"ĠlokÄģn":5601,"tapra":5602,"vÄģma":5603,"Ġpaká¹£e":5604,"Ġbharata":5605,"Ġniyama":5606,"Ġantari":5607,"Ġdyu":5608,"Ġsaá¹ĥkhyÄģ":5609,"saá¹ħkhyÄģ":5610,"yete":5611,"Ġkoá¹Ńi":5612,"vijÃ±apriyÄģ":5613,"ĠpÄģrÅĽva":5614,"ĠjuhuyÄģt":5615,"mÄģrkaá¹ĩá¸įeya":5616,"pasya":5617,"ĠsthÄģtavyam":5618,"Ġpauru":5619,"inaá¹ĥ":5620,"padena":5621,"Ġsubha":5622,"ĠhatvÄģ":5623,"ĠdhÅ«ma":5624,"á¸įe":5625,"yutaá¹ĥ":5626,"Ġciraá¹ĥ":5627,"cittÄģ":5628,"rr":5629,"Ġtrya":5630,"hri":5631,"Ġviru":5632,"Ġjam":5633,"ĠabhiprÄģ":5634,"jÃ±apti":5635,"yanÄģ":5636,"tadi":5637,"Ġtá¹ĽtÄ«yÄģ":5638,"vida":5639,"Ġpaá¹Ńha":5640,"ĠÄģro":5641,"Ġbrahmaá¹ĩÄģ":5642,"smÄģkaá¹ĥ":5643,"Ġvará¹ĩÄģ":5644,"ĠpaÅĽyÄģmi":5645,"Ã±a":5646,"Ġucca":5647,"ĠpradÄ«":5648,"citto":5649,"Ġnopala":5650,"dhá¹Ľtya":5651,"nÄģsi":5652,"ddham":5653,"ĠhÅ«":5654,"miha":5655,"bhiá¹£e":5656,"brÅ«":5657,"mayaá¸¥":5658,"ĠmÄģtrÄģ":5659,"bda":5660,"á¹£ka":5661,"satvÄģ":5662,"gatiá¸¥":5663,"ritya":5664,"kÄģá¹ħká¹£Äģ":5665,"tvamÄģ":5666,"ĠvipÄģ":5667,"rÄ«ya":5668,"Ġpriyaá¹ĥ":5669,"ĠÄģhur":5670,"á¹Ńaá¸¥":5671,"vapu":5672,"het":5673,"parityÄģ":5674,"nod":5675,"ĠrÄģtrau":5676,"cchet":5677,"saá¹ĥjÃ±i":5678,"ĠmahÄģmate":5679,"mukham":5680,"ĠpÅ«rve":5681,"ĠnidrÄģ":5682,"Ġkartuá¹ĥ":5683,"ced":5684,"tmanÄģm":5685,"ĠbÄģlÄģ":5686,"Ġcaivaá¹ĥ":5687,"hare":5688,"vá¹ĽtÄģ":5689,"Ġgá¹ĽhÄģ":5690,"Ġbhiká¹£avo":5691,"kiÃ±ca":5692,"ĠsamudÄģ":5693,"Ġnaca":5694,"bharaá¹ĩa":5695,"ĠnirÄ«":5696,"bá¹Ľha":5697,"madÄģ":5698,"dhÅ«ma":5699,"ĠkÄģryakÄģraá¹ĩa":5700,"sni":5701,"Ġanna":5702,"ĠÅĽiká¹£ate":5703,"ĠutthÄģ":5704,"saá¹ĥyuktaá¹ĥ":5705,"umÄģ":5706,"vipÄģ":5707,"Ġpan":5708,"ĠrÄģjÃ±aá¸¥":5709,"ĠsÄģká¹£i":5710,"Ġmukhaá¹ĥ":5711,"khyo":5712,"catuá¹£á¹Ńa":5713,"lokaá¸¥":5714,"kum":5715,"yogya":5716,"Ġindriya":5717,"pado":5718,"Ġsambandha":5719,"ĠpaÅĽyan":5720,"ĠrÅ«peá¹ĩa":5721,"dyÄģpi":5722,"ĠkadÄģcit":5723,"viÅĽvÄģ":5724,"Ġanyaá¸¥":5725,"ĠÅĽukla":5726,"Ġdá¹Ľá¹£á¹ŃÄģnta":5727,"Ġityeva":5728,"dibhiá¸¥":5729,"Ġkuá¹ĩá¸įa":5730,"vyapade":5731,"dharme":5732,"já¹Ľ":5733,"vÄģcÄģ":5734,"mopa":5735,"ĠdÅ«ra":5736,"taram":5737,"ĠjÃ±eyÄģ":5738,"Ġliá¹ħgaá¹ĥ":5739,"yasva":5740,"gamana":5741,"ĠsakhÄ«":5742,"mantaá¹ĥ":5743,"ĠicchÄģ":5744,"tyate":5745,"muÃ±ca":5746,"preká¹£Äģ":5747,"kÄģmena":5748,"ĠmatvÄģ":5749,"ĠsarvaÅĽaá¸¥":5750,"kramÄģ":5751,"gninÄģ":5752,"ĠtrÄ«á¹ĩi":5753,"deÅĽaá¹ĥ":5754,"ĠnÄģtha":5755,"ká¹£itaá¹ĥ":5756,"vihÄģra":5757,"Ġcala":5758,"ĠniveÅĽa":5759,"kulam":5760,"sÄģká¹£Äģt":5761,"ká¹Ľá¹£á¹ĩÄģ":5762,"ĠÅĽiro":5763,"vÄģsÄģ":5764,"Ġam":5765,"daÅĽÄ«":5766,"kumbha":5767,"ive":5768,"yuá¹£ma":5769,"gopa":5770,"ká¹£aá¹ĩaá¹ĥ":5771,"Ã±jana":5772,"mÄģnÄģdhikara":5773,"rdhva":5774,"paÅĽcÄģ":5775,"Ã±cit":5776,"sahasrÄģ":5777,"ĠviÅĽÄģ":5778,"tÄ«ká¹£":5779,"virodhi":5780,"dyata":5781,"ĠsyÄģn":5782,"Ġlaká¹£mÄ«":5783,"rÄģá¹ĩa":5784,"jÄģna":5785,"bhinnÄģ":5786,"bodhau":5787,"gatya":5788,"Ġdadau":5789,"Ġdaitya":5790,"Ġvaraá¸¥":5791,"yug":5792,"Ġsambhavati":5793,"Ġardha":5794,"buddho":5795,"vasu":5796,"mato":5797,"cyata":5798,"dati":5799,"veta":5800,"tvÄģc":5801,"metada":5802,"Ġvrr":5803,"cÄģro":5804,"ĠmudÄģ":5805,"Ġvrrs":5806,"tÄģnÄģ":5807,"ĠbhÄģvi":5808,"kalpe":5809,"ĠjÃ±Äģyate":5810,"ĠantarÄģ":5811,"ĠamÄģ":5812,"Ġmuniá¸¥":5813,"ĠprajÃ±Äģyante":5814,"lÄģm":5815,"tpala":5816,"laká¹£aá¹ĩaá¸¥":5817,"ĠÅĽoka":5818,"vrÄģ":5819,"Ġdau":5820,"ĠyuktÄģ":5821,"itthaá¹ĥ":5822,"sali":5823,"vÄģdo":5824,"Ġbrahman":5825,"abhya":5826,"á¹ĩas":5827,"á¹£á¹Ńhu":5828,"Ġkati":5829,"dhÄģraá¹ĩÄģ":5830,"Ġvaká¹£yÄģmi":5831,"vidhe":5832,"ĠviÅĽru":5833,"ká¹Ľcch":5834,"tataÅĽ":5835,"maho":5836,"ká¹£aye":5837,"Ġsvasti":5838,"senÄģ":5839,"Ġviá¹£ayÄģ":5840,"kaá¹£Äģ":5841,"ĠpÄģdÄģ":5842,"má¹Ľga":5843,"ĠpratÄ«tya":5844,"Ġartho":5845,"ĠÅĽataá¹ĥ":5846,"Ġbhadra":5847,"vidhau":5848,"cÅ«rá¹ĩa":5849,"meá¹£a":5850,"ÅĽaá¹ħkha":5851,"Ġpraká¹Ľta":5852,"Ġvade":5853,"vará¹ĩi":5854,"grahÄ«":5855,"nubhava":5856,"lambana":5857,"ntyÄģ":5858,"siddhya":5859,"Ġtal":5860,"ĠsÄģdhyÄģ":5861,"Ġhanta":5862,"á¹ħghÄģ":5863,"Ġkhaá¸į":5864,"pá¹Ľccha":5865,"ĠkÄģÅĽya":5866,"kÄģd":5867,"tattvÄģ":5868,"Ġlaká¹£aá¹ĩaá¹ĥ":5869,"vata":5870,"dehe":5871,"ÅĽitÄģ":5872,"ĠjÄģtu":5873,"ĠÅĽÄģkhÄģ":5874,"Ġanabhi":5875,"ĠjijÃ±Äģ":5876,"namaá¸¥":5877,"patÄģ":5878,"lauk":5879,"ĠmuktÄģ":5880,"pratyayÄģ":5881,"paryanta":5882,"Ġayama":5883,"Ġsro":5884,"ĠrÄģmo":5885,"bhoja":5886,"tant":5887,"paÅĽci":5888,"Ġtamo":5889,"Ġbhiká¹£uá¹ĩÄ«":5890,"ĠprasÄģda":5891,"Ġvyaá¹ħg":5892,"Ġdattaá¹ĥ":5893,"Ġsaá¹ĥyoga":5894,"nyÄģya":5895,"Ġapara":5896,"ĠÄģsÄģdya":5897,"kÄģmaá¹ĥ":5898,"Ġsure":5899,"ĠpÄģri":5900,"ĠyayÄģ":5901,"ĠÄģÅĽu":5902,"ĠbhÅ«ri":5903,"Ġká¹£aá¹ĩi":5904,"Ġbhaya":5905,"rthÄģá¸¥":5906,"ĠsÅ«trÄģ":5907,"nirva":5908,"Ġagniá¸¥":5909,"vataá¸¥":5910,"ĠpumÄģn":5911,"saá¹ĥhÄģra":5912,"ĠsamÄģdhiá¸¥":5913,"myam":5914,"Ġityucyate":5915,"ĠsamanvÄģ":5916,"ĠjÄ«ve":5917,"prasaá¹ħga":5918,"dharo":5919,"ĠkrÄ«á¸įa":5920,"rcya":5921,"gá¹Ľhaá¹ĥ":5922,"sukhaá¹ĥ":5923,"danaá¹ĥ":5924,"dite":5925,"ĠkÄģlo":5926,"sthau":5927,"kramaá¹ĥ":5928,"nantaram":5929,"vÄģm":5930,"vidÄģ":5931,"Ġdhu":5932,"Ġdhvani":5933,"vÄģr":5934,"ĠsvÄģmi":5935,"ĠÅ«rdhvaá¹ĥ":5936,"yantra":5937,"kÄģraá¹ĩÄģ":5938,"grahaá¹ĩe":5939,"Ġbhagavantaá¹ĥ":5940,"rakÄģ":5941,"ĠmahÄģte":5942,"Ġmantri":5943,"Ġbhedaá¸¥":5944,"bhena":5945,"yamÄģnaá¸¥":5946,"Ġdig":5947,"ÅĽÄģrdÅ«":5948,"ká¹ĽtÄģá¸¥":5949,"gamanaá¹ĥ":5950,"kÅ«á¹Ńa":5951,"eá¹£Äģ":5952,"mÄģá¹ĩaá¹ĥ":5953,"dravyÄģ":5954,"tthÄģya":5955,"ĠjÄģnÄ«":5956,"ĠvÄģji":5957,"dyaá¸¥":5958,"niti":5959,"ĠprasÅ«":5960,"saá¹ĥbhavÄģ":5961,"lambhÄģ":5962,"Ġandha":5963,"Ġnahi":5964,"dhÄģá¹ĥ":5965,"vÄģkyÄģ":5966,"Ġiá¹£á¹Ńa":5967,"Ġarthaá¹ĥ":5968,"hiraá¹ĩya":5969,"Ġkaá¹£Äģ":5970,"Ġabh":5971,"tÄ«rthaá¹ĥ":5972,"tathÄģgata":5973,"Ġá¹£aá¸įa":5974,"ĠbrÄģhmaá¹ĩo":5975,"Ġbuddhir":5976,"vayaá¸¥":5977,"ĠabhÄ«":5978,"Ġjaá¸įa":5979,"Ġneti":5980,"jjva":5981,"dito":5982,"cayet":5983,"Ġanyad":5984,"Ġitara":5985,"bhÅ«tir":5986,"Ġtara":5987,"á¹£á¹Ńena":5988,"Ġmati":5989,"pito":5990,"tmane":5991,"ghoá¹£a":5992,"itat":5993,"vau":5994,"paÅĽu":5995,"yorapi":5996,"ndrasya":5997,"yÄģmy":5998,"Ġhá¹Ľdaya":5999,"ĠtÄ«rtha":6000,"ĠudÄģha":6001,"vyate":6002,"nÄģsti":6003,"Ġpava":6004,"Ġkartum":6005,"Ġlaká¹£aá¹ĩam":6006,"padeÅĽa":6007,"ĠÅĽÄģra":6008,"ĠtÄ«rthe":6009,"vega":6010,"pratiyogi":6011,"tá¹Ľá¹£á¹ĩÄģ":6012,"rthya":6013,"virodhÄģ":6014,"á¹£á¹ĩi":6015,"namÄģ":6016,"ntike":6017,"Ġjani":6018,"Ġtadupa":6019,"ĠdiÅĽaá¸¥":6020,"niyamÄģ":6021,"ĠkasmÄģ":6022,"jÄģtaá¹ĥ":6023,"laká¹£aá¹ĩe":6024,"hema":6025,"mukto":6026,"ÅĽritaá¸¥":6027,"Ġsyur":6028,"ĠrathÄģ":6029,"ĠÅĽá¹Ľá¹ĩ":6030,"virÄģ":6031,"ĠnÄģya":6032,"ĠrÄģjÄģnaá¹ĥ":6033,"Ġvikalpayiá¹£yanti":6034,"ĠyaÅĽo":6035,"sÄģdhÄģraá¹ĩa":6036,"ĠÅĽiraá¸¥":6037,"sargÄģ":6038,"Ġkarmaá¹ĩi":6039,"Ġlokeá¹£u":6040,"rathÄģ":6041,"Ġrati":6042,"aha":6043,"vaditi":6044,"nameva":6045,"Ġruci":6046,"ruvan":6047,"Ġbhoja":6048,"Ġseva":6049,"Ġjha":6050,"samudÄģ":6051,"ĠutpÄģda":6052,"ĠvyavahÄģra":6053,"Ġpitta":6054,"anyo":6055,"gatena":6056,"jÄģm":6057,"ĠviÅĽve":6058,"megha":6059,"kará¹£Äģ":6060,"lÄ«á¹ĥ":6061,"Ġsattvaá¹ĥ":6062,"ratÄģ":6063,"nÄģyÄģ":6064,"Ġnive":6065,"Ġpratyekaá¹ĥ":6066,"samÅ«":6067,"viÅĽeá¹£o":6068,"vibha":6069,"ĠmahÄģma":6070,"Ġhetur":6071,"ĠyenÄģ":6072,"Ġkriya":6073,"ĠsthÄģne":6074,"ganta":6075,"Ġcaita":6076,"-'":6077,"Ġmegha":6078,"asti":6079,"ÅĽÄģna":6080,"Ġpunas":6081,"yos":6082,"ĠvÄģya":6083,"Ġguá¹ĩÄģá¸¥":6084,"Ġá¹Ľddhi":6085,"ĠityÄģdinÄģ":6086,"Ġká¹£ipraá¹ĥ":6087,"ĠbahirdhÄģ":6088,"ndhe":6089,"nor":6090,"ÅĽaktyÄģ":6091,"Ġsari":6092,"dine":6093,"ror":6094,"sattve":6095,"ĠÄģhu":6096,"Ġtattvaá¹ĥ":6097,"Ġhá¹Ľdaye":6098,"Ġniga":6099,"vibhÄģga":6100,"Ġsaiva":6101,"pratyu":6102,"yac":6103,"prame":6104,"hopa":6105,"pariá¹ĩÄģ":6106,"sambhavÄģt":6107,"Ġpratyekabuddha":6108,"pá¹Ľthak":6109,"Ġiyam":6110,"Ġlokasya":6111,"iri":6112,"ĠRo":6113,"ÅĽaá¹ĥpÄģya":6114,"á¹ħgula":6115,"KA":6116,"cayati":6117,"Ġvidhe":6118,"ĠÄģna":6119,"Ġpudga":6120,"Ġhetor":6121,"ĠtridhÄģ":6122,"Ġduá¸¥khi":6123,"Ġgata":6124,"ĠsamupÄģ":6125,"padyante":6126,"bhyÄģsa":6127,"KAII":6128,"ká¹£yanti":6129,"jvala":6130,"paká¹£i":6131,"kÄģntÄģ":6132,"ÅĽaá¹ħkya":6133,"tmakam":6134,"ĠÅĽastra":6135,"ĠvyÄģpÄģ":6136,"ghÄģna":6137,"sate":6138,"Ġetan":6139,"mÄģá¹ĥsÄģ":6140,"Ġsunda":6141,"pattau":6142,"Ġgatim":6143,"á¹ĩÅ«":6144,"nikÄģ":6145,"tura":6146,"ramuk":6147,"gá¹ĽhÄ«ta":6148,"Ġduá¸¥kham":6149,"Ġsakhi":6150,"saá¹ĥÅĽa":6151,"tamana":6152,"prÄģpte":6153,"durla":6154,"ĠchrutvÄģ":6155,"praccha":6156,"ĠvaiÅĽvÄģ":6157,"phale":6158,"vaá¹ĥÅĽa":6159,"nut":6160,"lÄģt":6161,"mÄģnanda":6162,"tpattiá¸¥":6163,"ĠsarvÄģá¸¥":6164,"ĠÅĽÄ«ghraá¹ĥ":6165,"iyaá¹ĥ":6166,"nyÄģá¸¥":6167,"etena":6168,"Ġavocat":6169,"nuá¹£á¹ŃhÄģ":6170,"kuryÄģ":6171,"dÄ«nÄģma":6172,"bja":6173,"ĠsthitÄģá¸¥":6174,"Ġvaktuá¹ĥ":6175,"syasi":6176,"pÄģtÄģ":6177,"Ġtatpra":6178,"Ġgacchanti":6179,"ĠnÅ«naá¹ĥ":6180,"ĠÄģpa":6181,"Ġsaá¹ĥgha":6182,"Ġje":6183,"dattÄģ":6184,"ĠtathÄģgato":6185,"tpÄģdo":6186,"gá¹Ľhá¹ĩÄģti":6187,"sne":6188,"ĠvikhyÄģ":6189,"Ġbaddha":6190,"vÄģsanÄģ":6191,"ĠidÄģnÄ«á¹ĥ":6192,"pÄģtra":6193,"jito":6194,"geá¹£u":6195,"theti":6196,"tsi":6197,"Ġcau":6198,"roá¸¥":6199,"Ġsaá¹ĥsá¹Ľ":6200,"loha":6201,"Ġtaru":6202,"ĠkÄģÃ±ca":6203,"ĠsumahÄģ":6204,"vá¹Ľá¹£a":6205,"grahaá¹ĥ":6206,"ĠbhÅ«t":6207,"ĠsyÄģda":6208,"valla":6209,"Ġsamá¹Ľ":6210,"tÄģrtha":6211,"triá¹ĥ":6212,"Ġnirava":6213,"pratiá¹£á¹ŃhÄģ":6214,"sarpa":6215,"adya":6216,"karuá¹ĩÄģ":6217,"sattvaá¹ĥ":6218,"vá¹Ľttir":6219,"tvopa":6220,"haá¹ĥsa":6221,"Ġjva":6222,"rthÄģntara":6223,"Ġpayo":6224,"ĠÄģryÄģ":6225,"Ġavaya":6226,"vá¹Ľttya":6227,"cÅ«rá¹ĩaá¹ĥ":6228,"Ġvita":6229,"ĠprajÄģpatiá¸¥":6230,"yÄģnaá¹ĥ":6231,"laká¹£ya":6232,"pitam":6233,"ká¹£aá¹ĩaá¸¥":6234,"ĠdarÅĽana":6235,"Ġká¹Ľá¹£á¹ĩaá¹ĥ":6236,"stÄģá¹ĥ":6237,"ĠdeÅĽÄģ":6238,"nÄģdhi":6239,"Ġcu":6240,"Ġpratyeka":6241,"ĠudÄģhá¹Ľ":6242,"yadyapi":6243,"srava":6244,"Ġstam":6245,"jarÄģ":6246,"veá¹£u":6247,"Ġbrahmaá¹ĩi":6248,"ĠkurvÄ«ta":6249,"ÅĽco":6250,"Ġdanta":6251,"Ġcen":6252,"ĠvyÄģdhi":6253,"ĠtasmÄģn":6254,"viÅĽeá¹£e":6255,"Ã±ce":6256,"dvaye":6257,"Ġmaitre":6258,"ĠjanÄģá¸¥":6259,"Ġbhiká¹£avaá¸¥":6260,"vimoká¹£a":6261,"tejo":6262,"Ġvaá¹ĥ":6263,"Ġsamanu":6264,"ĠavasthÄģ":6265,"vaiÅĽaá¹ĥpÄģya":6266,"ĠhyÄģ":6267,"ĠsaptÄģ":6268,"ĠprÄģcÄ«":6269,"ĠbahudhÄģ":6270,"hÄģreá¹ĩa":6271,"bali":6272,"Ġanuk":6273,"Ġgá¹Ľhá¹ĩÄģti":6274,"pravÄģ":6275,"ĠvadÄģ":6276,"ĠgÄģthÄģ":6277,"ddhu":6278,"ĠbhrÄģnti":6279,"ĠchÄģradvatÄ«putra":6280,"draá¸¥":6281,"mitrÄģ":6282,"Ġlabhyate":6283,"lli":6284,"Ġsap":6285,"vÄģnu":6286,"kameva":6287,"Ġyuddhe":6288,"ĠÅĽÅ«dra":6289,"mÅ«tra":6290,"ntÄģá¸¥":6291,"Ġparyu":6292,"Ġyatha":6293,"yantaá¸¥":6294,"ĠkadÄģcana":6295,"ditÄģá¸¥":6296,"Ġguruá¸¥":6297,"stataá¸¥":6298,"Ġsaá¹ĥÅĽaya":6299,"gandhi":6300,"ĠÅĽaá¹ħkÄģ":6301,"ĠmahÄģkÄģ":6302,"ttiá¹£á¹Ńha":6303,"kÄģÅĽ":6304,"pÄģá¹ĩá¸įu":6305,"sÄģmÄģn":6306,"Ġtadvat":6307,"nyÄģsa":6308,"tyeti":6309,"Ġupalabhate":6310,"ndreá¹ĩa":6311,"rá¹ĩamÄģ":6312,"Ġsarpi":6313,"á¹£á¹Ńham":6314,"grÄģhya":6315,"ÅĽatru":6316,"prayÄģ":6317,"pÄ«á¸įa":6318,"vraja":6319,"Ġduryodha":6320,"viÅĽuddhi":6321,"dá¹ĽÅĽe":6322,"ĠkartavyÄģ":6323,"ĠgrÄģha":6324,"ĠgrÄģhya":6325,"syante":6326,"Ġpaká¹£i":6327,"ká¹£Äģá¸¥":6328,"ĠbhuktvÄģ":6329,"nÄģra":6330,"tÄ«á¸¥":6331,"deÅĽi":6332,"ÅĽÄģm":6333,"ĠbhÅ«tÄģnÄģá¹ĥ":6334,"Ġmukta":6335,"ĠdevÄģnÄģm":6336,"yamiti":6337,"ĠvÄģra":6338,"Ġgandharva":6339,"rá¹£e":6340,"kamÄģ":6341,"Ġaá¹£á¹Ńau":6342,"Ġsaptam":6343,"Ġsaá¹ĥvá¹Ľ":6344,"tiá¹£á¹Ńhati":6345,"Ġara":6346,"Ġvirodha":6347,"Ġbrahmaca":6348,"sarpi":6349,"kriyate":6350,"Ġvaha":6351,"ĠÄģjÃ±Äģ":6352,"Ġbhedo":6353,"ĠpatnÄ«":6354,"Ġkali":6355,"ndrÄģya":6356,"ĠjÄģto":6357,"bhÅ«tasya":6358,"Ġdhara":6359,"hÄ«na":6360,"ĠnarÄģá¸¥":6361,"mitam":6362,"dhita":6363,"dhyavasÄģ":6364,"Ġsvapne":6365,"pÄģlÄģ":6366,"Ġeá¹£aá¸¥":6367,"gá¹ĽhÄģ":6368,"lba":6369,"ĠpÄģla":6370,"ĠbhÄģvo":6371,"ĠÅĽÄģkya":6372,"ÅĽritÄģ":6373,"Ġá¹ĩa":6374,"á¹ĩyÄģá¹ĥ":6375,"Ġtadva":6376,"Ġcira":6377,"Ġdvijaá¸¥":6378,"ĠÅĽrÄģvaka":6379,"ĠM":6380,"ĠsvÄģbhÄģvi":6381,"Ġmukti":6382,"yogÄģd":6383,"ĠjÄ«vati":6384,"yatÄ«ti":6385,"Ġnibodha":6386,"ÅĽaá¹ĥsa":6387,"Ã±jÄ«ta":6388,"ddi":6389,"sÄģreá¹ĩa":6390,"Ġpratipadyate":6391,"ĠbÄģhyÄģ":6392,"ĠbhinnÄģ":6393,"mÄģnÄģá¸¥":6394,"Ġparasparam":6395,"Ġadho":6396,"mÄģtá¹Ľ":6397,"bhÄģsÄģ":6398,"Ġparasya":6399,"jayaá¸¥":6400,"trayo":6401,"tvÄģnna":6402,"Ġlokaá¸¥":6403,"sambandhÄģ":6404,"Ġdina":6405,"ĠtejasÄģ":6406,"tÄģtpa":6407,"praká¹Ľ":6408,"muktvÄģ":6409,"tham":6410,"ĠtadÄ«":6411,"layaá¹ĥ":6412,"ĠprapaÃ±ca":6413,"ĠÄģÅĽra":6414,"gamo":6415,"ĠgadÄģ":6416,"daá¹ĥá¹£á¹Ń":6417,"kaá¹ĩá¹Ńa":6418,"dveá¹£a":6419,"Ġcarann":6420,"Ġdá¹ĽÅĽyante":6421,"rÄģÅĽi":6422,"patter":6423,"krÄģma":6424,"ĠÄģtmani":6425,"ndriyaá¸¥":6426,"ttarÄģyÄģá¹ĥ":6427,"ĠÄģpnoti":6428,"Ġmucyate":6429,"dvand":6430,"lyo":6431,"vacchinna":6432,"dhipaá¸¥":6433,"jÄģtÄģ":6434,"spaá¹£á¹Ńam":6435,"Ġkasyacit":6436,"palabdhi":6437,"Ġvigamena":6438,"Ġpuras":6439,"Ġkum":6440,"babhÅ«va":6441,"dala":6442,"saá¹ĥvatsa":6443,"ĠÅĽama":6444,"ĠnyÄģya":6445,"vÄģsu":6446,"kamiti":6447,"muda":6448,"Ġkevalam":6449,"patÄ«":6450,"praÅĽ":6451,"guá¹ĩe":6452,"Ġteá¹£Äģ":6453,"moca":6454,"dá¹ĽÅĽam":6455,"á¹£á¹ŃÄģá¹ĥ":6456,"Ġsthite":6457,"ĠÅ«rdhva":6458,"aá¹£á¹Ńa":6459,"dadha":6460,"Ġsaá¹ĥgrÄģ":6461,"Ġsamudra":6462,"Ġvyoma":6463,"Ġeke":6464,"Ġagre":6465,"ĠdadyÄģd":6466,"antar":6467,"Ġsatva":6468,"ĠudÄ«":6469,"cÄģru":6470,"patim":6471,"Ġkama":6472,"tÄ«tyarthaá¸¥":6473,"meta":6474,"ĠÄģtmano":6475,"garbhÄģ":6476,"ĠamÄ«":6477,"Ġvinda":6478,"á¹ħganÄģ":6479,"Ġloha":6480,"Ġtriá¹£u":6481,"Ġukte":6482,"yair":6483,"tila":6484,"ĠsÄģnu":6485,"Ġpai":6486,"Ġsamam":6487,"kusuma":6488,"aká¹£a":6489,"itye":6490,"Ġvat":6491,"Ġge":6492,"ÅĽikhÄģ":6493,"vaÅĽ":6494,"Å«rdhvaá¹ĥ":6495,"dyair":6496,"Ġhará¹£a":6497,"Ġyudhi":6498,"krÄģntaá¸¥":6499,"pannam":6500,"Ġsneha":6501,"ĠÅĽuddhi":6502,"Ġkule":6503,"svarÅ«pÄģ":6504,"hasthÄģ":6505,"ĠtÄģdá¹ĽÅĽa":6506,"jju":6507,"saro":6508,"á¹ħke":6509,"noá¸¥":6510,"ĠpadÄģrtha":6511,"tattvaá¹ĥ":6512,"sÅ«tre":6513,"ĠprÄģptaá¹ĥ":6514,"Ġjanaá¸¥":6515,"á¹£á¹ŃÄģni":6516,"á¹ħguli":6517,"mahaá¸¥":6518,"Ġadbhu":6519,"laká¹£aá¹ĩo":6520,"che":6521,"syÄģsya":6522,"suvará¹ĩa":6523,"ká¹£ipet":6524,"á¸įo":6525,"yanty":6526,"ÅĽatÄģni":6527,"Ġubhau":6528,"saá¹ĥta":6529,"medha":6530,"á¹ĩÄ«yÄģ":6531,"ĠÅĽarÄ«re":6532,"Ġpá¹Ľthu":6533,"mÅ«laá¹ĥ":6534,"Ġekaá¸¥":6535,"Ġhima":6536,"Ġká¹Ľpa":6537,"parimÄģá¹ĩa":6538,"ÅĽubha":6539,"buddhyÄģ":6540,"Ġpaá¹ĥ":6541,"ryamÄģ":6542,"bhru":6543,"lok":6544,"vá¹Ľtya":6545,"ĠcÄģnupa":6546,"Ġkhaá¹ĩá¸įa":6547,"Ġyuá¹£mÄģ":6548,"ĠÅĽrutaá¹ĥ":6549,"Ġká¹£o":6550,"tuma":6551,"jyeta":6552,"dhikÄģra":6553,"ĠlokadhÄģtu":6554,"ĠÄģtmÄģnam":6555,"ÅĽá¹Ľá¹ħgÄģ":6556,"ĠÅĽveta":6557,"Ġsamaye":6558,"Ġuddha":6559,"á¹ĩyo":6560,"á¹Ľá¹£a":6561,"nyapi":6562,"Ġpariá¹ĩÄģ":6563,"Ġdá¹Ľá¹£á¹Ńaá¸¥":6564,"dvÄģreá¹ĩa":6565,"pramÄģá¹ĩaá¹ĥ":6566,"Ġviá¹£á¹ĩur":6567,"ĠjÃ±eyaá¹ĥ":6568,"ĠprÄģmÄģá¹ĩya":6569,"á¹Ńá¹ŃÄģ":6570,"yetya":6571,"Ġsid":6572,"Ġrudhi":6573,"ĠmatÄģ":6574,"ĠpÄģrva":6575,"á¹£itaá¹ĥ":6576,"Ġmanuá¹£":6577,"viparÄ«":6578,"Ġsuta":6579,"ĠmÄģra":6580,"Ġdine":6581,"steá¹£Äģá¹ĥ":6582,"Ġroca":6583,"Ġlaká¹£yate":6584,"Ġsvena":6585,"Ġpariá¹ĩa":6586,"krÄģntÄģ":6587,"ĠviditvÄģ":6588,"saá¹ĥsÄģra":6589,"Ġcatura":6590,"ĠsthÅ«la":6591,"Ġasama":6592,"danya":6593,"ká¹£aá¹ĩam":6594,"dharmaá¹ĥ":6595,"ĠkalpanÄģ":6596,"mÄģtÄģ":6597,"mÄģla":6598,"ÅĽÄģstrÄģ":6599,"ĠmanÄ«":6600,"prÄģya":6601,"Ġruk":6602,"Ġputraá¸¥":6603,"bhilÄģ":6604,"locana":6605,"ĠtÄģvan":6606,"kará¹ĩya":6607,"ĠÅĽÄģstrÄģ":6608,"Ġsaá¹ĥbandha":6609,"Ġpunaru":6610,"kÄģrÄģt":6611,"pula":6612,"peá¹ĩa":6613,"putraá¸¥":6614,"Ġaci":6615,"Ġityu":6616,"diÅĽa":6617,"ĠmukhyÄģ":6618,"ĠsÄģká¹£Äģd":6619,"á¹ĥÅĽu":6620,"nirma":6621,"pradhÄģ":6622,"bhirÄģ":6623,"ĠnÄģrada":6624,"ĠvilÄģ":6625,"Ġgato":6626,"svara":6627,"sambhavÄģ":6628,"Ġpá¹Ľcchati":6629,"ĠviÅĽeá¹£o":6630,"ĠityÄģdau":6631,"vita":6632,"trasya":6633,"Ġpuraá¹ĥ":6634,"kriya":6635,"prayojana":6636,"ryÄģá¸¥":6637,"Ã±co":6638,"svaá¹ĥ":6639,"ĠyathÄģvidhi":6640,"Ġvaco":6641,"Ġetaá¹ĥ":6642,"jite":6643,"dÄģtma":6644,"lÄģbhÄģ":6645,"Ġhai":6646,"mukhyÄģ":6647,"Ġsaá¹ĥvidyate":6648,"bhrÅ«":6649,"purÄ«":6650,"ĠmudrÄģ":6651,"pater":6652,"katayÄģ":6653,"prava":6654,"stato":6655,"khala":6656,"ĠdvitÄ«yaá¹ĥ":6657,"apÄģ":6658,"lye":6659,"maru":6660,"jÄģnÄ«":6661,"suhá¹Ľ":6662,"Ġkeci":6663,"pauru":6664,"ĠrÅ«pe":6665,"ĠpratÄģpa":6666,"ĠyasmÄģd":6667,"saá¹ĥbhava":6668,"Ġtvad":6669,"tÄ«m":6670,"Ġtila":6671,"siddhaá¹ĥ":6672,"sÄģdhanaá¹ĥ":6673,"ĠastÄ«ti":6674,"yaÅĽca":6675,"ĠsamÄģcaret":6676,"ĠdiÅĽo":6677,"ĠapÄ«ti":6678,"Ġtá¹Ľp":6679,"Ġyaju":6680,"svarÅ«paá¹ĥ":6681,"Ġká¹£iti":6682,"vuá¸¥":6683,"á¹ĩÄģpi":6684,"ĠkÄģlaá¸¥":6685,"damba":6686,"vika":6687,"prakÄģ":6688,"Ġniveda":6689,"ĠtattvÄģ":6690,"ĠsamÄģhitaá¸¥":6691,"nÄģÅĽanam":6692,"eko":6693,"saá¹ĥbandhÄģ":6694,"Ġsaá¹ĥta":6695,"ĠtÄģpa":6696,"purÄģá¹ĩa":6697,"''":6698,"ĠvicÄģra":6699,"Ġannaá¹ĥ":6700,"krami":6701,"ĠnÄģnyatra":6702,"agne":6703,"sty":6704,"Ġvanaá¹ĥ":6705,"Ġbrahmaá¹ĩa":6706,"vaicit":6707,"Ġdravyaá¹ĥ":6708,"saá¹ĥská¹Ľta":6709,"ĠviÅĽeá¹£eá¹ĩa":6710,"ĠvÄģdi":6711,"Ġsaá¹ĥbhava":6712,"ÅĽli":6713,"prapaÃ±ca":6714,"bhavÄģn":6715,"Ġjale":6716,"raá¹ĩÄģya":6717,"Ġsamupa":6718,"Ġvaká¹£yati":6719,"gÄģya":6720,"Ġá¹£aá¹ĩ":6721,"Ġstana":6722,"Ġprada":6723,"dá¹Ľk":6724,"ttvi":6725,"Ġyacca":6726,"Ġsaá¹ĥghÄģ":6727,"jÅ«":6728,"Ġasat":6729,"ĠprahÄģ":6730,"á¹£yÄģmaá¸¥":6731,"Ġmanyante":6732,"ĠsatvÄģ":6733,"Ġprabhá¹Ľ":6734,"puá¹£pÄģ":6735,"Ġvyatire":6736,"ĠÅĽanaiá¸¥":6737,"Ġsiddhaá¹ĥ":6738,"nmahÄģ":6739,"yogÄ«":6740,"vidham":6741,"saá¹ĥspar":6742,"ká¹Ľá¹£ya":6743,"vyaá¹ħg":6744,"Ġtarpa":6745,"pÄģrÅĽva":6746,"ĠÅĽaku":6747,"taka":6748,"rÄģha":6749,"ĠmaÃ±ju":6750,"Ġká¹Ľto":6751,"tasmÄģda":6752,"Ġyaduta":6753,"Ġparityajya":6754,"llÄ«":6755,"Ġcaret":6756,"pÅ«rá¹ĩÄģ":6757,"paá¹ħka":6758,"dayati":6759,"dÄģma":6760,"sve":6761,"tacca":6762,"yÄģvat":6763,"Ġviharati":6764,"virodhaá¸¥":6765,"Ġvaktum":6766,"á¸įu":6767,"rÅ«n":6768,"dhikaraá¹ĩam":6769,"uku":6770,"ĠprÄģá¹ĩo":6771,"jÃ±aá¹ĥ":6772,"mÄģru":6773,"syÄģt":6774,"tmajaá¸¥":6775,"Ġkartavya":6776,"rthÄģni":6777,"Ġsvargaá¹ĥ":6778,"mahÄ«":6779,"ÅĽubhÄģ":6780,"ÅĽvi":6781,"balo":6782,"Ġtade":6783,"stv":6784,"Ġdharmeá¹ĩa":6785,"lle":6786,"vyena":6787,"vatÄģá¹ĥ":6788,"citaá¸¥":6789,"ÅĽÄģnti":6790,"lÄģbha":6791,"ĠtÄģvada":6792,"nyÄģni":6793,"lyÄģá¹ĥ":6794,"vibhÅ«á¹£i":6795,"tÄģÅĽa":6796,"saá¹ĥsÄģ":6797,"bÄ«jÄģ":6798,"vahni":6799,"ĠsvarÅ«paá¹ĥ":6800,"vayo":6801,"samo":6802,"ĠdvÄ«":6803,"yantu":6804,"bhagavan":6805,"daÅĽyÄģá¹ĥ":6806,"kalyÄģ":6807,"ĠsahasraÅĽaá¸¥":6808,"Ġvastra":6809,"ĠtathÄģgatÄģ":6810,"ÅĽÄ«ta":6811,"dharmaá¸¥":6812,"saá¹ĥsparÅĽapratyayavedanÄģ":6813,"ÅĽaá¹ĥsÄģ":6814,"cai":6815,"yeyaá¹ĥ":6816,"ĠjagÄģ":6817,"vyÄģsa":6818,"varaá¹ĩa":6819,"Ġmataá¸¥":6820,"ĠyajÃ±e":6821,"dhÄģnya":6822,"vidhya":6823,"tera":6824,"deÅĽena":6825,"ĠjÄģtaá¸¥":6826,"sÅ«rya":6827,"Ġkli":6828,"tyapi":6829,"saá¹ĥbhavÄģt":6830,"muktaá¸¥":6831,"vy":6832,"manda":6833,"kÄģrtha":6834,"á¹£á¹Ńasya":6835,"koá¹Ń":6836,"ĠjÄģyante":6837,"Ġmuhuá¸¥":6838,"Ġdharmasya":6839,"ĠsudhÄģ":6840,"nakha":6841,"tyantÄģ":6842,"Ġdatta":6843,"dá¹Ľg":6844,"ĠcitrÄģ":6845,"tasminn":6846,"Ġadvai":6847,"Ġvaá¹ĩi":6848,"ĠetÄģni":6849,"ĠÅĽaraiá¸¥":6850,"ĠkÄģmaá¹ĥ":6851,"Ġkecid":6852,"Ġnimitte":6853,"tamaá¹ĥ":6854,"Ġpratisaá¹ĥ":6855,"graham":6856,"viÅĽeá¹£ya":6857,"ĠsiddhÄģnta":6858,"guá¹ĩaá¸¥":6859,"padasya":6860,"ukti":6861,"ĠbaddhvÄģ":6862,"mantrya":6863,"viá¹£ayaá¸¥":6864,"catvÄģri":6865,"sur":6866,"yinÄ«":6867,"Ġsp":6868,"Ġnirvi":6869,"tasyÄģpi":6870,"ĠÅĽabdasya":6871,"tÅ«ha":6872,"rataá¸¥":6873,"Ġacyu":6874,"lola":6875,"á¹ĩÄ«m":6876,"thÄ«":6877,"nantara":6878,"pravarta":6879,"á¹£á¹ŃhitÄģ":6880,"ĠsattÄģ":6881,"Ġkurvan":6882,"kuÅĽala":6883,"Ġantara":6884,"ttikÄģ":6885,"Ġsamayena":6886,"ĠsarvÄģkÄģra":6887,"Ġcaká¹£uá¹£Äģ":6888,"vatÄģra":6889,"katham":6890,"ĠvihÄģya":6891,"ĠparÄģá¹ĥ":6892,"ĠÅĽá¹Ľá¹ħgÄģ":6893,"Ġbahavo":6894,"yanam":6895,"á¹Ńá¹Ńi":6896,"dhyaá¸¥":6897,"nÄģmnÄģ":6898,"viá¹£ayo":6899,"pÄģramitÄģyÄģá¹ĥ":6900,"ĠÅĽaá¹ħkate":6901,"yasÄ«":6902,"Ġvika":6903,"praveÅĽa":6904,"rÅ«á¸į":6905,"vivikta":6906,"Ġaga":6907,"sminn":6908,"ĠuktÄģ":6909,"á¹ĩá¹ŃÄģ":6910,"bhyÄģma":6911,"saá¹ĥkhye":6912,"ká¹Ľá¹£":6913,"ĠÅĽrutam":6914,"Ġanartha":6915,"Ġmukhe":6916,"dan":6917,"daye":6918,"Ġyaká¹£a":6919,"vá¹Ľto":6920,"Ġbalam":6921,"taru":6922,"vido":6923,"mÄģnÄģá¹ĥ":6924,"syÄģm":6925,"Ġá¹£aá¹£á¹ŃhÄ«":6926,"prÄ«ti":6927,"Ġcittam":6928,"ĠmahÄģbÄģho":6929,"Ġpraha":6930,"miÅĽ":6931,"Ġkutra":6932,"ĠsenÄģ":6933,"ttu":6934,"ĠÅĽikha":6935,"Ãª":6936,"madhi":6937,"Ġprayojana":6938,"ĠicchÄģmi":6939,"cetasaá¸¥":6940,"iÅĽvarya":6941,"rabhya":6942,"kali":6943,"nive":6944,"trayÄģ":6945,"Ġpratiá¹£i":6946,"prayoge":6947,"ĠpÄģpÄģ":6948,"dÄ«nÄģ":6949,"ĠÅĽiá¹£ya":6950,"Ġgá¹Ľhaá¹ĥ":6951,"nandana":6952,"Ġniro":6953,"ĠrÄģmaá¹ĥ":6954,"masti":6955,"á¹£á¹Ńya":6956,"Ġsaá¹ĥhitÄģ":6957,"ĠcÄģbhi":6958,"pratijÃ±Äģ":6959,"ikasya":6960,"ĠkadÄģcid":6961,"Ġghoraá¹ĥ":6962,"Ġsadyaá¸¥":6963,"napi":6964,"Ġsutaá¸¥":6965,"dhÄ«nÄģá¹ĥ":6966,"navi":6967,"ĠyÄģvan":6968,"ĠdharmÄģá¸¥":6969,"ĠbÄ«jÄģ":6970,"raÅĽmi":6971,"ĠsanÄģta":6972,"ĠvidhÄģya":6973,"ĠnaivÄģ":6974,"ĠyogÄģ":6975,"hiá¹ĥsÄģ":6976,"varja":6977,"ĠkulÄģ":6978,"bahirdhÄģ":6979,"cci":6980,"á¹ĩyena":6981,"ĠsavitÄģ":6982,"Ġbhiá¹£a":6983,"dyam":6984,"ĠbhÄ«á¹£":6985,"ĠraÅĽmi":6986,"ĠsvÄģtma":6987,"sÅ«ká¹£ma":6988,"iru":6989,"yÄģvad":6990,"dityÄģ":6991,"Ġsamyaksaá¹ĥbodhau":6992,"tyatra":6993,"ntaÅĽ":6994,"rdham":6995,"ĠvÄ«ryaá¹ĥ":6996,"istu":6997,"toá¹£a":6998,"tpÄģdÄģ":6999,"vÄģraá¹ĥ":7000,"dhy":7001,"ĠpunarÄģ":7002,"nopasaá¹ĥ":7003,"Ġsvará¹ĩa":7004,"Ġprame":7005,"vá¹Ľtam":7006,"ĠsvabhÄģvaá¸¥":7007,"ĠbhÄģrga":7008,"pÄģyakauÅĽa":7009,"Ġvistareá¹ĩa":7010,"yaiá¸¥":7011,"maye":7012,"gatiá¹ĥ":7013,"kÄģá¹ĩÄģá¹ĥ":7014,"Ġvicitra":7015,"ĠnivÄģ":7016,"gniho":7017,"bhÄ«á¹£a":7018,"ĠpÄ«ta":7019,"ÅĽud":7020,"bhÄģgaá¹ĥ":7021,"Ġsvalaká¹£aá¹ĩa":7022,"Ġbhá¹ĽÅĽam":7023,"nÄģdya":7024,"ÅĽakya":7025,"Ġyam":7026,"yudha":7027,"Ġdaha":7028,"Ġkariá¹£yati":7029,"krÄ«á¸įÄģ":7030,"Ġhareá¸¥":7031,"bhaktÄģ":7032,"ĠvÄģja":7033,"Ġsarvaloka":7034,"ĠhutvÄģ":7035,"ĠpÄģp":7036,"samasta":7037,"kÄģli":7038,"Ġbhra":7039,"ĠprÄģptÄģ":7040,"Ġjyotir":7041,"janmÄģ":7042,"ĠdevyÄģ":7043,"gamat":7044,"Ġsamyaksaá¹ĥbuddha":7045,"ĠjÄģgra":7046,"Ġsá¹Ľá¹£á¹Ńi":7047,"á¹£iá¸¥":7048,"ĠnarmadÄģ":7049,"Ġpate":7050,"Ġkanaka":7051,"ÅĽuka":7052,"meveti":7053,"ĠitÄ«":7054,"ÅĽÅ«la":7055,"gambhÄ«":7056,"ĠdvitÄ«yaá¸¥":7057,"Ġvipre":7058,"Ġun":7059,"mÄģrge":7060,"khyaá¸¥":7061,"sÄģdhanam":7062,"ĠprajÃ±ÄģpÄģramitÄģá¹ĥ":7063,"Ġpraá¹ĩamya":7064,"Ġvyakti":7065,"sÄ«d":7066,"cetana":7067,"sarvatra":7068,"cÄģriá¹ĩaá¸¥":7069,"karot":7070,"dÄģnam":7071,"ĠgandhÄģ":7072,"yantaá¹ĥ":7073,"ĠprÄģyaÅĽ":7074,"ĠcÄģti":7075,"Ġpitaraá¹ĥ":7076,"Ġdviá¹£a":7077,"Ġsarveá¹£Äģm":7078,"stham":7079,"Ġghana":7080,"Ġcaraá¹ĩa":7081,"kÄģá¹ħká¹£a":7082,"Ġave":7083,"ĠÄģdau":7084,"jÄģpa":7085,"á¹Ńaá¹ħka":7086,"niru":7087,"ĠghÄģ":7088,"tado":7089,"Ġkaruá¹ĩÄģ":7090,"ĠsÄģrtha":7091,"ĠrÄģmaá¸¥":7092,"ĠsahasrÄģá¹ĩi":7093,"uka":7094,"Ġkapo":7095,"bhidhÄ«yate":7096,"prÄģg":7097,"yaká¹£a":7098,"ĠjvÄģ":7099,"kima":7100,"Ġpratyaká¹£aá¹ĥ":7101,"yamapi":7102,"nana":7103,"sabhÄģ":7104,"nidrÄģ":7105,"yeá¹£Äģá¹ĥ":7106,"Ġvetti":7107,"ĠprajÃ±Äģyate":7108,"yady":7109,"ĠbrÅ«maá¸¥":7110,"ĠÅĽivaá¸¥":7111,"ĠtathaivÄģ":7112,"Ġsaddharma":7113,"tumi":7114,"Ġbhuá¹ħkte":7115,"ĠjÄ«vasya":7116,"ĠvÄģyur":7117,"ÅĽuá¸¥":7118,"Ġjalaá¹ĥ":7119,"Ġá¹Ľte":7120,"ĠÄģtmanÄģ":7121,"ĠvÄģcaá¹ĥ":7122,"Ġpratiá¹£edhaá¸¥":7123,"iko":7124,"yase":7125,"Ġbahiá¸¥":7126,"tumarhati":7127,"dina":7128,"ped":7129,"ĠÅĽruta":7130,"ddhayÄģ":7131,"ĠsÅ«traá¹ĥ":7132,"nÄģny":7133,"mbÄģ":7134,"rdra":7135,"red":7136,"dumba":7137,"svÄģmi":7138,"ĠrevÄģ":7139,"rayÄģ":7140,"Ġeá¹£o":7141,"sudhÄģ":7142,"Ġká¹£ipet":7143,"Ġante":7144,"nÄ«yo":7145,"Ġbhá¹Ľgu":7146,"Ġnau":7147,"yujyate":7148,"ĠbhÄģska":7149,"Ġtadapi":7150,"dÄģharaá¹ĩa":7151,"á¹£ve":7152,"mani":7153,"rÄģmi":7154,"nopÄģ":7155,"kumÄģra":7156,"Ġviá¹£á¹ĩuá¸¥":7157,"utta":7158,"ttathÄģ":7159,"lamb":7160,"á¹ħkha":7161,"jÃ±Äģnena":7162,"pure":7163,"krÄģnti":7164,"dÄģn":7165,"mÄģtrasya":7166,"mantrayate":7167,"á¹£ir":7168,"sanam":7169,"teyaá¹ĥ":7170,"dá¹ĽÅĽyate":7171,"jalÄģ":7172,"dharaá¹ĥ":7173,"Ġpacet":7174,"hetur":7175,"ĠbhartÄģ":7176,"ĠyÅ«yaá¹ĥ":7177,"aá¹ħga":7178,"mÄģká¹£i":7179,"Ġmanta":7180,"sÄģd":7181,"idam":7182,"yasaá¹ĥ":7183,"saÃ±jÃ±Äģ":7184,"Ġbata":7185,"vacanÄģ":7186,"an":7187,"Ġaá¹ħgÄģ":7188,"daha":7189,"peká¹£ya":7190,"Ġguá¹ĩaá¸¥":7191,"karmÄģá¹ĩi":7192,"á¹£yam":7193,"pravá¹Ľt":7194,"Ġdadha":7195,"dharmeá¹ĩa":7196,"ĠdÅ«á¹£ayati":7197,"jyante":7198,"niá¹£pa":7199,"Ġvinir":7200,"Ġnirodha":7201,"samÄģpatti":7202,"ĠtatrÄģha":7203,"ĠpanthÄģ":7204,"prasÅ«":7205,"tÄ«rthe":7206,"Ġsarvair":7207,"yatanaá¹ĥ":7208,"bhaviá¹£yati":7209,"daÅĽo":7210,"ĠjÃ±Äģnasya":7211,"Ġantare":7212,"Ġyojayet":7213,"pÄģÅĽa":7214,"ĠvyÄģgh":7215,"rvai":7216,"rave":7217,"navÄģ":7218,"rÄģá¹£á¹Ń":7219,"jau":7220,"veá¹ĩi":7221,"jihvÄģ":7222,"ÅĽatatamo":7223,"Ġniá¹£i":7224,"Ġniá¹£aá¹ĩ":7225,"munÄģ":7226,"ĠprÄģpa":7227,"peká¹£i":7228,"Ġsambhava":7229,"kartavya":7230,"ĠviÅĽvaá¹ĥ":7231,"Ġaprame":7232,"jyata":7233,"tadu":7234,"á¹Ńho":7235,"praá¹ĩÄģ":7236,"trÄģá¹ĩÄģá¹ĥ":7237,"ĠprÄģga":7238,"ĠdevatÄģá¸¥":7239,"Ġvá¹ĽthÄģ":7240,"bÄģndha":7241,"laá¹ħkÄģrÄģ":7242,"ká¹£va":7243,"ĠjÄ«van":7244,"Ġgopa":7245,"tavi":7246,"paá¹ħ":7247,"á¹£asya":7248,"vá¹Ľd":7249,"ĠmahÄģtmanÄģ":7250,"Ġbhuva":7251,"ĠdvitÄ«ye":7252,"yayau":7253,"vabhÄģ":7254,"kava":7255,"Ġcatuá¸¥":7256,"Ġtadvad":7257,"spanda":7258,"ĠÃ":7259,"ĠbÄ«jaá¹ĥ":7260,"vaÅĽÄģt":7261,"loma":7262,"ÅĽÄģd":7263,"vyÄģpi":7264,"Ġdoá¹£o":7265,"siddhaye":7266,"rdi":7267,"irvi":7268,"rambhÄģ":7269,"ÅĽuci":7270,"vará¹ĩanaá¹ĥ":7271,"hÄģd":7272,"Ġadhva":7273,"ĠnÄģgÄģ":7274,"putraá¹ĥ":7275,"á¹£ito":7276,"ĠabhidhÄ«yate":7277,"teva":7278,"ĠdvijÄģ":7279,"Ġvá¹Ľká¹£Äģ":7280,"puá¹ĥga":7281,"devi":7282,"sthitiá¸¥":7283,"rÄģjaá¹ĥ":7284,"yeá¹ĩÄģ":7285,"Ġdhanur":7286,"Ġpibet":7287,"Ġbhaira":7288,"ĠpratipÄģdi":7289,"Ġyukto":7290,"Ġká¹£iptvÄģ":7291,"ĠÄģgne":7292,"sÄģdhyÄģ":7293,"darÅĽanena":7294,"Ġbhavitavyam":7295,"stÄ«r":7296,"rito":7297,"Ġprastu":7298,"pÄģva":7299,"vyÄģpaka":7300,"ĠhÄ«ti":7301,"bhÄģryÄģ":7302,"ĠjajÃ±e":7303,"Ġsmara":7304,"ĠadhunÄģ":7305,"á¹£at":7306,"Ġlabha":7307,"mÄģdÄģya":7308,"ĠviÅĽrÄģ":7309,"pradÄ«":7310,"yinaá¸¥":7311,"ĠpiÅĽÄģ":7312,"samá¹Ľ":7313,"ÅĽuddhaá¹ĥ":7314,"ĠÅĽabde":7315,"Ġsamucca":7316,"Ġapagata":7317,"Ġtamaá¸¥":7318,"Ġkatama":7319,"Ġagnim":7320,"ĠdevÄ«á¹ĥ":7321,"sÄģmarthya":7322,"ruá¹ĥ":7323,"roda":7324,"Ġkin":7325,"Ġbarhi":7326,"nupapatti":7327,"cchÄģyÄģ":7328,"tyuktaá¹ĥ":7329,"Ġripu":7330,"ÅĽuddhÄģ":7331,"mÄģdha":7332,"Ġnan":7333,"sitaá¹ĥ":7334,"á¹ĩitaá¹ĥ":7335,"ĠtÄģma":7336,"á¹ĩÄ«yam":7337,"ĠparamÄģtma":7338,"bhÄģvya":7339,"dhyata":7340,"ceá¹£á¹Ńi":7341,"ÅĽÅ«nyatayÄģ":7342,"hra":7343,"ntarama":7344,"dÄ«ti":7345,"mÄģnasaá¸¥":7346,"nupalabdhi":7347,"ká¹£aá¹ĩe":7348,"doá¹£aá¸¥":7349,"ĠtasmÄģda":7350,"jagmu":7351,"ĠmÄģsi":7352,"sÅ«danaá¸¥":7353,"Ġnaká¹£a":7354,"Ġbhadraá¹ĥ":7355,"Ġpratipat":7356,"nandÄģ":7357,"tpÄģdaá¸¥":7358,"Ġganta":7359,"tmakaá¸¥":7360,"Ġsaá¹ĥská¹Ľta":7361,"daká¹£iá¹ĩÄģ":7362,"Ġala":7363,"mÄģli":7364,"sutÄģ":7365,"yajÃ±Äģ":7366,"saiva":7367,"Ġvaram":7368,"Ġghá¹Ľta":7369,"Ġskandha":7370,"ÅĽyam":7371,"ÅĽas":7372,"kÄģyÄģ":7373,"ukha":7374,"jÃ±ena":7375,"Ġnetra":7376,"kÄģsa":7377,"Ġmala":7378,"rÄ«ci":7379,"ĠnÄģstÄ«":7380,"rasena":7381,"ĠdharmÄģá¹ĩÄģá¹ĥ":7382,"krÅ«":7383,"Ġtanna":7384,"yÄģtrÄģ":7385,"nujÃ±Äģ":7386,"syÄģva":7387,"kaá¹Ńu":7388,"ÅĽamya":7389,"Ġprapa":7390,"nÄ«ta":7391,"Ġkathama":7392,"yasmÄģ":7393,"ntÄ«ti":7394,"ucyate":7395,"Ġká¹ĽpÄģ":7396,"á¹£iá¹ĩaá¸¥":7397,"Ġvá¹ĽddhÄģ":7398,"tasyaiva":7399,"Ġpá¹Ľccha":7400,"á¹£á¹Ńhita":7401,"Ġyuddha":7402,"dhayaá¸¥":7403,"deho":7404,"ÅĽÄģla":7405,"Ġguá¹ĩÄģn":7406,"pathe":7407,"bodhÄģ":7408,"pyupa":7409,"mataá¹ĥ":7410,"kapo":7411,"Ġnaya":7412,"Ġdaá¹ĥ":7413,"ÅĽÅ«nyatÄģyÄģá¹ĥ":7414,"Ġahani":7415,"teá¹£Äģm":7416,"tyarthaá¹ĥ":7417,"nyat":7418,"lod":7419,"mÄ«la":7420,"Ġhetva":7421,"ĠdarÅĽanaá¹ĥ":7422,"Ġlikhi":7423,"prÄģptÄģ":7424,"Ġtá¹ĽtÄ«ya":7425,"bhaviá¹£ya":7426,"vaha":7427,"ÅĽinÄ«":7428,"ÅĽravaá¹ĩa":7429,"cakraá¹ĥ":7430,"petaá¹ĥ":7431,"kÄģraka":7432,"pratiá¹£edhaá¸¥":7433,"Ġhaá¹ĥsa":7434,"sp":7435,"mukhena":7436,"ĠsnÄģnaá¹ĥ":7437,"Ġveditavyam":7438,"vaiÅĽaá¹ĥpÄģyana":7439,"Ġviprati":7440,"prakÄģrÄģ":7441,"ĠgÅ«":7442,"Ġ@":7443,"Ġkavi":7444,"á¸įya":7445,"ĠgrÄ«":7446,"á¹ģ":7447,"nivarta":7448,"dhyante":7449,"ĠvaÅĽÄ«":7450,"tÅ«nÄģá¹ĥ":7451,"ĠbrÅ«yÄģt":7452,"ktas":7453,"gamÄģt":7454,"ÅĽÄģstre":7455,"puá¹Ńe":7456,"ĠmahÄģbhÄģga":7457,"Ġphaá¹Ń":7458,"padaá¸¥":7459,"dÄģv":7460,"ĠsarvajÃ±atÄģ":7461,"samaya":7462,"khilaá¹ĥ":7463,"rá¹£ayaá¸¥":7464,"Ġliá¹ħgÄģ":7465,"jvara":7466,"nija":7467,"puraá¸¥":7468,"Ġravi":7469,"ĠÅĽÄ«r":7470,"bhai":7471,"ÅĽÅ«nyatÄģá¹ĥ":7472,"mitraá¹ĥ":7473,"ĠcÄģva":7474,"Ġká¹Ľá¹£á¹ĩo":7475,"yukti":7476,"dvÄģra":7477,"ĠvÄ«ryavÄģn":7478,"cane":7479,"traá¸¥":7480,"ĠjÃ±eyam":7481,"jagat":7482,"sÄģká¹£i":7483,"Ġbhavato":7484,"tarau":7485,"ÅĽritÄģá¸¥":7486,"á¹ħguá¹£á¹Ńha":7487,"ndriyaá¹ĥ":7488,"ĠasyÄģá¸¥":7489,"rajaá¸¥":7490,"dhÄģraá¹ĩaá¹ĥ":7491,"pusta":7492,"ĠjalÄģ":7493,"Ġpariharati":7494,"dharm":7495,"vayaá¹ĥ":7496,"varte":7497,"kramÄģt":7498,"vrataá¹ĥ":7499,"nadÄ«vÄģ":7500,"á¹£yante":7501,"cati":7502,"Ġspha":7503,"Ġtubhyaá¹ĥ":7504,"samartha":7505,"Ġukto":7506,"ĠmÅ«rdhni":7507,"hau":7508,"vÄģso":7509,"á¹£itam":7510,"ghaá¹ŃÄģ":7511,"Ġbhiká¹£Å«":7512,"ndram":7513,"Ġsvataá¸¥":7514,"Ġvyaá¹ħgya":7515,"viÅĽeá¹£eá¹ĩa":7516,"Ġutpadyate":7517,"ndho":7518,"tapo":7519,"catuá¸¥":7520,"ĠpratÄ«ti":7521,"revÄģ":7522,"Ġche":7523,"ccho":7524,"vacane":7525,"apra":7526,"tirya":7527,"bhÄģá¹£ya":7528,"rÄģh":7529,"Ġanyasya":7530,"grahaá¹ĩÄģ":7531,"ĠapaÅĽya":7532,"ĠkÅ«á¹Ńa":7533,"ista":7534,"tayor":7535,"vadhÅ«":7536,"danti":7537,"ĠtataÅĽca":7538,"Ġjapet":7539,"ĠyathÄģkramam":7540,"dá¹Ľá¹£á¹Ńe":7541,"ĠstÅ«":7542,"á¹ĩÄ«ti":7543,"ĠpaÃ±cama":7544,"rÄģjaá¸¥":7545,"ĠpraviÅĽa":7546,"Ġparu":7547,"noda":7548,"Ġsarvasattva":7549,"Ġpuruá¹£e":7550,"ĠvivÄģ":7551,"mivÄģ":7552,"duryodha":7553,"vidhinÄģ":7554,"daká¹£iá¹ĩa":7555,"dÄģsÄ«":7556,"saá¹ĥyogÄģ":7557,"Ġmatiá¸¥":7558,"kasmÄģt":7559,"ÅĽrayam":7560,"sÅ«ká¹£":7561,"rddhi":7562,"ĠyajÃ±o":7563,"nayana":7564,"ĠasmÄģn":7565,"kÄģnu":7566,"yus":7567,"Ġrasaá¹ĥ":7568,"jitÄģá¸¥":7569,"ghaá¹Ńi":7570,"Ġyuddhaá¹ĥ":7571,"kÄ«rta":7572,"Ġbhagavann":7573,"irÄģ":7574,"kyam":7575,"vaiva":7576,"ĠparipÄģ":7577,"ĠanuttarÄģá¹ĥ":7578,"Ġsidhya":7579,"ĠdhyÄģtvÄģ":7580,"ĠchÄģyÄģ":7581,"bhedaá¹ĥ":7582,"Ġnirá¹ĩa":7583,"vyÄģpa":7584,"ĠanÅ«":7585,"ÅĽcitta":7586,"Ġagniá¹ĥ":7587,"Ġatas":7588,"vitÄģá¸¥":7589,"Ġbhadanta":7590,"ĠprÄģá¹ĩÄģn":7591,"raá¹ĩÄģni":7592,"grÄģhi":7593,"puá¹ĥsa":7594,"ĠtÄģÃ±":7595,"ÅĽiá¹£ya":7596,"ramahÄģ":7597,"ĠtasyÄģpi":7598,"Ġká¹£Ä«ra":7599,"ká¹£arÄģ":7600,"ĠnÄģnyathÄģ":7601,"not":7602,"ÅĽcatur":7603,"yamÄģá¹ĩÄģ":7604,"dvija":7605,"saá¹ĥyutam":7606,"dhÄģne":7607,"nyÄģyena":7608,"Ġdiká¹£u":7609,"vartata":7610,"manas":7611,"hÄģrÄ«":7612,"tÄģvat":7613,"Ġpayaá¸¥":7614,"Ġbhau":7615,"dhÄģtuá¸¥":7616,"muhÅ«r":7617,"thiá¸¥":7618,"ÅĽruta":7619,"ĠabhÅ«d":7620,"agnir":7621,"Ġevama":7622,"yamya":7623,"tathÄģca":7624,"Ġtayo":7625,"Ġmanma":7626,"ká¹£araá¹ĥ":7627,"Ġsthiti":7628,"ĠparÄģmá¹Ľ":7629,"peká¹£ate":7630,"ĠvinÄģÅĽa":7631,"rabdha":7632,"gaja":7633,"bhÄģá¹£Äģ":7634,"bale":7635,"ĠmÄģá¹ĥsa":7636,"yaja":7637,"evama":7638,"kalpya":7639,"ĠabravÄ«d":7640,"nityÄģ":7641,"ntato":7642,"Ġsvatantra":7643,"prÄģpto":7644,"kteá¸¥":7645,"skara":7646,"tadyathÄģ":7647,"ĠapramÄģ":7648,"niro":7649,"Ġkamala":7650,"netyarthaá¸¥":7651,"ĠjÄģtaá¹ĥ":7652,"ĠjÃ±Äģne":7653,"ĠkulaputrÄģ":7654,"Ġahar":7655,"ĠvarÄģnane":7656,"ĠnyÅ«":7657,"ĠmadhyÄģ":7658,"ĠÅĽiká¹£Äģ":7659,"divÄģ":7660,"meve":7661,"Ġraká¹£Äģ":7662,"tamapi":7663,"ĠdvÄģra":7664,"ĠdeÅĽayati":7665,"pitÄģá¸¥":7666,"bhÄģti":7667,"Ġityuk":7668,"ĠdharmÄģtmÄģ":7669,"kramo":7670,"rÄģs":7671,"Ġitare":7672,"dvÄģdaÅĽa":7673,"viÅĽeá¹£Äģt":7674,"ĠpÄģrthiva":7675,"Ġsnigdha":7676,"á¹ĩyaá¸¥":7677,"ttad":7678,"á¹£Ä«á¹ĩÄģá¹ĥ":7679,"krÄ«á¸įa":7680,"pÄģá¹Ńa":7681,"ĠsugrÄ«":7682,"vá¹ĽddhÄģ":7683,"Ġká¹Ľti":7684,"vratÄģ":7685,"ĠkadÄģci":7686,"Ġpratiá¹£á¹ŃhÄģpa":7687,"ĠaÅĽeá¹£a":7688,"ĠvÄģva":7689,"Ġmumu":7690,"Ġbodhisattvaá¸¥":7691,"cceti":7692,"tade":7693,"laká¹£ma":7694,"bhipre":7695,"Ġsaá¹ĥprati":7696,"vá¹Ľtaá¹ĥ":7697,"ĠjÄ«vo":7698,"Ġaca":7699,"syÄģpya":7700,"Ġsusaá¹ĥ":7701,"ĠÅĽabdÄģrtha":7702,"rabha":7703,"nÄģhaá¹ĥ":7704,"Ã±jaliá¸¥":7705,"Ġká¹£amÄģ":7706,"ĠrÄģká¹£asa":7707,"takÄģ":7708,"ĠsarvapÄģpa":7709,"Ġjagataá¸¥":7710,"ĠprajÄģnÄģti":7711,"prÄģptaá¹ĥ":7712,"Ġal":7713,"vina":7714,"Ġpraá¹ĩÄ«":7715,"ĠpÄģpÄ«":7716,"ratnaá¹ĥ":7717,"ĠgrahÄ«":7718,"tathatÄģ":7719,"ikena":7720,"iveti":7721,"ryathÄģ":7722,"gniá¸¥":7723,"bhyante":7724,"Ġmá¹Ľt":7725,"samudra":7726,"dharmya":7727,"ĠkÄģntÄģ":7728,"prÄģá¹ĩi":7729,"bhÄ«ma":7730,"ĠparamÄģá¹ĩu":7731,"ĠmaheÅĽvaraá¸¥":7732,"Ġprayacchati":7733,"locanaá¸¥":7734,"yÄģvÄģ":7735,"pratam":7736,"Ġná¹Ľá¹ĩÄģm":7737,"mÄģá¹ĩi":7738,"Ġdyau":7739,"ĠkÄģnta":7740,"pariá¹ĩÄģma":7741,"Ġbindu":7742,"Ġpá¹ĽthivÄ«á¹ĥ":7743,"bhinir":7744,"ĠÅĽaÅĽÄģ":7745,"pá¹Ľá¹£á¹Ńha":7746,"Ġyukti":7747,"Ġvrataá¹ĥ":7748,"Ġagniho":7749,"ĠanÄ«":7750,"Ġmedi":7751,"ĠkuÅĽalamÅ«":7752,"asaá¹ĥ":7753,"ĠÅĽuá¹£":7754,"dhÅ«pa":7755,"ĠpraviÅĽya":7756,"kuÅĽalamÅ«":7757,"yy":7758,"vikra":7759,"á¹£á¹ŃÄģnÄģá¹ĥ":7760,"vicitra":7761,"Ġnivartate":7762,"bhÅ«r":7763,"Ġviá¹£ayaá¸¥":7764,"Ġgaura":7765,"ghi":7766,"vila":7767,"cakrÄģ":7768,"nirodha":7769,"bhakta":7770,"metad":7771,"tasmÄģn":7772,"Ġdeyaá¹ĥ":7773,"udra":7774,"Ġvapuá¸¥":7775,"Ġbharatará¹£abha":7776,"ká¹£ye":7777,"citrÄģ":7778,"Ġsamartha":7779,"mÄ«yate":7780,"netrÄģ":7781,"lÄģyÄģá¹ĥ":7782,"ĠyajÃ±aá¹ĥ":7783,"gá¹ĽhÄ«tÄģ":7784,"ĠnarÄģdhipa":7785,"niá¹£edha":7786,"yudhiá¹£á¹Ńhira":7787,"irma":7788,"Ġsaá¹ĥsthÄģ":7789,"soma":7790,"mittÄģ":7791,"prÄģptaá¸¥":7792,"ĠyajÃ±asya":7793,"anyÄģ":7794,"Ġtiá¹£á¹Ńhanti":7795,"Ġmanasikar":7796,"nasaá¹ĥ":7797,"yÄģda":7798,"bhaktyÄģ":7799,"ĠmÅ«á¸įha":7800,"bodhinÄ«":7801,"atro":7802,"rasaá¸¥":7803,"Ġmayo":7804,"ntaro":7805,"stathaiva":7806,"tyeka":7807,"ĠÅĽaktiá¸¥":7808,"Ġkaunte":7809,"ĠÅĽaá¹ĥsa":7810,"tyupasthÄģ":7811,"rÅ«á¹ĩÄģá¹ĥ":7812,"grantha":7813,"Ġvanam":7814,"tasyÄģá¹ĥ":7815,"santÄģ":7816,"ĠsatÄģá¹ĥ":7817,"ĠsakalÄģ":7818,"tyÄģdau":7819,"Ġtyaja":7820,"yatrÄģ":7821,"á¹Ľá¹£i":7822,"ĠpradhÄģnaá¹ĥ":7823,"Ã±cu":7824,"vargaá¸¥":7825,"ndre":7826,"ĠmÄģhÄģt":7827,"Ġkiá¹ĥci":7828,"ntaramÄģha":7829,"Ġsadyo":7830,"ĠvidvÄģ":7831,"mitti":7832,"rvar":7833,"Ġgatir":7834,"ĠsutÄģ":7835,"ÅĽeá¹£e":7836,"bhÄģvÄģdi":7837,"ĠbhavitÄģ":7838,"ĠyojanÄģ":7839,"Ġkartavyaá¸¥":7840,"Ġviá¹£aá¹ĥ":7841,"maá¹ĩá¸įalam":7842,"sÄģmarthyÄģ":7843,"lyena":7844,"Ġval":7845,"dehi":7846,"ttadÄģ":7847,"Ġdari":7848,"sÄģmagrÄ«":7849,"Ġvá¹Ľtta":7850,"ÅĽabdaá¹ĥ":7851,"saá¹ĥskÄģrÄģ":7852,"Ġkulaputro":7853,"Ġgrahaá¹ĩam":7854,"ktu":7855,"caran":7856,"jas":7857,"ĠÅĽÅ«la":7858,"ĠpÅ«jÄģá¹ĥ":7859,"hato":7860,"Ġcyu":7861,"Ġamá¹Ľta":7862,"á¹ĩá¹Ń":7863,"Ġasiddha":7864,"vitaá¹ĥ":7865,"ĠvibhÄģva":7866,"ká¹£yaá¹ĥ":7867,"ká¹£yati":7868,"Ġrathaá¹ĥ":7869,"Ġpitur":7870,"ptau":7871,"ĠÅĽÄģrÄ«":7872,"Ġmá¹ĽgÄģ":7873,"Ġtiá¹£á¹Ńhe":7874,"Ġdvand":7875,"rvÄ«":7876,"ĠsÄģrva":7877,"yamÄģá¹ĩe":7878,"ĠsahakÄģri":7879,"paryantaá¹ĥ":7880,"Ġstriyaá¸¥":7881,"ranu":7882,"hÄģá¹ĥ":7883,"Ġyava":7884,"bhayam":7885,"Ġutpatti":7886,"ÅĽvarÄģá¸¥":7887,"tathÄģhi":7888,"padye":7889,"gatvÄģ":7890,"dÄģnÄ«m":7891,"Ġetasya":7892,"Ġsvam":7893,"vyÄģpya":7894,"ÅĽÅ«nyÄģ":7895,"ĠvÄģsanÄģ":7896,"hitasya":7897,"das":7898,"ĠmahÄģya":7899,"mantaá¸¥":7900,"Ġvacana":7901,"ĠviÅĽuddha":7902,"digdha":7903,"Ġvalla":7904,"ĠniyamÄģ":7905,"thitaá¹ĥ":7906,"cchanda":7907,"ĠÄ«ÅĽvara":7908,"Ġdvya":7909,"Ġvisar":7910,"Ġmahyaá¹ĥ":7911,"ĠkaÅĽya":7912,"dyamÄģna":7913,"Ġdá¹Ľá¹£á¹Ńo":7914,"Ġlabhet":7915,"vabhÄģsa":7916,"krÄģmati":7917,"Ġsaumya":7918,"Ġsru":7919,"á¹ĩá¸įena":7920,"ĠÅĽuddhaá¹ĥ":7921,"Ġsthitiá¸¥":7922,"Ġkariá¹£yÄģmi":7923,"ÅĽaila":7924,"veá¹£á¹Ńa":7925,"jÃ±Ä«":7926,"siddho":7927,"Ġjane":7928,"Ġupade":7929,"sambandhi":7930,"ĠprÄģpto":7931,"viha":7932,"dadÄģ":7933,"miÅĽra":7934,"ĠtÄģmra":7935,"ĠÅĽuciá¸¥":7936,"ĠasÄģv":7937,"niÅĽÄģ":7938,"vÄģsinaá¸¥":7939,"ĠsarasvatÄ«":7940,"tka":7941,"Ġbudhaá¸¥":7942,"brahmaá¹ĩo":7943,"ĠÅĽreá¹£á¹Ńha":7944,"daraá¸¥":7945,"ÅĽaÅĽ":7946,"ĠpravÄģ":7947,"Ġvaá¹ĥÅĽa":7948,"ĠkÄģka":7949,"Ġrau":7950,"paramÄģá¹ĩu":7951,"Ġamba":7952,"Ġkare":7953,"phalo":7954,"Ġvrrsá¹ŃÄ«":7955,"Ġsaro":7956,"Ġdyo":7957,"sutaá¸¥":7958,"kalpayet":7959,"kÄģlo":7960,"Ġyastu":7961,"á¹ħghri":7962,"ĠsahasrÄģ":7963,"Ġviá¹£á¹ĩuá¹ĥ":7964,"hatyÄģ":7965,"rÄģdhya":7966,"mÄģlya":7967,"Ġmaraá¹ĩaá¹ĥ":7968,"Ġvede":7969,"ÅĽraddhÄģ":7970,"ĠpÅ«jayet":7971,"ĠÅĽrÄģddha":7972,"Ġudya":7973,"saá¹ĥbhavaá¸¥":7974,"ĠÅĽÄģntÄģ":7975,"á¹£á¹Ńuá¹ĥ":7976,"dattvÄģ":7977,"Ġsveda":7978,"gatas":7979,"rudrÄģ":7980,"ĠÅĽÄģstre":7981,"gnaá¹ĥ":7982,"Ġdivaá¹ĥ":7983,"Ġpaká¹£Äģ":7984,"ĠsvÄģdhyÄģ":7985,"sukham":7986,"ÅĽÅ«nyatÄģyÄģ":7987,"rÄģgÄģ":7988,"Ã±cid":7989,"Ġheto":7990,"ĠmÅ«rdha":7991,"'m":7992,"vapi":7993,"ĠprÄģtaá¸¥":7994,"ÅĽur":7995,"rÅ«p":7996,"bhÄģvam":7997,"pattra":7998,"Ġmá¹Ľá¹£Äģ":7999,"trÄ«á¹ĥ":8000,"vÄģdinaá¸¥":8001,"Ġsahasraá¹ĥ":8002,"khena":8003,"saá¹ĥsthÄģ":8004,"ĠsthÄģna":8005,"pataye":8006,"ĠpÄģramitÄģ":8007,"ĠpÅ«rvokta":8008,"yasmin":8009,"Ġbhakta":8010,"ĠvÄģru":8011,"dehaá¸¥":8012,"ĠbÄģndha":8013,"bhujÄģ":8014,"dakaá¹ĥ":8015,"ĠyaÅĽaá¸¥":8016,"rthatvÄģt":8017,"viá¹£ayam":8018,"ĠcÅ«":8019,"tyÅ«":8020,"ĠvyÄģpa":8021,"tatrÄģpi":8022,"Ġcandrama":8023,"lÄģna":8024,"Ġdayi":8025,"ĠtÄģbhyÄģá¹ĥ":8026,"Ġghaá¹Ńo":8027,"ĠprajÄģyate":8028,"ĠÅĽÅ«nyatayÄģ":8029,"samanvitam":8030,"ĠtadyathÄģpi":8031,"vÃ¢":8032,"raká¹£Äģ":8033,"same":8034,"bhaja":8035,"ttataá¸¥":8036,"lite":8037,"ĠpÄģtra":8038,"ĠsvabhÄģvo":8039,"ĠvÄ«ká¹£ya":8040,"ĠmÄģnavaá¸¥":8041,"gami":8042,"ĠsamÅ«":8043,"ÅĽaá¹ħkyÄģ":8044,"Ġviá¹£á¹ĩoá¸¥":8045,"avÄģ":8046,"arthÄģ":8047,"ktya":8048,"ÅĽastra":8049,"ĠÅĽvÄģ":8050,"má¹ĽtÄģ":8051,"yukte":8052,"Ġdurma":8053,"pÅ«rvam":8054,"vayavÄģ":8055,"tarpa":8056,"niyata":8057,"ĠÅĽma":8058,"ĠÅĽatam":8059,"balam":8060,"dyaiá¸¥":8061,"ĠsÄ«tÄģ":8062,"ĠkuladuhitÄģ":8063,"ugha":8064,"ĠajÃ±Äģ":8065,"á¹£aá¹ĩaá¹ĥ":8066,"tvÄģya":8067,"ĠÄģyur":8068,"Ġjai":8069,"tasmai":8070,"Ġaná¹Ľ":8071,"tmÄģna":8072,"Ġvivar":8073,"á¹£Äģn":8074,"ÅĽÄģnÄģá¹ĥ":8075,"nteá¹£u":8076,"pÄ«ta":8077,"bhÄ«á¹£ma":8078,"devÄģnÄģá¹ĥ":8079,"ÅĽaktiá¸¥":8080,"Ġprabhá¹Ľti":8081,"ĠvaiÅĽÄģra":8082,"ĠsamÄģsÄģdya":8083,"Ġmuku":8084,"já¹Ľm":8085,"ddhá¹Ľ":8086,"rÄģtre":8087,"Ġkruddha":8088,"ĠvirÄģja":8089,"kulÄ«":8090,"ĠupaparÄ«":8091,"ĠÅĽakyam":8092,"ĠhÅ«á¹ĥ":8093,"á¹£aá¹£á¹Ńi":8094,"Ġmadhyam":8095,"hastÄģ":8096,"svapna":8097,"vistÄģ":8098,"nÄģna":8099,"dÄģtta":8100,"duá¸¥khaá¹ĥ":8101,"Ġbhá¹ĽÅĽaá¹ĥ":8102,"ĠhÄ«daá¹ĥ":8103,"sarvÄģkÄģrajÃ±atÄģ":8104,"hyena":8105,"stvaá¹ĥ":8106,"dalÄ«":8107,"hetoá¸¥":8108,"bhuá¸¥":8109,"Ġtrayaá¸¥":8110,"bhÅ«teá¹£u":8111,"vijÃ±Äģnam":8112,"bá¹Ľhas":8113,"kÄģvya":8114,"Ġvigata":8115,"Ġkana":8116,"met":8117,"ĠyÄģá¹ĥ":8118,"tvÄģá¹ĥ":8119,"manasÄģ":8120,"ĠprovÄģca":8121,"á¹£yÄģmÄ«ti":8122,"ĠhovÄģca":8123,"mapya":8124,"paká¹£o":8125,"dag":8126,"niryÄģ":8127,"á¹Ńika":8128,"Ġnaika":8129,"Ġhitam":8130,"sÅ«trÄģ":8131,"Ġindro":8132,"ĠÄģyuá¹£maÃ±":8133,"vija":8134,"gatÄģnÄģá¹ĥ":8135,"puá¹ĩyaá¹ĥ":8136,"nenaiva":8137,"sarvÄģn":8138,"ĠpurastÄģt":8139,"metadavocat":8140,"ĠÅĽÄģradvatÄ«putra":8141,"panaá¹ĥ":8142,"jasÄģ":8143,"ĠprakÄģra":8144,"Ġniyata":8145,"ĠuccÄģ":8146,"Ġtejaá¸¥":8147,"ÅĽá¹Ľá¹ħga":8148,"vyaá¹ħgya":8149,"Ġsarpa":8150,"ĠmÅ«laá¹ĥ":8151,"caraá¹ĩÄģ":8152,"Ġbhayam":8153,"dharmatÄģ":8154,"Ġná¹ĽpÄģ":8155,"candrÄģ":8156,"Ġdvayor":8157,"ĠmahÄģtejÄģ":8158,"ĠanÄģt":8159,"ĠvÄģyuá¸¥":8160,"dá¹Ľá¹£á¹Ńaá¹ĥ":8161,"Ġanvaya":8162,"Ġbhoá¸¥":8163,"ĠdhÄģrmi":8164,"Ġprathamo":8165,"hne":8166,"ĠÅĽivaá¹ĥ":8167,"ĠjarÄģma":8168,"Ġpratiá¹£edha":8169,"anta":8170,"ĠnirvÄģá¹ĩa":8171,"asmin":8172,"ĠÄģcÄģrya":8173,"ĠÅĽam":8174,"sikÄģ":8175,"ĠkÄģnti":8176,"yiá¹£ya":8177,"Ġjina":8178,"á¹£Å«pa":8179,"Ġbhadre":8180,"ĠÅĽaÅĽa":8181,"ĠhastÄģ":8182,"ĠyÄģá¸¥":8183,"Ġbhidyate":8184,"Ġprathame":8185,"tejasÄģ":8186,"ĠadvaidhÄ«":8187,"grataá¸¥":8188,"muku":8189,"Ġdharmam":8190,"dibhir":8191,"ttatra":8192,"Ġdá¹Ľá¹£á¹Ńe":8193,"pÅ«rvakaá¹ĥ":8194,"mÄģrthi":8195,"ĠÅĽodha":8196,"Ġbhagavantam":8197,"viÅĽat":8198,"yutaÅĽata":8199,"jÃ±Äģá¹ĥ":8200,"á¹£Äģá¹ĩa":8201,"Ġpratila":8202,"Ġbhagavad":8203,"Ġsphuá¹Ńam":8204,"samyak":8205,"vaÅĽa":8206,"Ġmaá¹ĥ":8207,"dÄģnÄ«":8208,"jÄģyata":8209,"badhyate":8210,"ÅĽiraá¸¥":8211,"Ġdhair":8212,"bhyarcya":8213,"kaá¹ĩá¹ŃhÄģ":8214,"vicÄģ":8215,"Ġpramu":8216,"vedha":8217,"Ġyuge":8218,"Ġbodhya":8219,"ĠpraÅĽÄģ":8220,"dÄģnena":8221,"ĠpÄģÃ±cÄģ":8222,"Ġbheá¹£a":8223,"Ġmithu":8224,"ĠlÄ«lÄģ":8225,"Ġdraá¹£á¹Ńuá¹ĥ":8226,"Ġindri":8227,"ĠkrÄ«á¸įÄģ":8228,"Ġyudhiá¹£á¹Ńhira":8229,"ĠlabdhvÄģ":8230,"caita":8231,"gatÄģn":8232,"jasya":8233,"Ġdhanam":8234,"Ġgá¹Ľhá¹ĩa":8235,"Ġyathoktaá¹ĥ":8236,"ktÄģni":8237,"ĠtathÄģgatasya":8238,"koá¹Ńa":8239,"ĠdhÄģma":8240,"ĠbrÄģhmaá¹ĩaá¸¥":8241,"ÅĽrÄ«á¸¥":8242,"ĠÃ£":8243,"ĠpitrÄģ":8244,"ĠjÃ±Äģpa":8245,"bodhya":8246,"nanva":8247,"ĠsÄģdhi":8248,"liá¹ħgaá¹ĥ":8249,"ĠpÄģtu":8250,"ĠrÄģjya":8251,"nimittÄģ":8252,"date":8253,"ĠvijÃ±ÄģnÄģ":8254,"Ġgatiá¹ĥ":8255,"Ġnirvá¹Ľ":8256,"yogataá¸¥":8257,"ĠrÄģghava":8258,"ĠnipÄģ":8259,"ĠvyÄģpÄģra":8260,"krÄģntaá¹ĥ":8261,"mÄģrgÄģ":8262,"Ġchando":8263,"ĠvaiÅĽvÄģna":8264,"yÄģsa":8265,"hÄģti":8266,"Ġtasyo":8267,"kÄģÅĽo":8268,"sthasya":8269,"ĠdhyÄģnaá¹ĥ":8270,"kasaá¹ĥ":8271,"traye":8272,"ciraá¹ĥ":8273,"Ġjagmu":8274,"ĠÅĽÅ«drÄģ":8275,"kurvanti":8276,"jha":8277,"tavÄģ":8278,"maiá¸¥":8279,"ĠkarÄģ":8280,"ruvÄģca":8281,"ĠmÄģtu":8282,"Ġtá¹Ľá¹ĩa":8283,"siddhÄģnta":8284,"Ġviá¹£":8285,"Ġetam":8286,"Ġdhatte":8287,"Ġvedha":8288,"Ġpit":8289,"myÄģá¹ĥ":8290,"nÃ¢":8291,"naÅĽca":8292,"mukte":8293,"Ġprema":8294,"kÄģnde":8295,"ĠÅĽarÄ«rÄģ":8296,"khyayÄģ":8297,"yastu":8298,"vá¹Ľká¹£Äģ":8299,"pratyayo":8300,"puruá¹£o":8301,"vartÄ«":8302,"á¹Ńam":8303,"Ġananya":8304,"Ġapare":8305,"ĠvijÃ±Äģnam":8306,"ÅĽukla":8307,"asyÄģ":8308,"vrÄģja":8309,"bhidhÄģna":8310,"má¹Ľdu":8311,"randh":8312,"khyam":8313,"sÄģdhar":8314,"á¹£á¹ĩÄ«á¹ĥ":8315,"ĠÅĽÄģstÄģ":8316,"dvayÄģ":8317,"ĠstrÄ«á¹ĩÄģá¹ĥ":8318,"bhÄģgya":8319,"bhá¹ĽtÄģá¹ĥ":8320,"cchinnÄģ":8321,"dare":8322,"ndÅ«":8323,"guá¹ĩÄģn":8324,"dÄ«ya":8325,"cyeta":8326,"vac":8327,"namiti":8328,"vidaá¸¥":8329,"caye":8330,"divyÄģ":8331,"á¹ĩitam":8332,"Ġityuktam":8333,"Ġsaá¹ĥsÄģre":8334,"Ġkaá¹ĩá¹Ńha":8335,"dÄģri":8336,"ká¹£ito":8337,"Ġkarmaá¹ĩo":8338,"sá¹Ľá¹£á¹Ńi":8339,"Ġpá¹ĽthivyÄģá¹ĥ":8340,"pratiá¹£edha":8341,"iá¹£ajya":8342,"Ġprahá¹Ľ":8343,"Ġprakaraá¹ĩa":8344,"bhÄģá¹ĥ":8345,"ĠparamÄģá¹ĥ":8346,"tapÄģ":8347,"ĠbhÄģve":8348,"Ġbuddhiá¸¥":8349,"mÅ«rti":8350,"nÄģmu":8351,"ĠprasÄ«da":8352,"á¸įhyÄģ":8353,"rÄ«m":8354,"siddhau":8355,"Ġprayatnena":8356,"ĠanÄģdi":8357,"Ġambu":8358,"Ġpatiá¸¥":8359,"Ġmaraá¹ĩa":8360,"kutaá¸¥":8361,"prÄģti":8362,"Ġupalab":8363,"ĠdÄģra":8364,"ĠbÄģá¹ĩa":8365,"ĠsÅ«ryo":8366,"Ġtapasvi":8367,"ĠkuÅĽala":8368,"ĠkvÄģpi":8369,"vare":8370,"tvat":8371,"puá¹ĩyÄģ":8372,"ĠprÄģá¹ĩaá¸¥":8373,"Ġná¹Ľtya":8374,"ratho":8375,"ĠgrÄģma":8376,"ĠsattvÄģá¸¥":8377,"mukhÄģni":8378,"Ġityevaá¹ĥ":8379,"ĠdvijottamÄģá¸¥":8380,"ĠpaÅĽÅ«n":8381,"á¹ĩá¹ĩa":8382,"mÄģsÄģ":8383,"pÄģdaá¹ĥ":8384,"Ġkaá¹Ńhi":8385,"Ġsarga":8386,"ĠvÄģkye":8387,"pá¹Ľthag":8388,"dram":8389,"vastra":8390,"Ġbah":8391,"Ã±janaá¹ĥ":8392,"Ġsthira":8393,"Ġtanni":8394,"pattir":8395,"sanna":8396,"rÄģdhi":8397,"stama":8398,"ĠmedhÄģ":8399,"ÅĽÄģrdÅ«la":8400,"sadá¹ĽÅĽa":8401,"viá¹£á¹ĩo":8402,"mida":8403,"ĠÄģla":8404,"moká¹£Äģ":8405,"Ġbhagavaá¹ĥ":8406,"Ġmantraá¹ĥ":8407,"ká¹£Ä«ra":8408,"Ġkratu":8409,"Ġvirodhaá¸¥":8410,"santa":8411,"Ġpula":8412,"lokasya":8413,"ddhar":8414,"Ġkarmaá¹ĩaá¸¥":8415,"rÅ«pÄģá¹ĩi":8416,"Ġmanasikaroti":8417,"garuá¸įa":8418,"dhanu":8419,"pÅ«rvakam":8420,"nandanaá¸¥":8421,"sari":8422,"cakÄģra":8423,"gara":8424,"Ġjayati":8425,"ĠuttarÄģ":8426,"tasyÄģá¸¥":8427,"dhÄģraá¹ĩÄ«":8428,"á¹ĩá¹Ńha":8429,"tÄģvad":8430,"Ġniá¹£pa":8431,"vyÄģdha":8432,"Ġká¹Ľá¹£á¹ĩaá¸¥":8433,"ĠÄģsÄ«d":8434,"aham":8435,"antaá¸¥":8436,"Ġayo":8437,"ĠsakhÄģ":8438,"vÄ«ryÄģ":8439,"Ġvaká¹£yamÄģá¹ĩa":8440,"Ġasá¹Ľja":8441,"niÅĽci":8442,"Ġpará¹£a":8443,"kut":8444,"ĠÅĽruteá¸¥":8445,"Ġprathamaá¸¥":8446,"cakre":8447,"yÄģÅĽca":8448,"viÅĽuddha":8449,"sÄģraá¹ĥ":8450,"medhÄģ":8451,"ĠhetunÄģ":8452,"rayet":8453,"Ġpuá¹ĩá¸įarÄ«":8454,"deÅĽya":8455,"ĠsÄģttvi":8456,"Ġvarja":8457,"ĠkÄģrye":8458,"pannÄģá¸¥":8459,"rtarÄģá¹£á¹Ń":8460,"nala":8461,"mitye":8462,"bhÄģn":8463,"lokam":8464,"bhÅ«tÄģá¸¥":8465,"rÅ«patayÄģ":8466,"sandhi":8467,"danam":8468,"nÄģmiti":8469,"dhyÄģá¹ĥ":8470,"ruddhaá¹ĥ":8471,"Ġpituá¸¥":8472,"manva":8473,"karaá¹ĩÄģt":8474,"janasya":8475,"Ġmukham":8476,"mupasaá¹ĥ":8477,"lbi":8478,"bhÄģk":8479,"ĠabhijÃ±Äģ":8480,"dÅ«ra":8481,"Ġtasminn":8482,"ĠjÄ«vitaá¹ĥ":8483,"janaá¸¥":8484,"Ġprayogaá¸¥":8485,"ká¹£atri":8486,"á¸įhu":8487,"tantrÄģ":8488,"ÅĽrita":8489,"Ġcatuá¹£":8490,"ĠkÄģryo":8491,"ĠkÄģru":8492,"sÅ«traá¹ĥ":8493,"ĠkÄģryasya":8494,"chanda":8495,"rkarÄģ":8496,"kasmÄģ":8497,"praÅĽa":8498,"paripÄģ":8499,"ĠyuvÄģ":8500,"lyaá¸¥":8501,"yart":8502,"yuktena":8503,"aneka":8504,"ÄģkÄģÅĽa":8505,"vali":8506,"kÄģriá¹ĩaá¸¥":8507,"ĠvasudhÄģ":8508,"nÄģnya":8509,"dhve":8510,"ĠjyÄģ":8511,"sambhava":8512,"pratyayaá¸¥":8513,"ĠpÄ«tvÄģ":8514,"maá¹ĩá¸įale":8515,"tÅ«n":8516,"am":8517,"vidu":8518,"ĠÄģpo":8519,"kuÃ±ja":8520,"ĠguhÄģ":8521,"mÅ«lÄģ":8522,"dhÄģraá¹ĩe":8523,"gá¹Ľhá¹ĩa":8524,"ĠÄģyuá¹£man":8525,"Ġida":8526,"ĠÄģho":8527,"ĠcÄģyaá¹ĥ":8528,"Ġupapadyate":8529,"Ġá¹£aá¸įÄģ":8530,"Ġvraje":8531,"ĠÄģgacchati":8532,"buddhe":8533,"Ġlaukika":8534,"pak":8535,"tÄ«nÄģm":8536,"ĠhitvÄģ":8537,"Ġmriyate":8538,"kuá¹£á¹Ńha":8539,"Ġmanaso":8540,"putrasya":8541,"Ġbhagavanta":8542,"ÅĽreá¹£á¹ŃhÄģ":8543,"Ġarhan":8544,"Ġalam":8545,"rÄģá¹Ń":8546,"nÄģnÄģm":8547,"tÄģrÄģ":8548,"Ġtasmi":8549,"baddhaá¹ĥ":8550,"tyÄģnÄģá¹ĥ":8551,"ÅĽeá¹£i":8552,"ÅĽivÄģ":8553,"pÄģdayati":8554,"Ġjite":8555,"Ġdhruvaá¹ĥ":8556,"Ġgrantha":8557,"hataá¹ĥ":8558,"vedo":8559,"ĠprÄģá¹ĩe":8560,"stana":8561,"ĠbhÅ«r":8562,"ccharÄ«":8563,"Ġcedaá¹ĥ":8564,"vacaá¸¥":8565,"ĠjanÄģrdanaá¸¥":8566,"stÄģn":8567,"Ġgamya":8568,"drÄģva":8569,"Ġá¹ħ":8570,"dÄģsa":8571,"ndya":8572,"sá¹Ľá¹£á¹Ńa":8573,"buddhiá¸¥":8574,"mukhÄģá¸¥":8575,"Ġsaced":8576,"Ġvandi":8577,"nÄ«yÄģt":8578,"Ġhaya":8579,"mohÄģ":8580,"Ġdá¹Ľá¹£á¹Ńam":8581,"tpannaá¹ĥ":8582,"á¸įaá¹ĥ":8583,"ĠyugÄģ":8584,"vacanÄģt":8585,"tamanasi":8586,"uttara":8587,"nanti":8588,"sakala":8589,"yojya":8590,"Ġdehaá¹ĥ":8591,"sthÄģnam":8592,"Ġagnau":8593,"ĠdarÅĽitam":8594,"cchabda":8595,"pÄģtre":8596,"ĠtÄģdÄģt":8597,"á¹ĩot":8598,"ĠvyÄģpya":8599,"ĠsÅ«taá¹ĥ":8600,"ĠÄģditya":8601,"tsya":8602,"á¹£ayÄģ":8603,"á¹£á¹Ńá¹Ľ":8604,"á¹ĩÄ«yaá¹ĥ":8605,"ĠvacanÄģt":8606,"tarka":8607,"granthi":8608,"ĠnÄģrÄģyaá¹ĩa":8609,"lukopa":8610,"bhasya":8611,"ukku":8612,"tyÄģya":8613,"ĠdattÄģ":8614,"Å«rya":8615,"Ġhata":8616,"ĠmÅ«rti":8617,"vadha":8618,"valÄ«":8619,"dik":8620,"yudhÄģ":8621,"bhÅ«á¸¥":8622,"rÅ«patvÄģt":8623,"buddhir":8624,"Ġkaromi":8625,"ntra":8626,"rÄģji":8627,"nÄģgÄģ":8628,"vartya":8629,"Ġhitaá¹ĥ":8630,"mÅ«á¹£Äģ":8631,"ĠdÄ«rghÄģ":8632,"Ġsrota":8633,"há¹Ľtaá¹ĥ":8634,"Ġsattve":8635,"Ġbuddho":8636,"rate":8637,"majja":8638,"kÄģrama":8639,"ÅĽeá¹£eá¹ĩa":8640,"Ġjagato":8641,"Ġbudhaiá¸¥":8642,"Ġsadeva":8643,"riá¸¥":8644,"prabham":8645,"ĠkiÃ±ca":8646,"Ġgovinda":8647,"ĠmahÄ«yate":8648,"tavo":8649,"ĠkÄģmÄģn":8650,"petya":8651,"cchan":8652,"parÄģmarÅĽa":8653,"ĠbhogÄģ":8654,"vrÄ«hi":8655,"raktÄģ":8656,"á¹ĩyate":8657,"gala":8658,"kÄģnÄģm":8659,"prabhÄģva":8660,"sÄģnÄģá¹ĥ":8661,"ĠsarvabhÅ«tÄģnÄģá¹ĥ":8662,"Ġpratisaá¹ĥyuk":8663,"ĠsvÄģtant":8664,"dgÄģ":8665,"muniá¸¥":8666,"vá¹Ľttam":8667,"ĠdarÅĽanÄģt":8668,"duá¸¥khi":8669,"ÅĽleá¹£a":8670,"Ġabhyupa":8671,"ĠsÄģdhÄģraá¹ĩa":8672,"ĠprÄģtar":8673,"Ġlauki":8674,"Ġpaá¹ĥca":8675,"dbhava":8676,"ĠvidhÄ«":8677,"ĠbhÅ«te":8678,"doá¹£o":8679,"Ġsarvaiá¸¥":8680,"ĠsvÄģdu":8681,"ghÄģti":8682,"Ġityanena":8683,"kÄ«á¹ĥ":8684,"ĠvyabhicÄģra":8685,"lma":8686,"tiÅĽaya":8687,"rÅ«á¸įhÄģ":8688,"sinÄ«":8689,"ÅĽrayaá¹ĥ":8690,"ktir":8691,"ĠevÄģnu":8692,"vatÄ«á¹ĥ":8693,"mupÄģdÄģya":8694,"Ġvaruá¹ĩa":8695,"ĠcÄģpa":8696,"svabhÄģvo":8697,"tvÄģdityarthaá¸¥":8698,"dÄģharaá¹ĩam":8699,"Ġgá¹Ľhá¹ĩÄ«":8700,"Ġkenacit":8701,"ĠÅĽaila":8702,"tataÅĽca":8703,"Ġbhaven":8704,"varjitaá¸¥":8705,"Ġcakraá¹ĥ":8706,"ÅĽramaá¹ĥ":8707,"tapaá¸¥":8708,"gatir":8709,"Ġdadh":8710,"á¹ĩika":8711,"Ġciki":8712,"bÄģá¹ĩa":8713,"bÄģdhi":8714,"ÅĽrutya":8715,"tatraiva":8716,"svÄģda":8717,"gÄ«ta":8718,"Ġpaurá¹ĩamÄģ":8719,"prayogÄģ":8720,"Ġtaddhi":8721,"ĠyÄģca":8722,"Ġsamar":8723,"manye":8724,"bhÄģvÄģditi":8725,"saptÄģ":8726,"kÄģs":8727,"ĠpraveÅĽa":8728,"ĠdÄ«ká¹£Äģ":8729,"siddhir":8730,"-\"":8731,"nÄģs":8732,"ttada":8733,"putreá¹ĩa":8734,"Ġdvayoá¸¥":8735,"Ġbodhyam":8736,"ĠÄģyuá¹£mÄģn":8737,"mamÄģ":8738,"ĠsamÄģdÄģ":8739,"ĠgopÄģ":8740,"yÅ«ra":8741,"yadvÄģ":8742,"Ġabhavan":8743,"prakÄģÅĽÄģ":8744,"ĠtÄģla":8745,"Ġkimu":8746,"ĠpratyayÄģ":8747,"khu":8748,"mÄģá¹ĩe":8749,"Ġcarma":8750,"dhÄ«r":8751,"pÄģte":8752,"tmÄģnam":8753,"ĠparameÅĽvara":8754,"saá¹ĥbandhi":8755,"Ġsamanvi":8756,"pratibandha":8757,"nirmi":8758,"mandi":8759,"tÄģnimittÄģ":8760,"virodhÄģt":8761,"Ġvaká¹£yate":8762,"kapha":8763,"Ġpak":8764,"bhaira":8765,"dhÄģtuá¹ĥ":8766,"jÄģto":8767,"rthama":8768,"ĠsÄģda":8769,"syÄģmaá¸¥":8770,"ĠpÄģá¹Ńhaá¸¥":8771,"ĠvÄģkyÄģrtha":8772,"Ġaupa":8773,"ká¹£iptaá¹ĥ":8774,"grahÄģya":8775,"dhyayana":8776,"Ġpá¹Ľth":8777,"nupapattiá¸¥":8778,"samanvitaá¸¥":8779,"ĠsarvÄģkÄģrajÃ±a":8780,"ĠupaparÄ«ká¹£ate":8781,"matÄģá¹ĥ":8782,"pamÄģ":8783,"vÄģá¹ħ":8784,"Ġsaca":8785,"á¹£ati":8786,"bhÄģgÄ«":8787,"vá¹Ľte":8788,"ĠpÄģdaá¸¥":8789,"ĠdadhÄģti":8790,"sru":8791,"ĠvirodhÄģ":8792,"diá¹£á¹Ńaá¹ĥ":8793,"devena":8794,"Ġhuá¹ĥ":8795,"hyÄģá¹ĥ":8796,"tpreká¹£Äģ":8797,"hÄģrya":8798,"Ġprameya":8799,"ĠgavÄģá¹ĥ":8800,"dá¹ĽÅĽyaá¹ĥ":8801,"rÅ«pÄģá¸¥":8802,"Ġvadati":8803,"gaura":8804,"Ġjyotiá¸¥":8805,"ĠvÄģha":8806,"gÄģyat":8807,"ÅĽikÄģ":8808,"guá¹ĩam":8809,"ĠpratyabhijÃ±Äģ":8810,"nyeva":8811,"dyota":8812,"uddha":8813,"nÄģrada":8814,"ĠviÅĽo":8815,"ĠpÄģÅĽa":8816,"Ġniá¹£edha":8817,"vyabhicÄģri":8818,"Ġá¹ħa":8819,"ĠabhÄģá¹£ata":8820,"nitÄģ":8821,"rite":8822,"kÄģna":8823,"Ġito":8824,"vartta":8825,"Ġpriyam":8826,"Ġdhá¹ĽtarÄģá¹£á¹Ń":8827,"gatau":8828,"á¹£aá¹ĩÄģ":8829,"kÄģlam":8830,"dhair":8831,"Ġteno":8832,"ĠlalÄģ":8833,"Ġnirvikalpa":8834,"ĠsukhÄ«":8835,"ĠÄģgataá¸¥":8836,"vyatireka":8837,"hatya":8838,"nÄģr":8839,"niá¹ĥ":8840,"Ġmadhyaá¹ĥ":8841,"dÄģne":8842,"tvamapi":8843,"ĠnirÅ«pa":8844,"Ġdaká¹£a":8845,"stasyÄģ":8846,"Ġetac":8847,"ĠapyÄģ":8848,"yeyam":8849,"bhÄģá¹£e":8850,"cchÅ«":8851,"hastha":8852,"Ġannam":8853,"Ġbhede":8854,"ĠdhÅ«r":8855,"sahi":8856,"bhÅ«á¹£aá¹ĩa":8857,"Ġcetana":8858,"ghnÄ«":8859,"Ġparamo":8860,"Ġgaá¹ħgÄģnadÄ«vÄģ":8861,"Ġpratisaá¹ĥyuktamanasi":8862,"asmÄģ":8863,"sneha":8864,"ropya":8865,"yuge":8866,"lÄģgha":8867,"tyÄģga":8868,"ká¹Ľtau":8869,"Ġpratibandha":8870,"kre":8871,"jaiá¸¥":8872,"diá¸¥":8873,"á¹ħgulÄ«":8874,"labdhÄģ":8875,"ĠsattvÄģn":8876,"ĠhotÄģ":8877,"rÄģjya":8878,"Ġyogaá¸¥":8879,"seno":8880,"Ġtriá¹ĥÅĽa":8881,"dhikaraá¹ĩe":8882,"bhiká¹£u":8883,"ĠvÄģá¹ĥ":8884,"Ġnirasya":8885,"saá¹ĥsar":8886,"lÄģd":8887,"Ġhrasva":8888,"Ġduá¸¥khe":8889,"ĠdharmÄģn":8890,"á¹ħkura":8891,"nimittam":8892,"ĠapagatasarvÄģkÄģrajÃ±atÄģ":8893,"kÄģlÄ«":8894,"Ġtviti":8895,"ĠkrodhÄģ":8896,"jale":8897,"thitÄģ":8898,"ddharmÄģ":8899,"Ġhavi":8900,"ĠavaÅĽyaá¹ĥ":8901,"navasthÄģ":8902,"yÄģca":8903,"Ġvibu":8904,"ĠbhadrÄģ":8905,"badh":8906,"nÄ«va":8907,"stÄģt":8908,"Ġkoá¹ŃÄ«":8909,"Ġprayatnataá¸¥":8910,"viá¹£á¹ŃÄģ":8911,"ttaro":8912,"Ġekasya":8913,"Ġvyavasthitaá¸¥":8914,"Ġcaturtha":8915,"á¹£veva":8916,"gamÄģá¸¥":8917,"ĠprabhÄģva":8918,"bhÄģgi":8919,"Ġsuto":8920,"ĠjÄģnu":8921,"Ġsá¹Ľja":8922,"ĠtÅ«á¹£á¹ĩÄ«":8923,"srÄģ":8924,"nat":8925,"Ġabhavad":8926,"gaiá¸¥":8927,"Ġsarvabuddha":8928,"ÅĽekha":8929,"Ġvaidi":8930,"ĠÅĽÄģr":8931,"ï¾":8932,"dá¹ĽÅĽyÄģ":8933,"Ġlaá¹ħkÄģ":8934,"Ġmá¹Ľta":8935,"ĠgÄģá¹ĥ":8936,"Ġnarakaá¹ĥ":8937,"Ġpratyaká¹£am":8938,"ÅĽravaá¹ĩÄģ":8939,"rÅ«piá¹ĩÄ«":8940,"kÄģá¹ĩá¸įa":8941,"prataá¹ĥ":8942,"hÄ«naá¹ĥ":8943,"cittam":8944,"ĠÅĽirasi":8945,"ká¹£etre":8946,"jaá¹ŃÄģ":8947,"dera":8948,"locanam":8949,"niva":8950,"ĠsvadhÄģ":8951,"tÄģmra":8952,"kalpaá¸¥":8953,"ĠgÄģrha":8954,"Ġsanta":8955,"ká¹£eta":8956,"vaÅĽÄģd":8957,"vÄģsaá¹ĥ":8958,"viÅĽrÄģ":8959,"á¹ĩaÅĽ":8960,"sÄģv":8961,"sÄģva":8962,"Ġraká¹£o":8963,"ĠÅĽakro":8964,"dvitÄ«ya":8965,"tá¹Ŀá¹ĩÄģá¹ĥ":8966,"ÅĽyan":8967,"timi":8968,"Ġnatu":8969,"dhÄģtau":8970,"ÅĽcarya":8971,"phulla":8972,"ĠvidyÄģt":8973,"mna":8974,"ttamaá¹ĥ":8975,"coda":8976,"ĠvÄģcyaá¹ĥ":8977,"ĠrÅ«pÄģá¹ĩi":8978,"priyaá¹ĥ":8979,"ĠgÄģyatrÄ«":8980,"mevo":8981,"ÅĽuá¹£":8982,"ĠyadvÄģ":8983,"kÄģrye":8984,"ityuktvÄģ":8985,"ĠpratÄ«tyasamu":8986,"tatva":8987,"sakta":8988,"uká¹Ľ":8989,"Ġjaá¹ŃÄģ":8990,"pÅ«rá¹ĩaá¹ĥ":8991,"ĠpÅ«rá¹ĩÄģ":8992,"stambha":8993,"Ġsakalaá¹ĥ":8994,"napeká¹£a":8995,"caraá¸¥":8996,"Ġanyatara":8997,"pÅ«rve":8998,"ĠÅĽivam":8999,"ĠÅĽuddho":9000,"adha":9001,"saiá¸¥":9002,"sattamÄģá¸¥":9003,"vidyu":9004,"pÄģnaá¹ĥ":9005,"pÄģá¹ĩá¸įa":9006,"mucya":9007,"ĠÅĽat":9008,"trÄģya":9009,"ĠyÄģtu":9010,"ĠprakÄģÅĽate":9011,"ndhya":9012,"vaÅĽi":9013,"sami":9014,"Ġpareá¹ĩa":9015,"sÄģha":9016,"ĠvyÅ«":9017,"ĠjanmÄģ":9018,"há¹Ľta":9019,"nyÄģdi":9020,"khaá¸į":9021,"ĠdhmÄģ":9022,"Ġtrailokya":9023,"ĠÅĽravaá¹ĩa":9024,"pathÄģ":9025,"rÄ«tyÄģ":9026,"Ġhira":9027,"Ġdraá¹£á¹Ńavyaá¸¥":9028,"Ġsaindha":9029,"ĠcÄģnupalambhayogena":9030,"rato":9031,"jano":9032,"bhaká¹£a":9033,"bahÅ«":9034,"ĠyÄģga":9035,"ĠyathÄģbhÅ«taá¹ĥ":9036,"Ġpitaro":9037,"ĠmÄģyayÄģ":9038,"ĠbhÅ«taá¹ĥ":9039,"vÄģp":9040,"Ġtebhyo":9041,"grahaá¹ĩena":9042,"ĠdhÄģraá¹ĩÄ«":9043,"Ġspaá¹£á¹Ńa":9044,"neá¸¥":9045,"Ġpure":9046,"Ġá¹Ľtu":9047,"jjvala":9048,"priyaá¸¥":9049,"ppalÄ«":9050,"hÄģpi":9051,"Ġaru":9052,"nivá¹Ľt":9053,"ĠÅĽli":9054,"ĠkalpÄģ":9055,"tanma":9056,"naká¹£a":9057,"Ġniras":9058,"ciki":9059,"Ġgatam":9060,"ĠgÄģr":9061,"bhrÄģnti":9062,"Ġabruvan":9063,"samuccaya":9064,"nÄģrÄ«":9065,"manaso":9066,"datto":9067,"dityata":9068,"Ġvará¹£Äģá¹ĩi":9069,"jjana":9070,"ravaá¸¥":9071,"Ġraá¹ĩa":9072,"ĠabhidhÄģ":9073,"pÄģsanÄģ":9074,"spho":9075,"tayoá¸¥":9076,"rahita":9077,"Ġprau":9078,"ĠÄģsthÄģya":9079,"duá¹£á¹Ńa":9080,"ĠvaiÅĽva":9081,"dvÄģdaÅĽÄģ":9082,"Ġsantu":9083,"tiÅĽa":9084,"ĠsÄģva":9085,"Ġgaru":9086,"ĠlajjÄģ":9087,"jÃ±aval":9088,"Ġdik":9089,"varjitam":9090,"tÄģnimittÄģpraá¹ĩi":9091,"',":9092,"ntÄģá¹ĥ":9093,"phe":9094,"layaá¸¥":9095,"ká¹£ayaá¹ĥ":9096,"Ġbalava":9097,"Ġparataá¸¥":9098,"Ġtá¹ĽtÄ«yaá¹ĥ":9099,"ndriyÄģá¹ĩÄģá¹ĥ":9100,"ĠcetanÄģ":9101,"Ġyajeta":9102,"tsar":9103,"patyÄģ":9104,"ĠnidhÄģya":9105,"Ġetau":9106,"bhÄģvÄģda":9107,"ĠkramÄģ":9108,"Ġsukhaduá¸¥kha":9109,"grÄģhaka":9110,"Ġbhaviá¹£yasi":9111,"vidÄģá¹ĥ":9112,"tus":9113,"cite":9114,"tatre":9115,"tadevaá¹ĥ":9116,"pratipaká¹£a":9117,"Ġbhagavat":9118,"sthitau":9119,"Ġpraká¹Ľte":9120,"Ġvaktavyaá¹ĥ":9121,"nakti":9122,"cÄģá¹ĥ":9123,"Ġkusuma":9124,"hetor":9125,"nmatta":9126,"Ġdivase":9127,"ĠyaÅĽasvi":9128,"yÄģpi":9129,"á¹ĩyÄģt":9130,"tasyo":9131,"koÅĽa":9132,"ĠsvÄģrtha":9133,"ktÄģnÄģá¹ĥ":9134,"jvÄģlÄģ":9135,"gamaá¹ĥ":9136,"ĠvikÄģra":9137,"saá¹ĥveda":9138,"meru":9139,"nyasta":9140,"suto":9141,"Ġvaide":9142,"Ġcihni":9143,"ĠpaÃ±camÄ«":9144,"cur":9145,"ÅĽaá¹ħki":9146,"ĠcatvÄģro":9147,"ubha":9148,"Ġtaá¹ĩá¸įu":9149,"ÅĽarÄģ":9150,"ĠnirÅ«":9151,"Ġniá¹£á¹ŃhÄģ":9152,"ĠrÄģmasya":9153,"ĠÅĽÅ«nyaá¹ĥ":9154,"ndhyÄģ":9155,"vá¹Ľá¹£á¹Ńi":9156,"ĠpÄģka":9157,"ĠtÄ«ká¹£á¹ĩa":9158,"mÄģnopa":9159,"grahÄģt":9160,"ÅĽarÄ«raá¹ĥ":9161,"ĠÅĽaktir":9162,"Ġnopapadyate":9163,"gdhe":9164,"yÃ¢":9165,"haret":9166,"santi":9167,"dhyan":9168,"ĠprÄģá¹ħ":9169,"ĠmahÄģmune":9170,"rambhe":9171,"peta":9172,"bÄģdhÄģ":9173,"Ġná¹Ľpo":9174,"manuá¹£ya":9175,"Ġmatsya":9176,"Ġnimittaá¹ĥ":9177,"takÄ«":9178,"ĠkÄģli":9179,"ĠdharmaparyÄģ":9180,"bhiprÄģyaá¸¥":9181,"ĠparyÄģyeá¹ĩa":9182,"Ġbhaviá¹£yatÄ«ti":9183,"Ġsamyaksaá¹ĥbodhim":9184,"âĢ":9185,"Ġadhaá¸¥":9186,"á¸įhe":9187,"Ġsaá¹ĥbandhaá¸¥":9188,"dvÄģre":9189,"hÅ«ya":9190,"Ġadhiá¹£á¹ŃhÄģ":9191,"Ġvaká¹£ye":9192,"piÅĽÄģ":9193,"ĠsurÄģá¸¥":9194,"ĠbhrÅ«":9195,"tÄģvatÄģ":9196,"dhiá¹£á¹ŃhÄģna":9197,"Ġvibhuá¸¥":9198,"ï¾±":9199,"veá¹£á¹Ńi":9200,"Ġkathayanti":9201,"ĠÅĽubhaá¹ĥ":9202,"ĠbhrÄģtÄģ":9203,"niÅĽcaya":9204,"Ġsiddhiá¸¥":9205,"Ġkaru":9206,"Ġkanda":9207,"yuktasya":9208,"samyag":9209,"nati":9210,"vÄģka":9211,"Ġsapat":9212,"dhmÄģ":9213,"cchÄ«":9214,"Ġtimi":9215,"kalpaá¹ĥ":9216,"kÄģá¹ħká¹£i":9217,"gro":9218,"mudÄģ":9219,"ĠmahÄģpurÄģá¹ĩe":9220,"ghrÄģ":9221,"ÅĽrute":9222,"psu":9223,"Ġmagha":9224,"heto":9225,"ĠtÄģv":9226,"Ġpratyayaá¸¥":9227,"ĠskandhÄģ":9228,"dhyu":9229,"veá¹£i":9230,"Ġvá¹Ľttaá¹ĥ":9231,"ÅĽramÄģ":9232,"ĠpÅ«rvavad":9233,"ĠcaturdaÅĽa":9234,"dvÄ«pa":9235,"Ġtre":9236,"á¹ĥá¹£i":9237,"manta":9238,"Ġaá¹ĩu":9239,"Ġkhaá¹ĥ":9240,"ĠdyÄģvÄģ":9241,"sÄģmÄģnyÄģ":9242,"Ġekena":9243,"ntika":9244,"ĠsarvatathÄģgata":9245,"ĠtathÄģhi":9246,"Ġguhya":9247,"khyÄģá¹ĥ":9248,"Ġkimartham":9249,"vÄģntara":9250,"rÅ«patÄģ":9251,"ÅĽyanti":9252,"paryavasÄģ":9253,"gup":9254,"vantya":9255,"dyupa":9256,"sarveá¹£Äģá¹ĥ":9257,"martha":9258,"rÄģtri":9259,"Ġpratyupa":9260,"karmaá¹ĩo":9261,"idÄģnÄ«á¹ĥ":9262,"staá¸¥":9263,"Ġprama":9264,"ĠprakÄģreá¹ĩa":9265,"ĠkÄģá¹£á¹Ńha":9266,"sure":9267,"bhyaÅĽca":9268,"vaiá¹£á¹ĩa":9269,"padyeta":9270,"ĠkÄģryaá¸¥":9271,"ĠvyÄģkhyÄģtam":9272,"ssa":9273,"rÄģmaá¸¥":9274,"Ġnaivaá¹ĥ":9275,"tvasyÄģ":9276,"yitavyaá¹ĥ":9277,"á¹ĩenÄģ":9278,"ktayaá¸¥":9279,"dhyÄģnÄģ":9280,"dyÄģni":9281,"sevi":9282,"khyÄģtaá¹ĥ":9283,"Ġprasanna":9284,"taila":9285,"ĠpurastÄģd":9286,"vet":9287,"pÄģp":9288,"cÄģreá¹ĩa":9289,"samÄģnÄģ":9290,"rthÄģn":9291,"paras":9292,"Ġsadaiva":9293,"bhyam":9294,"Ġehi":9295,"Ġsamut":9296,"vrate":9297,"samudrÄģ":9298,"ĠbhÄ«á¹£ma":9299,"ĠdhÄ«mataá¸¥":9300,"dá¹Ľá¹£á¹ŃÄģnta":9301,"Ġparasparaá¹ĥ":9302,"Ġityupa":9303,"Ġbhagi":9304,"ner":9305,"ĠniÅĽ":9306,"Ġguá¹ĩo":9307,"sphuá¹Ńa":9308,"Ġtiryag":9309,"yatha":9310,"Ġkhi":9311,"ĠmÄģnÄģ":9312,"nnÄģma":9313,"viá¸įa":9314,"tÄģnÄģm":9315,"Ġbhavad":9316,"vyaktaá¹ĥ":9317,"Ġbadh":9318,"dhyai":9319,"ĠlokÄģnÄģá¹ĥ":9320,"ĠdvÄģbhyÄģá¹ĥ":9321,"á¹ħgeá¹£u":9322,"llo":9323,"Ġnandi":9324,"saá¹ĥbhave":9325,"ká¹£epaá¸¥":9326,"rathe":9327,"ĠbuddhÄģnÄģá¹ĥ":9328,"Ġkanya":9329,"ruha":9330,"ĠÄģkÄģÅĽÄģ":9331,"guá¹ĩÄģá¸¥":9332,"ĠlokÄģá¸¥":9333,"ÅĽraye":9334,"ĠsvÄģá¹ĥ":9335,"ĠtÄ«v":9336,"Ġviá¹£á¹ĩor":9337,"Ġá¹ĩi":9338,"Ġahi":9339,"rÄģjyaá¹ĥ":9340,"ĠprasiddhÄģ":9341,"cchasi":9342,"ĠkathitÄģ":9343,"kuryÄģt":9344,"dadarÅĽa":9345,"layo":9346,"Ġvipro":9347,"nuá¹£a":9348,"Ġjapa":9349,"tathe":9350,"ĠjÄģga":9351,"yattu":9352,"Ġnirmi":9353,"ĠkÄ«rta":9354,"kla":9355,"Ġpapraccha":9356,"kÄ«rá¹ĩaá¹ĥ":9357,"ĠdarÅĽitaá¸¥":9358,"tsnÄģ":9359,"tulyaá¹ĥ":9360,"dhikÄģri":9361,"vará¹ĩo":9362,"Ġká¹£aá¹ĩÄģt":9363,"Ġvanaspa":9364,"ÅĽaá¹ħkyÄģha":9365,"dbhavÄģ":9366,"ĠaÃ±ja":9367,"dhim":9368,"stro":9369,"ĠvartamÄģna":9370,"bhedÄģd":9371,"triá¹ĥÅĽad":9372,"patrÄģ":9373,"Ġpraja":9374,"rÄ«ti":9375,"ĠnÄģhaá¹ĥ":9376,"pratisaá¹ĥyuk":9377,"bhoá¸¥":9378,"ĠrÅ«pÄģdi":9379,"Ġbrahme":9380,"sattayÄģ":9381,"yÄģnti":9382,"ĠviÅĽÄģá¹ĥ":9383,"ĠsÄģmÄģnÄģdhikara":9384,"mante":9385,"ĠtanÅ«":9386,"ĠbahÅ«ni":9387,"Ġnakha":9388,"Ġpanna":9389,"Ġmali":9390,"ĠÅĽrau":9391,"Ġniyoja":9392,"prÄģdur":9393,"dravyaá¹ĥ":9394,"ĠÅĽiÅĽu":9395,"stviti":9396,"ĠmÅ«á¹£Äģ":9397,"Ġjanayati":9398,"Ġveditavyaá¸¥":9399,"arju":9400,"Ġviveka":9401,"bdhaá¸¥":9402,"dyÄģá¹ĥ":9403,"ĠyaÅĽca":9404,"Ġdada":9405,"taso":9406,"durÄģ":9407,"tropa":9408,"Ġmanas":9409,"Ġevameva":9410,"ÅĽabdÄģrtha":9411,"Ġpuroá¸įÄģ":9412,"Ä«ÅĽvara":9413,"ĠimÄģ":9414,"pradam":9415,"dÄģm":9416,"ÅĽrayo":9417,"visma":9418,"niveÅĽa":9419,"ĠvÄģá¹ħ":9420,"ĠyÄģvada":9421,"vartante":9422,"mÅ«le":9423,"ĠmÅ«tra":9424,"Ġharim":9425,"Ġsamyaksaá¹ĥbuddhÄģ":9426,"viveka":9427,"vyatirikta":9428,"vivÄģ":9429,"dartha":9430,"Ġitthaá¹ĥ":9431,"ĠnaÅĽyati":9432,"puá¸¥":9433,"há¹Ľá¹ĩu":9434,"ĠjÄģte":9435,"sevÄģ":9436,"dharmasya":9437,"ÅĽritam":9438,"Ġprasajyeta":9439,"niÅĽcayaá¸¥":9440,"Ġsaá¹ĥyuge":9441,"lpaá¹ĥ":9442,"ĠkaÅĽca":9443,"reá¸¥":9444,"ĠÄģp":9445,"ĠÄģsan":9446,"ká¹£etraá¹ĥ":9447,"ĠbÄģdhi":9448,"Ġamá¹Ľtaá¹ĥ":9449,"snigdha":9450,"ĠsaÃ±jÃ±Äģ":9451,"guhya":9452,"ĠdeveÅĽa":9453,"ptasya":9454,"bhyupagame":9455,"deÅĽÄģt":9456,"ĠatrÄģha":9457,"gal":9458,"ĠnÄģmadheyaá¹ĥ":9459,"bandhaá¹ĥ":9460,"Ġghá¹Ľtaá¹ĥ":9461,"mabhisaá¹ĥ":9462,"mÄģhÄģtmya":9463,"bhyupagamÄģt":9464,"svarga":9465,"Ġaá¹ĩ":9466,"jÃ±Äģpa":9467,"sÄģdhane":9468,"dÄģhá¹Ľtam":9469,"Ġhiá¹ĥsÄģ":9470,"ĠtÅ«rá¹ĩaá¹ĥ":9471,"mapa":9472,"bhadrÄģ":9473,"bhavena":9474,"Ġeá¹£Äģm":9475,"rambhaá¸¥":9476,"yitavyam":9477,"prÄģá¹ĩo":9478,"yamÄģha":9479,"sata":9480,"sato":9481,"Ġaká¹£i":9482,"tÄģsÄģá¹ĥ":9483,"Ġicchati":9484,"miá¹£a":9485,"tyaiva":9486,"numÄģnÄģ":9487,"ĠdayÄģ":9488,"ĠhitÄģ":9489,"Ġyoge":9490,"yuktÄģá¸¥":9491,"ĠmandÄģ":9492,"nupapatte":9493,"atÄ«":9494,"mÄģyÄģá¹ĥ":9495,"ĠÅĽyÄģma":9496,"pratyaká¹£Äģ":9497,"Ġtattvataá¸¥":9498,"Ġvá¹Ľttiá¸¥":9499,"Ġbrahmeti":9500,"ÅĽyÄģma":9501,"Ġprasan":9502,"ĠsÄģdá¹ĽÅĽya":9503,"prÄģdhÄģ":9504,"ĠagnÄ«":9505,"rdhe":9506,"mahaá¹ĥ":9507,"bara":9508,"cÄģraá¹ĥ":9509,"yantre":9510,"vidhÄģna":9511,"Ġcaitat":9512,"ĠsamyakprahÄģ":9513,"samavÄģyi":9514,"yaÅĽo":9515,"caritaá¹ĥ":9516,"pÄģtraá¹ĥ":9517,"ĠyathÄģnyÄģ":9518,"jih":9519,"Ġpiá¹ĩá¸įÄģ":9520,"ikadeÅĽa":9521,"Ġtvi":9522,"ntarasya":9523,"Ġmahato":9524,"Ġpreta":9525,"ĠlokadhÄģtau":9526,"tapusta":9527,"Ġada":9528,"carma":9529,"pite":9530,"ĠÅĽreá¹£á¹ŃhÄģ":9531,"ĠpÄģrÅĽve":9532,"vanta":9533,"Ġkruddho":9534,"dÄ«ká¹£Äģ":9535,"ĠlÄģgha":9536,"ĠprajÃ±a":9537,"nyÄģsaá¸¥":9538,"bÄģhya":9539,"ĠjagannÄģ":9540,"ĠprÄģptam":9541,"ĠkuÅĽalaá¹ĥ":9542,"vibhÄģge":9543,"gram":9544,"vicÄģra":9545,"Ġtasthau":9546,"ĠsvÄģheti":9547,"ĠjÃ±eyaá¸¥":9548,"kleÅĽÄģ":9549,"Ġpravá¹Ľttiá¸¥":9550,"tpatteá¸¥":9551,"yatu":9552,"cito":9553,"á¹£á¹ŃakÄģ":9554,"bhÅ«yate":9555,"á¹£á¹ŃÄģn":9556,"jÄ«vÄģ":9557,"bhrÄģnta":9558,"ĠdrÄģ":9559,"á¹ĩÄģnu":9560,"á¹ħko":9561,"ĠÅĽarÄģ":9562,"Ġsvara":9563,"ná¹Ľtya":9564,"Ġmantreá¹ĩa":9565,"nyeti":9566,"Ġharir":9567,"Ġnarake":9568,"á¹£yÄģma":9569,"prakaraá¹ĩa":9570,"heá¹ĩa":9571,"jÃ±ÄģtvÄģ":9572,"ĠmahÄģkaruá¹ĩÄģ":9573,"peá¹£u":9574,"ĠsamÄģdÄģya":9575,"Ġvratam":9576,"ndÄģá¹ĥ":9577,"prastu":9578,"bhiá¹£i":9579,"saá¹ĥbhÄģ":9580,"ĠkÄģmi":9581,"cÄģrÄģt":9582,"mantraá¹ĥ":9583,"Ġkrame":9584,"Ġvardhate":9585,"gaga":9586,"bhiru":9587,"Ġunna":9588,"ĠsÄģtya":9589,"Ġgaruá¸įa":9590,"kalma":9591,"naikÄģnti":9592,"ĠvijÃ±Äģyate":9593,"Ġpuá¹ĥsÄģá¹ĥ":9594,"hlÄģda":9595,"ĠprÄģtipadi":9596,"sakhÄ«":9597,"Ġsauk":9598,"gamam":9599,"á¸įhi":9600,"ĠdeÅĽi":9601,"kintu":9602,"lukÄģ":9603,"ÅĽritaá¹ĥ":9604,"tyena":9605,"Ġkaraá¹ĩaá¹ĥ":9606,"nÄ«ye":9607,"á¹£uá¸¥":9608,"ÅĽuÅĽrÅ«":9609,"Ġá¹Ľtvi":9610,"Ġsaká¹ĽdÄģ":9611,"á¹£yaá¸¥":9612,"dayaá¹ĥ":9613,"á¸įhaá¸¥":9614,"jÄģnu":9615,"ĠÅĽaÅĽva":9616,"syÄģdetat":9617,"kartuá¹ĥ":9618,"ĠprÄģptaá¸¥":9619,"Ġekaika":9620,"viá¹£ayatvÄģt":9621,"ĠbalavÄģn":9622,"Ġá¸¥":9623,"vikalpÄģ":9624,"Ġtana":9625,"dÄģnÄģ":9626,"ĠsarvatrÄģ":9627,"tmana":9628,"bÄģhyÄģ":9629,"dattaá¹ĥ":9630,"caká¹£ate":9631,"gaá¹ĩe":9632,"Ġsumaha":9633,"raá¹ĩaá¸¥":9634,"ĠyajÃ±aá¸¥":9635,"psitam":9636,"matra":9637,"lÄģla":9638,"ĠÅĽeá¹£Äģ":9639,"vadi":9640,"kalaá¹ĥ":9641,"Ġpaá¹ħka":9642,"á¹£á¹Ńhena":9643,"ĠkasyÄģ":9644,"á¹ħgala":9645,"ĠanupÄģyakauÅĽa":9646,"Ġjagati":9647,"Ġuttama":9648,"ĠprÄģmÄģá¹ĩyaá¹ĥ":9649,"yuá¹£maÃ±":9650,"ĠsatyÄģá¹ĥ":9651,"sÄģnu":9652,"ĠÅĽarva":9653,"yitavyaá¸¥":9654,"Ġdá¹Ľá¹£á¹Ń":9655,"ratnÄģ":9656,"Ġnyaset":9657,"ĠdeveÅĽi":9658,"Ġbhartá¹Ľ":9659,"Ġgagana":9660,"Ġapo":9661,"vibhrama":9662,"Ġchu":9663,"ĠnÄģyaá¹ĥ":9664,"Ġsupar":9665,"tveti":9666,"Ġdaká¹£iá¹ĩaá¹ĥ":9667,"Ġtá¹ĽtÄ«ye":9668,"ĠpratÄģpavÄģn":9669,"prakaraá¹ĩe":9670,"dÄģnava":9671,"Ġkaraá¹ĩÄģ":9672,"Ġpratisaá¹ĥvi":9673,"ĠÅĽaktyÄģ":9674,"ĠbrÄģhmaá¹ĩasya":9675,"kurute":9676,"Ġsaá¹ĥhitÄģyÄģá¹ĥ":9677,"nada":9678,"syÄģbhi":9679,"ĠjagrÄģha":9680,"Ġtatheti":9681,"á¹ĩá¸įala":9682,"cchru":9683,"Ġghora":9684,"mÄģnÄ«":9685,"laghu":9686,"ĠsÄģha":9687,"ĠtathÄģca":9688,"Ġtatro":9689,"ÅĽÅ«nyam":9690,"ĠbrÄģhmaá¹ĩe":9691,"Ġmadhuraá¹ĥ":9692,"skandhÄģ":9693,"ĠsanÄģtanaá¸¥":9694,"ayam":9695,"pai":9696,"mÄģá¹ĩo":9697,"lekhÄģ":9698,"ĠÅĽÄģstraá¹ĥ":9699,"Ġasad":9700,"Ġkalpate":9701,"ĠÅĽrÄģddhaá¹ĥ":9702,"Ġdharaá¹ĩÄ«":9703,"ĠmanÄģ":9704,"Ġmeru":9705,"kÄģrikÄģ":9706,"laká¹£aá¹ĩasya":9707,"Ġapye":9708,"Ġmardayet":9709,"skÄģnde":9710,"Ġasam":9711,"viÅĽÄģ":9712,"ĠnatvÄģ":9713,"Ġkaiva":9714,"ĠkÄģÃ±cana":9715,"Ġsamprati":9716,"pÅ«rveá¹ĩa":9717,"lambya":9718,"tarÄģá¹ĥ":9719,"viÅĽÄģra":9720,"ukÅ«":9721,"tÄ«ha":9722,"dÄ«pikÄģ":9723,"Ġviá¹£ama":9724,"Ġbhuvana":9725,"vasati":9726,"Ġsvayameva":9727,"Ġgacchet":9728,"Ġaka":9729,"Ġmatta":9730,"pravá¹Ľtta":9731,"bhÄģgo":9732,"likhi":9733,"dharmÄģá¸¥":9734,"Ġvrata":9735,"dyutiá¸¥":9736,"ĠÅĽÅ«nyatÄģnimittÄģpraá¹ĩi":9737,"dvitÄ«ye":9738,"Ġniyataá¹ĥ":9739,"Ġghaá¹ŃÄģdi":9740,"pÄģdo":9741,"ĠÅĽloka":9742,"kecit":9743,"hÄ«nÄģ":9744,"á¹ŃakÄģ":9745,"ÅĽabdÄģt":9746,"namapi":9747,"utpa":9748,"paá¹Ń":9749,"Ġcaá¹ĩá¸įÄģ":9750,"ká¹£ati":9751,"phalÄģni":9752,"Ġsmá¹Ľtiá¸¥":9753,"ĠnÄ«lÄģ":9754,"cchrutvÄģ":9755,"Ġindraá¸¥":9756,"Ġasati":9757,"dhyÄģtmi":9758,"Ġcihnitapusta":9759,"Ġsyan":9760,"lobha":9761,"tyÄģn":9762,"ĠsvarÅ«pÄģ":9763,"kenÄģ":9764,"ĠparameÅĽvaraá¸¥":9765,"ĠcetasÄģ":9766,"Ġprayujyate":9767,"tÃ¢":9768,"rathaá¹ĥ":9769,"Ġpraka":9770,"praya":9771,"jÃ±Äģya":9772,"puras":9773,"ryasya":9774,"tveno":9775,"ĠÅĽrutyÄģ":9776,"vivaká¹£Äģ":9777,"mÄģtya":9778,"lÄģha":9779,"jÃ±Äģá¸¥":9780,"gÄģá¹ĥ":9781,"ĠparipÅ«ra":9782,"yÄģtmÄģ":9783,"ĠanuttarÄģyÄģá¹ĥ":9784,"ĠÅĽikhÄģ":9785,"Ġká¹£aá¹ĩam":9786,"sthale":9787,"ĠprajÃ±ÄģpÄģramitÄģyÄģ":9788,"iÅĽvaryaá¹ĥ":9789,"ĠabhiprÄģyaá¸¥":9790,"ĠmahÄģyaÅĽÄģá¸¥":9791,"Äģnanda":9792,"ĠÅĽriyÄģ":9793,"ĠsarvapÄģ":9794,"Ġraká¹£i":9795,"tvenaiva":9796,"ghno":9797,"Ġmanuá¹£yÄģá¹ĩÄģá¹ĥ":9798,"vÄģá¹ĩi":9799,"ĠvikalpÄģ":9800,"thÄģá¹ĥ":9801,"hetva":9802,"ĠmÄģsa":9803,"ÅĽira":9804,"sopa":9805,"parÄģá¸¥":9806,"Ġmanasaá¸¥":9807,"Ġprokto":9808,"ĠdvitÄ«yo":9809,"Ġasty":9810,"gá¹Ľhá¹ĩÄ«":9811,"Ġvyatireka":9812,"ktuá¹ĥ":9813,"care":9814,"ĠvidhÄģna":9815,"ĠcÄģsau":9816,"Ġhaste":9817,"Ġcitraá¹ĥ":9818,"Ġgovi":9819,"bodhe":9820,"puruá¹£aá¸¥":9821,"Ġvastuni":9822,"Ġyudhiá¹£á¹Ńhiraá¸¥":9823,"samaá¸¥":9824,"á¹Ńhaá¹ĥ":9825,"vedaá¹ĥ":9826,"saá¹ĥsarga":9827,"ketu":9828,"ĠjÃ±Äģnena":9829,"yÄ«ta":9830,"niá¸¥sá¹Ľ":9831,"Ġpaá¹ħ":9832,"á¹ĩÄģva":9833,"ĠkÄģá¹£á¹ŃhÄģ":9834,"ÅĽiká¹£Äģ":9835,"Ġlaká¹£ya":9836,"Ġveá¹ĩu":9837,"ÅĽrame":9838,"bhuvaá¸¥":9839,"rtheá¹£u":9840,"cchra":9841,"dhá¹Ľk":9842,"ĠvijÃ±Äģya":9843,"Ġká¹£udra":9844,"ĠniÅĽamya":9845,"ddhaá¸¥":9846,"litam":9847,"ĠmahÄģvÄ«":9848,"ká¹£Äģnti":9849,"Ġtisá¹Ľ":9850,"vidhÄģá¸¥":9851,"Ġcaranti":9852,"ÅĽÄģnaá¹ĥ":9853,"ĠmahÄģprÄģ":9854,"smaran":9855,"karmasu":9856,"caká¹£uá¸¥":9857,"saindha":9858,"Ġjagha":9859,"cÄģpa":9860,"udga":9861,"pÄģdÄģnaá¹ĥ":9862,"ĠgirÄģ":9863,"tvaiva":9864,"Ġsomo":9865,"stÄģd":9866,"Ġgautama":9867,"vaktra":9868,"Ġvadet":9869,"ĠlokadhÄģtuá¹£u":9870,"gÄģm":9871,"vor":9872,"ttiá¸¥":9873,"viá¹£aá¸¥":9874,"Ġkarmaá¹ĩÄģá¹ĥ":9875,"Ġpraká¹Ľtiá¸¥":9876,"Ġpurataá¸¥":9877,"Ġanti":9878,"nubhÄģva":9879,"yutÄģ":9880,"ĠetÄģn":9881,"ĠcÄģna":9882,"svasti":9883,"vÄģcaka":9884,"ĠsarvÄģrtha":9885,"ĠÅĽreá¹£á¹Ńhi":9886,"tvÄģva":9887,"jÄģnÄģá¹ĥ":9888,"Ġyuva":9889,"sthÄ«":9890,"Ġkopa":9891,"ĠdhÄģrtarÄģá¹£á¹Ń":9892,"Ġkalau":9893,"mÄģnuá¹£Äģ":9894,"gma":9895,"Ġid":9896,"ĠgavÄģ":9897,"Ġupadi":9898,"nirvá¹Ľ":9899,"ÅĽeá¹£aá¸¥":9900,"ntÄģt":9901,"janaka":9902,"mÄģtro":9903,"vÄģá¹ĥs":9904,"Ġbibha":9905,"balÄģt":9906,"Ġartham":9907,"ĠnavÄģ":9908,"Ġnaá¹£á¹Ńa":9909,"ĠdÄģnava":9910,"pÄ«á¸įÄģ":9911,"vidhÄģnaá¹ĥ":9912,"Ġsiddhaá¸¥":9913,"ĠsnÄģna":9914,"Ġká¹£Ä«raá¹ĥ":9915,"Ġkuladuhi":9916,"gyaá¹ĥ":9917,"yaÃ±":9918,"naká¹£atra":9919,"nÄģthaá¸¥":9920,"lekha":9921,"Ġabhipre":9922,"Ġká¹£aá¹ĩaá¹ĥ":9923,"kÄģÅĽam":9924,"vijÃ±ÄģnÄģ":9925,"mÄģda":9926,"jÄģmi":9927,"irna":9928,"Ġkinna":9929,"á¹ħgasya":9930,"ĠmuktvÄģ":9931,"carÄ«":9932,"tula":9933,"Ġpaká¹£aá¸¥":9934,"uko":9935,"ĠsÄģdhye":9936,"ĠmÄģni":9937,"mantreá¹ĩa":9938,"gandharvÄģ":9939,"caká¹£ur":9940,"Ġratham":9941,"alaá¹ĥ":9942,"pyo":9943,"á¹ĩama":9944,"Ġjalam":9945,"parivar":9946,"Ġgá¹Ľham":9947,"karmaá¹ĩaá¸¥":9948,"Ġpraká¹Ľtir":9949,"Ġugra":9950,"Ġsaá¹ĥsa":9951,"ĠjÄ«vaá¸¥":9952,"ĠsÄģdhanaá¹ĥ":9953,"nasÄģ":9954,"vÄģji":9955,"nÄģrtham":9956,"ritÄģá¸¥":9957,"riá¹ĩÄ«":9958,"Ġsuvar":9959,"ÅĽobhÄģ":9960,"sarvam":9961,"maá¹ĩá¸įalaá¹ĥ":9962,"ĠekÄģdaÅĽa":9963,"Ġsaá¹ħkhyÄģ":9964,"om":9965,"karÄģá¸¥":9966,"jaá¹ħga":9967,"Ġhavir":9968,"ĠbÄģá¹£pa":9969,"samÄģpat":9970,"Ġmá¹Ľtyur":9971,"spha":9972,"ĠkuÃ±ja":9973,"ĠcÄģhaá¹ĥ":9974,"Ġdhanuá¸¥":9975,"svabhÄģvaá¸¥":9976,"Ġvyapadi":9977,"nteti":9978,"Ġsthita":9979,"Ġmahará¹£i":9980,"gacchanti":9981,"kaÅĽca":9982,"gantu":9983,"yugÄģ":9984,"jÃ±ÄģnÄģt":9985,"ÅĽÄģstraá¹ĥ":9986,"ramÅ«":9987,"ĠcikÄ«r":9988,"jitya":9989,"Ġarci":9990,"ĠupÄģya":9991,"ĠÅĽreá¹£á¹Ńhaá¹ĥ":9992,"chÄģyÄģ":9993,"sÄģhasryÄģá¹ĥ":9994,"Ġvivá¹Ľá¹ĩoti":9995,"paye":9996,"Ġpraká¹£Äģ":9997,"ĠimÄģm":9998,"sÄģrtha":9999}